{
  "version": "1.0",
  "truncation": null,
  "padding": null,
  "added_tokens": [
    {
      "id": 0,
      "content": "[UNK]",
      "single_word": false,
      "lstrip": false,
      "rstrip": false,
      "normalized": false,
      "special": true
    },
    {
      "id": 1,
      "content": "[CLS]",
      "single_word": false,
      "lstrip": false,
      "rstrip": false,
      "normalized": false,
      "special": true
    },
    {
      "id": 2,
      "content": "[SEP]",
      "single_word": false,
      "lstrip": false,
      "rstrip": false,
      "normalized": false,
      "special": true
    },
    {
      "id": 3,
      "content": "[PAD]",
      "single_word": false,
      "lstrip": false,
      "rstrip": false,
      "normalized": false,
      "special": true
    },
    {
      "id": 4,
      "content": "[MASK]",
      "single_word": false,
      "lstrip": false,
      "rstrip": false,
      "normalized": false,
      "special": true
    }
  ],
  "normalizer": null,
  "pre_tokenizer": {
    "type": "Whitespace"
  },
  "post_processor": {
    "type": "TemplateProcessing",
    "single": [
      {
        "SpecialToken": {
          "id": "[CLS]",
          "type_id": 0
        }
      },
      {
        "Sequence": {
          "id": "A",
          "type_id": 0
        }
      },
      {
        "SpecialToken": {
          "id": "[SEP]",
          "type_id": 0
        }
      }
    ],
    "pair": [
      {
        "SpecialToken": {
          "id": "[CLS]",
          "type_id": 0
        }
      },
      {
        "Sequence": {
          "id": "A",
          "type_id": 0
        }
      },
      {
        "SpecialToken": {
          "id": "[SEP]",
          "type_id": 0
        }
      },
      {
        "Sequence": {
          "id": "B",
          "type_id": 1
        }
      },
      {
        "SpecialToken": {
          "id": "[SEP]",
          "type_id": 1
        }
      }
    ],
    "special_tokens": {
      "[CLS]": {
        "id": "[CLS]",
        "ids": [
          1
        ],
        "tokens": [
          "[CLS]"
        ]
      },
      "[SEP]": {
        "id": "[SEP]",
        "ids": [
          2
        ],
        "tokens": [
          "[SEP]"
        ]
      }
    }
  },
  "decoder": null,
  "model": {
    "type": "BPE",
    "dropout": null,
    "unk_token": "[UNK]",
    "continuing_subword_prefix": null,
    "end_of_word_suffix": null,
    "fuse_unk": false,
    "byte_fallback": false,
    "ignore_merges": false,
    "vocab": {
      "[UNK]": 0,
      "[CLS]": 1,
      "[SEP]": 2,
      "[PAD]": 3,
      "[MASK]": 4,
      "!": 5,
      "#": 6,
      "$": 7,
      "%": 8,
      "'": 9,
      "(": 10,
      ")": 11,
      "*": 12,
      ",": 13,
      "-": 14,
      ".": 15,
      "/": 16,
      "0": 17,
      "1": 18,
      "2": 19,
      "3": 20,
      "4": 21,
      "5": 22,
      "6": 23,
      "7": 24,
      "8": 25,
      "9": 26,
      ":": 27,
      ";": 28,
      "?": 29,
      "A": 30,
      "B": 31,
      "C": 32,
      "D": 33,
      "E": 34,
      "F": 35,
      "G": 36,
      "H": 37,
      "I": 38,
      "J": 39,
      "K": 40,
      "L": 41,
      "M": 42,
      "N": 43,
      "O": 44,
      "P": 45,
      "Q": 46,
      "R": 47,
      "S": 48,
      "T": 49,
      "U": 50,
      "V": 51,
      "W": 52,
      "X": 53,
      "Y": 54,
      "Z": 55,
      "[": 56,
      "]": 57,
      "_": 58,
      "a": 59,
      "b": 60,
      "c": 61,
      "d": 62,
      "e": 63,
      "f": 64,
      "g": 65,
      "h": 66,
      "i": 67,
      "j": 68,
      "k": 69,
      "l": 70,
      "m": 71,
      "n": 72,
      "o": 73,
      "p": 74,
      "q": 75,
      "r": 76,
      "s": 77,
      "t": 78,
      "u": 79,
      "v": 80,
      "w": 81,
      "x": 82,
      "y": 83,
      "z": 84,
      "æ": 85,
      "ç": 86,
      "é": 87,
      "ê": 88,
      "ô": 89,
      "ü": 90,
      "œ": 91,
      "—": 92,
      "‘": 93,
      "’": 94,
      "“": 95,
      "”": 96,
      "•": 97,
      "…": 98,
      "™": 99,
      "﻿": 100,
      "he": 101,
      "in": 102,
      "the": 103,
      "an": 104,
      "re": 105,
      "at": 106,
      "ou": 107,
      "on": 108,
      "ed": 109,
      "er": 110,
      "th": 111,
      "and": 112,
      "to": 113,
      "en": 114,
      "as": 115,
      "ing": 116,
      "or": 117,
      "is": 118,
      "of": 119,
      "ar": 120,
      "--": 121,
      "it": 122,
      "me": 123,
      "al": 124,
      "st": 125,
      "le": 126,
      "ro": 127,
      "se": 128,
      "ad": 129,
      "ly": 130,
      "was": 131,
      "es": 132,
      "ow": 133,
      "ic": 134,
      "gh": 135,
      "be": 136,
      "id": 137,
      "ac": 138,
      "----": 139,
      "ut": 140,
      "ve": 141,
      "ll": 142,
      "that": 143,
      "ent": 144,
      "wi": 145,
      "ver": 146,
      "ion": 147,
      "we": 148,
      "ay": 149,
      "you": 150,
      "ld": 151,
      "ght": 152,
      "om": 153,
      "li": 154,
      "with": 155,
      "for": 156,
      "un": 157,
      "ri": 158,
      ".”": 159,
      "wh": 160,
      "had": 161,
      "lo": 162,
      "im": 163,
      "so": 164,
      "his": 165,
      "ch": 166,
      "ir": 167,
      "The": 168,
      "out": 169,
      "ab": 170,
      "all": 171,
      "my": 172,
      "no": 173,
      "ag": 174,
      "by": 175,
      "ur": 176,
      "ter": 177,
      "red": 178,
      "ce": 179,
      "up": 180,
      "sa": 181,
      "ha": 182,
      "ct": 183,
      "her": 184,
      "ne": 185,
      "ke": 186,
      "--------": 187,
      "ain": 188,
      "one": 189,
      "mo": 190,
      ",”": 191,
      "nd": 192,
      "fe": 193,
      "co": 194,
      "il": 195,
      "ge": 196,
      "ther": 197,
      "she": 198,
      "ok": 199,
      "ss": 200,
      "pe": 201,
      "sh": 202,
      "rom": 203,
      "go": 204,
      "su": 205,
      "him": 206,
      "ca": 207,
      "ra": 208,
      "but": 209,
      "em": 210,
      "ard": 211,
      "ant": 212,
      "from": 213,
      "do": 214,
      "con": 215,
      "thing": 216,
      "ti": 217,
      "ould": 218,
      "?”": 219,
      "te": 220,
      "ound": 221,
      "am": 222,
      "po": 223,
      "way": 224,
      "de": 225,
      "He": 226,
      "ats": 227,
      "our": 228,
      "said": 229,
      "if": 230,
      "wor": 231,
      "now": 232,
      "ation": 233,
      "ex": 234,
      "us": 235,
      "some": 236,
      "Gats": 237,
      "Gatsby": 238,
      "whe": 239,
      "od": 240,
      "ust": 241,
      "this": 242,
      "were": 243,
      "ind": 244,
      "own": 245,
      "fo": 246,
      "any": 247,
      "per": 248,
      "ul": 249,
      "ous": 250,
      "ong": 251,
      "into": 252,
      "tle": 253,
      "there": 254,
      "ber": 255,
      "ess": 256,
      "tr": 257,
      "ight": 258,
      "qu": 259,
      "pl": 260,
      "It": 261,
      "ast": 262,
      "over": 263,
      "pp": 264,
      "We": 265,
      "ide": 266,
      "lit": 267,
      "look": 268,
      "la": 269,
      "ack": 270,
      "have": 271,
      "not": 272,
      "----------------": 273,
      "ist": 274,
      "art": 275,
      "Tom": 276,
      "man": 277,
      "ate": 278,
      "pre": 279,
      "ck": 280,
      "Da": 281,
      "der": 282,
      "isy": 283,
      "about": 284,
      "Daisy": 285,
      "op": 286,
      "very": 287,
      "af": 288,
      "ace": 289,
      "ive": 290,
      "ine": 291,
      "other": 292,
      "are": 293,
      "ect": 294,
      "ough": 295,
      "ho": 296,
      "sp": 297,
      "came": 298,
      "down": 299,
      "et": 300,
      "time": 301,
      "like": 302,
      "they": 303,
      "ven": 304,
      "ject": 305,
      "ol": 306,
      "able": 307,
      "ak": 308,
      "ved": 309,
      "um": 310,
      "who": 311,
      "little": 312,
      "ill": 313,
      "ity": 314,
      "com": 315,
      "ort": 316,
      "ink": 317,
      "hand": 318,
      "hed": 319,
      "end": 320,
      "light": 321,
      "ach": 322,
      "sto": 323,
      "work": 324,
      "ig": 325,
      "know": 326,
      "hat": 327,
      "bl": 328,
      "You": 329,
      "ite": 330,
      "been": 331,
      "uten": 332,
      "urn": 333,
      "fore": 334,
      "back": 335,
      "berg": 336,
      "ought": 337,
      "utenberg": 338,
      "did": 339,
      "ice": 340,
      "ure": 341,
      "could": 342,
      "gre": 343,
      "pt": 344,
      "ey": 345,
      "ark": 346,
      "ick": 347,
      "again": 348,
      "Pro": 349,
      "ich": 350,
      "car": 351,
      "after": 352,
      "bo": 353,
      "pro": 354,
      "them": 355,
      "when": 356,
      "right": 357,
      "ated": 358,
      "She": 359,
      "row": 360,
      "lf": 361,
      "Gutenberg": 362,
      "ally": 363,
      "Project": 364,
      "el": 365,
      "went": 366,
      "new": 367,
      "ear": 368,
      "ward": 369,
      "day": 370,
      "ph": 371,
      "then": 372,
      "ep": 373,
      "dis": 374,
      "what": 375,
      "ble": 376,
      "son": 377,
      "get": 378,
      "turn": 379,
      "low": 380,
      "ted": 381,
      "ried": 382,
      "got": 383,
      "self": 384,
      "which": 385,
      "But": 386,
      "Mr": 387,
      "air": 388,
      "hou": 389,
      "less": 390,
      "wo": 391,
      "before": 392,
      "don": 393,
      "ass": 394,
      "house": 395,
      "use": 396,
      "ile": 397,
      "ru": 398,
      "can": 399,
      "ap": 400,
      "old": 401,
      "under": 402,
      "ment": 403,
      "room": 404,
      "see": 405,
      "eyes": 406,
      "here": 407,
      "night": 408,
      "ry": 409,
      "more": 410,
      "come": 411,
      "ked": 412,
      "dan": 413,
      "just": 414,
      "ran": 415,
      "where": 416,
      "looked": 417,
      "beg": 418,
      "want": 419,
      "would": 420,
      "ree": 421,
      "And": 422,
      "min": 423,
      "cl": 424,
      "their": 425,
      "upon": 426,
      "away": 427,
      "side": 428,
      "think": 429,
      "gl": 430,
      "long": 431,
      "off": 432,
      "saw": 433,
      "ting": 434,
      "ci": 435,
      "ron": 436,
      "rough": 437,
      "mom": 438,
      "moment": 439,
      "ness": 440,
      "door": 441,
      "ers": 442,
      "act": 443,
      "ake": 444,
      "ade": 445,
      "ue": 446,
      "!”": 447,
      "vo": 448,
      "ving": 449,
      "its": 450,
      "dd": 451,
      "dre": 452,
      "fir": 453,
      "ople": 454,
      "even": 455,
      "gr": 456,
      "Then": 457,
      "through": 458,
      "age": 459,
      "your": 460,
      "llow": 461,
      "people": 462,
      "too": 463,
      "clo": 464,
      "seem": 465,
      "turned": 466,
      "sm": 467,
      "ty": 468,
      "ody": 469,
      "ten": 470,
      "didn": 471,
      "cre": 472,
      "ies": 473,
      "br": 474,
      "fl": 475,
      "made": 476,
      "head": 477,
      "ful": 478,
      "face": 479,
      "most": 480,
      "part": 481,
      "iss": 482,
      "cont": 483,
      "ning": 484,
      "In": 485,
      "ps": 486,
      "ance": 487,
      "never": 488,
      "che": 489,
      "every": 490,
      "rest": 491,
      "ions": 492,
      "two": 493,
      "uch": 494,
      "Wil": 495,
      "thought": 496,
      "ute": 497,
      "ence": 498,
      "Wilson": 499,
      "ary": 500,
      "first": 501,
      "how": 502,
      "vi": 503,
      "wn": 504,
      "ordan": 505,
      "ently": 506,
      "pr": 507,
      "rem": 508,
      "arm": 509,
      "cop": 510,
      "--------------------------------": 511,
      "seemed": 512,
      "ame": 513,
      "mat": 514,
      "must": 515,
      "ull": 516,
      "lect": 517,
      "going": 518,
      "ft": 519,
      "wa": 520,
      "toward": 521,
      "ited": 522,
      "Jordan": 523,
      "ud": 524,
      "only": 525,
      "white": 526,
      "cor": 527,
      "ob": 528,
      "sit": 529,
      "year": 530,
      "ren": 531,
      "pped": 532,
      "med": 533,
      "tain": 534,
      "ath": 535,
      "irl": 536,
      "ever": 537,
      "last": 538,
      "So": 539,
      "around": 540,
      "something": 541,
      "began": 542,
      "What": 543,
      "mor": 544,
      "int": 545,
      "girl": 546,
      "There": 547,
      "They": 548,
      "ened": 549,
      "ime": 550,
      "spe": 551,
      "—”": 552,
      "Time": 553,
      "ew": 554,
      "That": 555,
      "dark": 556,
      "found": 557,
      "wind": 558,
      "took": 559,
      "say": 560,
      "stand": 561,
      "rave": 562,
      "hal": 563,
      "ire": 564,
      "lt": 565,
      "ook": 566,
      "unt": 567,
      "ple": 568,
      "than": 569,
      "dden": 570,
      "dri": 571,
      "these": 572,
      "cou": 573,
      "body": 574,
      "des": 575,
      "men": 576,
      "read": 577,
      "ans": 578,
      "ations": 579,
      "ave": 580,
      "knew": 581,
      "ot": 582,
      "voice": 583,
      "bro": 584,
      "cer": 585,
      "world": 586,
      "cess": 587,
      "dist": 588,
      "tor": 589,
      "copy": 590,
      "call": 591,
      "ish": 592,
      "press": 593,
      "half": 594,
      "start": 595,
      "form": 596,
      "ced": 597,
      "hen": 598,
      "while": 599,
      "ement": 600,
      "ged": 601,
      "cept": 602,
      "cause": 603,
      "ously": 604,
      "tal": 605,
      "wal": 606,
      "heard": 607,
      "let": 608,
      "bet": 609,
      "ner": 610,
      "well": 611,
      "est": 612,
      "sun": 613,
      "still": 614,
      "ical": 615,
      "noon": 616,
      "ng": 617,
      "name": 618,
      "sport": 619,
      "ared": 620,
      "bre": 621,
      "sent": 622,
      "ily": 623,
      "table": 624,
      "another": 625,
      "ef": 626,
      "gg": 627,
      "ase": 628,
      "left": 629,
      "sat": 630,
      "felt": 631,
      "sudden": 632,
      "sur": 633,
      "told": 634,
      "set": 635,
      "will": 636,
      "hands": 637,
      "At": 638,
      "sup": 639,
      "ves": 640,
      "because": 641,
      "und": 642,
      "ways": 643,
      "until": 644,
      "sc": 645,
      "happ": 646,
      "tell": 647,
      "qui": 648,
      "elect": 649,
      "hour": 650,
      "put": 651,
      "ross": 652,
      "much": 653,
      "young": 654,
      "ribut": 655,
      "chan": 656,
      "achine": 657,
      "against": 658,
      "If": 659,
      "great": 660,
      "My": 661,
      "St": 662,
      "iz": 663,
      "should": 664,
      "lau": 665,
      "years": 666,
      "Do": 667,
      "New": 668,
      "cu": 669,
      "king": 670,
      "may": 671,
      "ose": 672,
      "par": 673,
      "try": 674,
      "stood": 675,
      "works": 676,
      "His": 677,
      "This": 678,
      "app": 679,
      "three": 680,
      "along": 681,
      "lie": 682,
      "sol": 683,
      "Well": 684,
      "bed": 685,
      "di": 686,
      "ms": 687,
      "ser": 688,
      "gest": 689,
      "things": 690,
      "word": 691,
      "follow": 692,
      "afternoon": 693,
      "sil": 694,
      "ars": 695,
      "without": 696,
      "looking": 697,
      "minute": 698,
      "When": 699,
      "cur": 700,
      "gard": 701,
      "mar": 702,
      "pass": 703,
      "sha": 704,
      "used": 705,
      "aking": 706,
      "As": 707,
      "bu": 708,
      "pa": 709,
      "ta": 710,
      "asked": 711,
      "ised": 712,
      "lock": 713,
      "small": 714,
      "ravell": 715,
      "ather": 716,
      "ched": 717,
      "fin": 718,
      "ible": 719,
      "might": 720,
      "though": 721,
      "ens": 722,
      "ained": 723,
      "No": 724,
      "Wh": 725,
      "cted": 726,
      "cle": 727,
      "ky": 728,
      "mer": 729,
      "wat": 730,
      "real": 731,
      "West": 732,
      "ronic": 733,
      "window": 734,
      "electronic": 735,
      "full": 736,
      "vid": 737,
      "won": 738,
      "xt": 739,
      "ise": 740,
      "seen": 741,
      "ago": 742,
      "such": 743,
      "ped": 744,
      "once": 745,
      "myself": 746,
      "col": 747,
      "each": 748,
      "run": 749,
      "certain": 750,
      "Oh": 751,
      "fam": 752,
      "igh": 753,
      "reme": 754,
      "gether": 755,
      "dress": 756,
      "hu": 757,
      "has": 758,
      "mon": 759,
      "ense": 760,
      "aker": 761,
      "appe": 762,
      "suddenly": 763,
      "ces": 764,
      "dro": 765,
      "ek": 766,
      "make": 767,
      "sl": 768,
      "inter": 769,
      "together": 770,
      "life": 771,
      "play": 772,
      "times": 773,
      "Baker": 774,
      "cour": 775,
      "ale": 776,
      "nothing": 777,
      "shi": 778,
      "For": 779,
      "gar": 780,
      "tly": 781,
      "wom": 782,
      "ating": 783,
      "exc": 784,
      "open": 785,
      "ild": 786,
      "mur": 787,
      "ts": 788,
      "ery": 789,
      "ork": 790,
      "alone": 791,
      "always": 792,
      "str": 793,
      "imp": 794,
      "au": 795,
      "hard": 796,
      "agre": 797,
      "place": 798,
      "slow": 799,
      "ins": 800,
      "wasn": 801,
      "moved": 802,
      "morning": 803,
      "ither": 804,
      "lic": 805,
      "sed": 806,
      "ates": 807,
      "ished": 808,
      "fect": 809,
      "Found": 810,
      "Miss": 811,
      "fron": 812,
      "gro": 813,
      "next": 814,
      "remem": 815,
      "haps": 816,
      "among": 817,
      "York": 818,
      "five": 819,
      "iness": 820,
      "road": 821,
      "across": 822,
      "lim": 823,
      "same": 824,
      "feel": 825,
      "ign": 826,
      "Some": 827,
      "Foundation": 828,
      "front": 829,
      "inv": 830,
      "les": 831,
      "care": 832,
      "How": 833,
      "sing": 834,
      "conf": 835,
      "expl": 836,
      "sound": 837,
      "tered": 838,
      "cried": 839,
      "gone": 840,
      "step": 841,
      "love": 842,
      "coun": 843,
      "led": 844,
      "pu": 845,
      "incl": 846,
      "those": 847,
      "add": 848,
      "liar": 849,
      "ably": 850,
      "move": 851,
      "raw": 852,
      "ular": 853,
      "clock": 854,
      "medi": 855,
      "fri": 856,
      "find": 857,
      "tion": 858,
      "ener": 859,
      "met": 860,
      "terms": 861,
      "iled": 862,
      "olf": 863,
      "comp": 864,
      "black": 865,
      "distribut": 866,
      "friend": 867,
      "Travell": 868,
      "four": 869,
      "mind": 870,
      "hel": 871,
      "stran": 872,
      "rather": 873,
      "quest": 874,
      "days": 875,
      "fully": 876,
      "Egg": 877,
      "Wolf": 878,
      "din": 879,
      "dim": 880,
      "far": 881,
      "fain": 882,
      "gave": 883,
      "ual": 884,
      "inte": 885,
      "ween": 886,
      "oney": 887,
      "feet": 888,
      "shed": 889,
      "good": 890,
      "lawn": 891,
      "home": 892,
      "Mrs": 893,
      "shiem": 894,
      "Wolfshiem": 895,
      "ered": 896,
      "fter": 897,
      "gu": 898,
      "ie": 899,
      "lat": 900,
      "ye": 901,
      "ys": 902,
      "inst": 903,
      "almost": 904,
      "leep": 905,
      "few": 906,
      "sub": 907,
      "himself": 908,
      "between": 909,
      "Traveller": 910,
      "dem": 911,
      "flow": 912,
      "tre": 913,
      "ses": 914,
      "belie": 915,
      "dec": 916,
      "ments": 917,
      "wanted": 918,
      "After": 919,
      "bright": 920,
      "dif": 921,
      "take": 922,
      "ality": 923,
      "ident": 924,
      "pose": 925,
      "phone": 926,
      "pression": 927,
      "Ch": 928,
      "Her": 929,
      "aut": 930,
      "bes": 931,
      "fact": 932,
      "miss": 933,
      "sy": 934,
      "tried": 935,
      "hear": 936,
      "ash": 937,
      "arge": 938,
      "aces": 939,
      "whis": 940,
      "fell": 941,
      "person": 942,
      "ately": 943,
      "flo": 944,
      "ature": 945,
      "ond": 946,
      "perhaps": 947,
      "wait": 948,
      "course": 949,
      "demand": 950,
      "On": 951,
      "big": 952,
      "ee": 953,
      "ied": 954,
      "mou": 955,
      "enough": 956,
      "cho": 957,
      "sho": 958,
      "sum": 959,
      "antly": 960,
      "cond": 961,
      "book": 962,
      "remark": 963,
      "ready": 964,
      "Why": 965,
      "All": 966,
      "Don": 967,
      "Th": 968,
      "Un": 969,
      "ggest": 970,
      "ny": 971,
      "ref": 972,
      "ings": 973,
      "feren": 974,
      "suggest": 975,
      "amp": 976,
      "couldn": 977,
      "green": 978,
      "airs": 979,
      "contin": 980,
      "copyright": 981,
      "called": 982,
      "quired": 983,
      "Mor": 984,
      "lay": 985,
      "machine": 986,
      "money": 987,
      "ena": 988,
      "mean": 989,
      "ached": 990,
      "fort": 991,
      "anything": 992,
      "law": 993,
      "pres": 994,
      "started": 995,
      "walked": 996,
      "surpr": 997,
      "undred": 998,
      "garden": 999,
      "garage": 1000,
      "Go": 1001,
      "One": 1002,
      "cir": 1003,
      "hor": 1004,
      "jo": 1005,
      "kind": 1006,
      "ling": 1007,
      "rain": 1008,
      "wr": 1009,
      "rose": 1010,
      "ici": 1011,
      "moon": 1012,
      "ext": 1013,
      "everything": 1014,
      "towards": 1015,
      "agreement": 1016,
      "includ": 1017,
      "bar": 1018,
      "cr": 1019,
      "hind": 1020,
      "ler": 1021,
      "ost": 1022,
      "shad": 1023,
      "ww": 1024,
      "att": 1025,
      "week": 1026,
      "empt": 1027,
      "Weena": 1028,
      "understand": 1029,
      "locks": 1030,
      "later": 1031,
      "aw": 1032,
      "bus": 1033,
      "sort": 1034,
      "ually": 1035,
      "inquired": 1036,
      "stre": 1037,
      "behind": 1038,
      "ung": 1039,
      "whole": 1040,
      "steps": 1041,
      "yellow": 1042,
      "God": 1043,
      "give": 1044,
      "hall": 1045,
      "ix": 1046,
      "sky": 1047,
      "tou": 1048,
      "vent": 1049,
      "ane": 1050,
      "cei": 1051,
      "hair": 1052,
      "ction": 1053,
      "grey": 1054,
      "rown": 1055,
      "matter": 1056,
      "breath": 1057,
      "00": 1058,
      "TH": 1059,
      "ib": 1060,
      "many": 1061,
      "ome": 1062,
      "port": 1063,
      "val": 1064,
      "ene": 1065,
      "aring": 1066,
      "short": 1067,
      "raph": 1068,
      "does": 1069,
      "blue": 1070,
      "Ar": 1071,
      "Buch": 1072,
      "oc": 1073,
      "past": 1074,
      "ring": 1075,
      "spo": 1076,
      "ingly": 1077,
      "ste": 1078,
      "cold": 1079,
      "stopped": 1080,
      "----------------------------------------": 1081,
      "------------------------------------------------------------------------": 1082,
      "remember": 1083,
      "beside": 1084,
      "Buchan": 1085,
      "cy": 1086,
      "crow": 1087,
      "ff": 1088,
      "fre": 1089,
      "pri": 1090,
      "rup": 1091,
      "ister": 1092,
      "arri": 1093,
      "lea": 1094,
      "child": 1095,
      "sure": 1096,
      "pret": 1097,
      "hot": 1098,
      "hold": 1099,
      "illed": 1100,
      "evening": 1101,
      "passed": 1102,
      "Book": 1103,
      "II": 1104,
      "Nick": 1105,
      "du": 1106,
      "eBook": 1107,
      "high": 1108,
      "por": 1109,
      "sin": 1110,
      "already": 1111,
      "vered": 1112,
      "immedi": 1113,
      "ket": 1114,
      "tele": 1115,
      "trad": 1116,
      "idea": 1117,
      "happened": 1118,
      "married": 1119,
      "human": 1120,
      "help": 1121,
      "demanded": 1122,
      "Morlocks": 1123,
      "Mic": 1124,
      "az": 1125,
      "fall": 1126,
      "round": 1127,
      "sw": 1128,
      "van": 1129,
      "vis": 1130,
      "lean": 1131,
      "hael": 1132,
      "dog": 1133,
      "broke": 1134,
      "tax": 1135,
      "windows": 1136,
      "appeared": 1137,
      "woman": 1138,
      "interest": 1139,
      "Michael": 1140,
      "cri": 1141,
      "gi": 1142,
      "hundred": 1143,
      "iliar": 1144,
      "ken": 1145,
      "line": 1146,
      "rtle": 1147,
      "ator": 1148,
      "ically": 1149,
      "being": 1150,
      "wife": 1151,
      "why": 1152,
      "ively": 1153,
      "Myrtle": 1154,
      "curi": 1155,
      "followed": 1156,
      "familiar": 1157,
      "crowd": 1158,
      "East": 1159,
      "Lit": 1160,
      "cent": 1161,
      "fut": 1162,
      "ger": 1163,
      "num": 1164,
      "inc": 1165,
      "eng": 1166,
      "ening": 1167,
      "ching": 1168,
      "except": 1169,
      "quick": 1170,
      "opened": 1171,
      "ground": 1172,
      "pleas": 1173,
      "better": 1174,
      "States": 1175,
      "trying": 1176,
      "strange": 1177,
      "United": 1178,
      "dust": 1179,
      "free": 1180,
      "fire": 1181,
      "ith": 1182,
      "war": 1183,
      "res": 1184,
      "town": 1185,
      "itself": 1186,
      "stru": 1187,
      "beaut": 1188,
      "vers": 1189,
      "log": 1190,
      "chair": 1191,
      "fee": 1192,
      "dream": 1193,
      "darkness": 1194,
      "Buchanan": 1195,
      "Michaelis": 1196,
      "EN": 1197,
      "Look": 1198,
      "Machine": 1199,
      "RE": 1200,
      "dr": 1201,
      "fing": 1202,
      "fun": 1203,
      "hus": 1204,
      "zy": 1205,
      "zen": 1206,
      "ason": 1207,
      "soci": 1208,
      "nodd": 1209,
      "ties": 1210,
      "expe": 1211,
      "comple": 1212,
      "party": 1213,
      "viol": 1214,
      "solute": 1215,
      "summer": 1216,
      "shadow": 1217,
      "business": 1218,
      "Come": 1219,
      "To": 1220,
      "cas": 1221,
      "hur": 1222,
      "ired": 1223,
      "ious": 1224,
      "heart": 1225,
      "hesit": 1226,
      "ang": 1227,
      "oud": 1228,
      "erary": 1229,
      "acc": 1230,
      "hadn": 1231,
      "loved": 1232,
      "keep": 1233,
      "ult": 1234,
      "wouldn": 1235,
      "drive": 1236,
      "believe": 1237,
      "Yes": 1238,
      "ls": 1239,
      "lu": 1240,
      "large": 1241,
      "ages": 1242,
      "coat": 1243,
      "train": 1244,
      "close": 1245,
      "slowly": 1246,
      "Mc": 1247,
      "Man": 1248,
      "eas": 1249,
      "either": 1250,
      "sof": 1251,
      "sleep": 1252,
      "ught": 1253,
      "vil": 1254,
      "ition": 1255,
      "ster": 1256,
      "sever": 1257,
      "ict": 1258,
      "icago": 1259,
      "access": 1260,
      "lled": 1261,
      "show": 1262,
      "butler": 1263,
      "emark": 1264,
      "dered": 1265,
      "aren": 1266,
      "brought": 1267,
      "object": 1268,
      "girls": 1269,
      "trees": 1270,
      "Chicago": 1271,
      "several": 1272,
      "Now": 1273,
      "city": 1274,
      "ghed": 1275,
      "ove": 1276,
      "prom": 1277,
      "pale": 1278,
      "ze": 1279,
      "org": 1280,
      "stay": 1281,
      "stared": 1282,
      "stairs": 1283,
      "second": 1284,
      "idd": 1285,
      "chive": 1286,
      "outside": 1287,
      "abs": 1288,
      "agraph": 1289,
      "need": 1290,
      "motion": 1291,
      "dozen": 1292,
      "exp": 1293,
      "ended": 1294,
      "known": 1295,
      "glan": 1296,
      "office": 1297,
      "standing": 1298,
      "laughed": 1299,
      "paragraph": 1300,
      "wonder": 1301,
      "dinner": 1302,
      "Archive": 1303,
      "telephone": 1304,
      "trademark": 1305,
      "Literary": 1306,
      "bur": 1307,
      "fa": 1308,
      "fig": 1309,
      "lun": 1310,
      "mit": 1311,
      "mist": 1312,
      "ned": 1313,
      "smo": 1314,
      "ined": 1315,
      "inside": 1316,
      "oub": 1317,
      "ering": 1318,
      "orge": 1319,
      "ities": 1320,
      "least": 1321,
      "ford": 1322,
      "forth": 1323,
      "grew": 1324,
      "getting": 1325,
      "change": 1326,
      "drove": 1327,
      "differen": 1328,
      "floor": 1329,
      "mouth": 1330,
      "future": 1331,
      "Did": 1332,
      "With": 1333,
      "band": 1334,
      "gener": 1335,
      "ks": 1336,
      "pur": 1337,
      "swe": 1338,
      "sight": 1339,
      "vol": 1340,
      "held": 1341,
      "inted": 1342,
      "reached": 1343,
      "recei": 1344,
      "ising": 1345,
      "leg": 1346,
      "wild": 1347,
      "wered": 1348,
      "near": 1349,
      "cool": 1350,
      "shook": 1351,
      "poc": 1352,
      "foot": 1353,
      "anyone": 1354,
      "pping": 1355,
      "isted": 1356,
      "present": 1357,
      "coming": 1358,
      "stop": 1359,
      "rooms": 1360,
      "arms": 1361,
      "appro": 1362,
      "feeling": 1363,
      "since": 1364,
      "complete": 1365,
      "LI": 1366,
      "hill": 1367,
      "late": 1368,
      "pull": 1369,
      "tri": 1370,
      "ued": 1371,
      "als": 1372,
      "live": 1373,
      "forward": 1374,
      "abor": 1375,
      "absolute": 1376,
      "covered": 1377,
      "poss": 1378,
      "deep": 1379,
      "prote": 1380,
      "phys": 1381,
      "donations": 1382,
      "answered": 1383,
      "broken": 1384,
      "talked": 1385,
      "effort": 1386,
      "ized": 1387,
      "words": 1388,
      "mission": 1389,
      "pretty": 1390,
      "McK": 1391,
      "Ab": 1392,
      "dam": 1393,
      "ga": 1394,
      "wall": 1395,
      "yed": 1396,
      "atur": 1397,
      "oun": 1398,
      "thir": 1399,
      "assu": 1400,
      "utes": 1401,
      "soon": 1402,
      "ager": 1403,
      "point": 1404,
      "expression": 1405,
      "pers": 1406,
      "laim": 1407,
      "story": 1408,
      "lessly": 1409,
      "longer": 1410,
      "shoulder": 1411,
      "flowers": 1412,
      "number": 1413,
      "figure": 1414,
      "Of": 1415,
      "Ro": 1416,
      "cing": 1417,
      "draw": 1418,
      "lad": 1419,
      "mine": 1420,
      "pow": 1421,
      "pie": 1422,
      "sci": 1423,
      "ton": 1424,
      "tak": 1425,
      "uc": 1426,
      "heat": 1427,
      "inct": 1428,
      "ative": 1429,
      "oured": 1430,
      "accept": 1431,
      "utter": 1432,
      "ghter": 1433,
      "loc": 1434,
      "above": 1435,
      "tern": 1436,
      "shar": 1437,
      "gold": 1438,
      "cannot": 1439,
      "begin": 1440,
      "waited": 1441,
      "speak": 1442,
      "formation": 1443,
      "sland": 1444,
      "question": 1445,
      "suggested": 1446,
      "laws": 1447,
      "arrived": 1448,
      "immediately": 1449,
      "nodded": 1450,
      "Be": 1451,
      "Mon": 1452,
      "OR": 1453,
      "doub": 1454,
      "grow": 1455,
      "nam": 1456,
      "pay": 1457,
      "sign": 1458,
      "really": 1459,
      "thick": 1460,
      "ask": 1461,
      "orm": 1462,
      "aded": 1463,
      "forgot": 1464,
      "polit": 1465,
      "que": 1466,
      "ches": 1467,
      "suppose": 1468,
      "insisted": 1469,
      "pleasant": 1470,
      "Ge": 1471,
      "Island": 1472,
      "Who": 1473,
      "bought": 1474,
      "faces": 1475,
      "vag": 1476,
      "warm": 1477,
      "yet": 1478,
      "inde": 1479,
      "repe": 1480,
      "reason": 1481,
      "isn": 1482,
      "itions": 1483,
      "stat": 1484,
      "ices": 1485,
      "both": 1486,
      "earth": 1487,
      "rug": 1488,
      "sitting": 1489,
      "serv": 1490,
      "clear": 1491,
      "watch": 1492,
      "colour": 1493,
      "month": 1494,
      "porch": 1495,
      "soft": 1496,
      "McKee": 1497,
      "sharp": 1498,
      "Just": 1499,
      "blo": 1500,
      "fif": 1501,
      "pair": 1502,
      "tes": 1503,
      "trem": 1504,
      "wer": 1505,
      "ances": 1506,
      "rible": 1507,
      "lost": 1508,
      "aged": 1509,
      "kept": 1510,
      "pered": 1511,
      "suit": 1512,
      "ants": 1513,
      "pos": 1514,
      "hope": 1515,
      "iles": 1516,
      "apart": 1517,
      "rang": 1518,
      "minutes": 1519,
      "glass": 1520,
      "grass": 1521,
      "smiled": 1522,
      "family": 1523,
      "murmur": 1524,
      "including": 1525,
      "leaving": 1526,
      "quickly": 1527,
      "drink": 1528,
      "glanced": 1529,
      "AN": 1530,
      "Car": 1531,
      "Cody": 1532,
      "Lic": 1533,
      "OF": 1534,
      "Where": 1535,
      "cra": 1536,
      "ele": 1537,
      "eager": 1538,
      "nine": 1539,
      "ping": 1540,
      "sn": 1541,
      "tomor": 1542,
      "ased": 1543,
      "mere": 1544,
      "meet": 1545,
      "sts": 1546,
      "stra": 1547,
      "icular": 1548,
      "ghost": 1549,
      "lips": 1550,
      "within": 1551,
      "pool": 1552,
      "posed": 1553,
      "deter": 1554,
      "ific": 1555,
      "somebody": 1556,
      "perfect": 1557,
      "bled": 1558,
      "particular": 1559,
      "prof": 1560,
      "laugh": 1561,
      "finite": 1562,
      "women": 1563,
      "explained": 1564,
      "leaned": 1565,
      "husband": 1566,
      "License": 1567,
      "tomorrow": 1568,
      "IN": 1569,
      "cut": 1570,
      "cig": 1571,
      "dire": 1572,
      "gue": 1573,
      "hy": 1574,
      "pict": 1575,
      "slight": 1576,
      "sick": 1577,
      "ining": 1578,
      "ank": 1579,
      "reco": 1580,
      "tory": 1581,
      "leave": 1582,
      "aced": 1583,
      "ention": 1584,
      "wet": 1585,
      "moving": 1586,
      "antic": 1587,
      "dead": 1588,
      "iful": 1589,
      "usion": 1590,
      "fool": 1591,
      "true": 1592,
      "spring": 1593,
      "cars": 1594,
      "turning": 1595,
      "creature": 1596,
      "continued": 1597,
      "incred": 1598,
      "hesitated": 1599,
      "pulled": 1600,
      "physical": 1601,
      "doubt": 1602,
      "picture": 1603,
      "Cather": 1604,
      "Long": 1605,
      "Ox": 1606,
      "bit": 1607,
      "ging": 1608,
      "ian": 1609,
      "list": 1610,
      "ma": 1611,
      "rid": 1612,
      "sim": 1613,
      "sister": 1614,
      "heap": 1615,
      "reg": 1616,
      "sea": 1617,
      "vest": 1618,
      "lived": 1619,
      "uni": 1620,
      "cap": 1621,
      "raid": 1622,
      "eman": 1623,
      "doing": 1624,
      "polic": 1625,
      "trou": 1626,
      "bling": 1627,
      "laughter": 1628,
      "silver": 1629,
      "remarked": 1630,
      "Good": 1631,
      "circ": 1632,
      "doesn": 1633,
      "occur": 1634,
      "atory": 1635,
      "curious": 1636,
      "hurried": 1637,
      "lunch": 1638,
      "taken": 1639,
      "polite": 1640,
      "George": 1641,
      "Catherine": 1642,
      "Oxford": 1643,
      "policeman": 1644,
      "CT": 1645,
      "ER": 1646,
      "ctor": 1647,
      "done": 1648,
      "fast": 1649,
      "gutenberg": 1650,
      "ming": 1651,
      "twi": 1652,
      "xi": 1653,
      "yond": 1654,
      "inn": 1655,
      "thin": 1656,
      "associ": 1657,
      "order": 1658,
      "ism": 1659,
      "beyond": 1660,
      "imag": 1661,
      "raised": 1662,
      "ousand": 1663,
      "lights": 1664,
      "cial": 1665,
      "voices": 1666,
      "view": 1667,
      "changed": 1668,
      "excit": 1669,
      "country": 1670,
      "comply": 1671,
      "faint": 1672,
      "surprised": 1673,
      "www": 1674,
      "spoke": 1675,
      "stead": 1676,
      "fresh": 1677,
      "beautiful": 1678,
      "fingers": 1679,
      "About": 1680,
      "vague": 1681,
      "Med": 1682,
      "Very": 1683,
      "awn": 1684,
      "cal": 1685,
      "mas": 1686,
      "mus": 1687,
      "making": 1688,
      "nice": 1689,
      "swi": 1690,
      "spl": 1691,
      "inten": 1692,
      "erable": 1693,
      "enorm": 1694,
      "stu": 1695,
      "became": 1696,
      "rill": 1697,
      "whom": 1698,
      "sole": 1699,
      "uring": 1700,
      "ility": 1701,
      "shir": 1702,
      "caught": 1703,
      "till": 1704,
      "posit": 1705,
      "quite": 1706,
      "blind": 1707,
      "boy": 1708,
      "provid": 1709,
      "rub": 1710,
      "grad": 1711,
      "flu": 1712,
      "talk": 1713,
      "scene": 1714,
      "quiet": 1715,
      "added": 1716,
      "whispered": 1717,
      "cholog": 1718,
      "presently": 1719,
      "ibly": 1720,
      "vanished": 1721,
      "iddle": 1722,
      "Even": 1723,
      "Is": 1724,
      "Psy": 1725,
      "Sect": 1726,
      "bal": 1727,
      "cup": 1728,
      "eight": 1729,
      "ffe": 1730,
      "glow": 1731,
      "ia": 1732,
      "jud": 1733,
      "kiss": 1734,
      "pat": 1735,
      "pal": 1736,
      "ric": 1737,
      "rich": 1738,
      "tw": 1739,
      "vin": 1740,
      "vit": 1741,
      "incre": 1742,
      "ency": 1743,
      "memor": 1744,
      "sear": 1745,
      "bered": 1746,
      "below": 1747,
      "lip": 1748,
      "nose": 1749,
      "having": 1750,
      "rail": 1751,
      "dest": 1752,
      "somewhere": 1753,
      "wheel": 1754,
      "odd": 1755,
      "laz": 1756,
      "comm": 1757,
      "eye": 1758,
      "phr": 1759,
      "drew": 1760,
      "flat": 1761,
      "cheer": 1762,
      "match": 1763,
      "corn": 1764,
      "spect": 1765,
      "following": 1766,
      "running": 1767,
      "ighb": 1768,
      "single": 1769,
      "writ": 1770,
      "expected": 1771,
      "accepted": 1772,
      "forgotten": 1773,
      "chologist": 1774,
      "Psychologist": 1775,
      "**": 1776,
      "AR": 1777,
      "Jay": 1778,
      "Sound": 1779,
      "UT": 1780,
      "bad": 1781,
      "fla": 1782,
      "fair": 1783,
      "gas": 1784,
      "grave": 1785,
      "har": 1786,
      "ial": 1787,
      "killed": 1788,
      "mis": 1789,
      "mag": 1790,
      "pé": 1791,
      "pain": 1792,
      "pick": 1793,
      "sou": 1794,
      "sal": 1795,
      "sid": 1796,
      "sity": 1797,
      "taking": 1798,
      "travell": 1799,
      "inx": 1800,
      "state": 1801,
      "living": 1802,
      "une": 1803,
      "impression": 1804,
      "agree": 1805,
      "haven": 1806,
      "necess": 1807,
      "ssed": 1808,
      "tily": 1809,
      "teen": 1810,
      "ified": 1811,
      "tru": 1812,
      "quality": 1813,
      "afraid": 1814,
      "ety": 1815,
      "forever": 1816,
      "thinking": 1817,
      "glad": 1818,
      "clothe": 1819,
      "brary": 1820,
      "corner": 1821,
      "spec": 1822,
      "saying": 1823,
      "coupé": 1824,
      "pressed": 1825,
      "build": 1826,
      "water": 1827,
      "excited": 1828,
      "auto": 1829,
      "remembered": 1830,
      "refund": 1831,
      "presence": 1832,
      "wrong": 1833,
      "THE": 1834,
      "versation": 1835,
      "assured": 1836,
      "beginning": 1837,
      "crazy": 1838,
      "determin": 1839,
      "trouble": 1840,
      "twilight": 1841,
      "associated": 1842,
      "Medical": 1843,
      ".’": 1844,
      "Any": 1845,
      "Gre": 1846,
      "TI": 1847,
      "bs": 1848,
      "brown": 1849,
      "cat": 1850,
      "cry": 1851,
      "during": 1852,
      "fer": 1853,
      "fur": 1854,
      "fted": 1855,
      "gn": 1856,
      "hung": 1857,
      "jum": 1858,
      "link": 1859,
      "mir": 1860,
      "natur": 1861,
      "ror": 1862,
      "rag": 1863,
      "sen": 1864,
      "scar": 1865,
      "tur": 1866,
      "vill": 1867,
      "wide": 1868,
      "reach": 1869,
      "ones": 1870,
      "asleep": 1871,
      "secre": 1872,
      "beach": 1873,
      "forget": 1874,
      "neighb": 1875,
      "shes": 1876,
      "conversation": 1877,
      "poor": 1878,
      "using": 1879,
      "others": 1880,
      "whose": 1881,
      "carry": 1882,
      "display": 1883,
      "rushed": 1884,
      "copies": 1885,
      "rent": 1886,
      "happen": 1887,
      "silent": 1888,
      "pause": 1889,
      "tail": 1890,
      "huge": 1891,
      "interrup": 1892,
      "pushed": 1893,
      "mitted": 1894,
      "repeated": 1895,
      "posse": 1896,
      "occurred": 1897,
      "enormous": 1898,
      "neighbour": 1899,
      "Al": 1900,
      "By": 1901,
      "Ex": 1902,
      "Gat": 1903,
      "Su": 1904,
      "ball": 1905,
      "ec": 1906,
      "iv": 1907,
      "ior": 1908,
      "ilo": 1909,
      "land": 1910,
      "mn": 1911,
      "nor": 1912,
      "sense": 1913,
      "six": 1914,
      "thousand": 1915,
      "ashed": 1916,
      "inging": 1917,
      "often": 1918,
      "address": 1919,
      "beat": 1920,
      "wel": 1921,
      "library": 1922,
      "lot": 1923,
      "bye": 1924,
      "rap": 1925,
      "tea": 1926,
      "pol": 1927,
      "sometimes": 1928,
      "plan": 1929,
      "box": 1930,
      "doors": 1931,
      "couch": 1932,
      "letter": 1933,
      "parties": 1934,
      "paid": 1935,
      "vidently": 1936,
      "coloured": 1937,
      "agreed": 1938,
      "faintly": 1939,
      "stret": 1940,
      "street": 1941,
      "touch": 1942,
      "children": 1943,
      "pocket": 1944,
      "fifty": 1945,
      "trembling": 1946,
      "Carra": 1947,
      "Section": 1948,
      "scarce": 1949,
      "Gatz": 1950,
      "Sudden": 1951,
      "19": 1952,
      "AG": 1953,
      "Amer": 1954,
      "IS": 1955,
      "Not": 1956,
      "OU": 1957,
      "Ple": 1958,
      "SE": 1959,
      "ail": 1960,
      "ban": 1961,
      "burn": 1962,
      "bath": 1963,
      "case": 1964,
      "eat": 1965,
      "fas": 1966,
      "fant": 1967,
      "fright": 1968,
      "gust": 1969,
      "kes": 1970,
      "sion": 1971,
      "spre": 1972,
      "sses": 1973,
      "usu": 1974,
      "vide": 1975,
      "hes": 1976,
      "thered": 1977,
      "anim": 1978,
      "oned": 1979,
      "eral": 1980,
      "tog": 1981,
      "stars": 1982,
      "lever": 1983,
      "char": 1984,
      "urch": 1985,
      "neck": 1986,
      "pecu": 1987,
      "shall": 1988,
      "Here": 1989,
      "exact": 1990,
      "someone": 1991,
      "anyhow": 1992,
      "aret": 1993,
      "space": 1994,
      "provide": 1995,
      "wenty": 1996,
      "void": 1997,
      "check": 1998,
      "Doctor": 1999,
      "shape": 2000,
      "imply": 2001,
      "hardly": 2002,
      "distributing": 2003,
      "guess": 2004,
      "Once": 2005,
      "icial": 2006,
      "included": 2007,
      "eBooks": 2008,
      "funny": 2009,
      "accident": 2010,
      "easy": 2011,
      "arently": 2012,
      "stayed": 2013,
      "absolutely": 2014,
      "thirty": 2015,
      "piece": 2016,
      "located": 2017,
      "cigaret": 2018,
      "incredul": 2019,
      "solemn": 2020,
      "position": 2021,
      "phrase": 2022,
      "Americ": 2023,
      "Please": 2024,
      "peculiar": 2025,
      "Can": 2026,
      "Dan": 2027,
      "Edi": 2028,
      "Let": 2029,
      "Most": 2030,
      "Re": 2031,
      "Slo": 2032,
      "See": 2033,
      "bing": 2034,
      "bor": 2035,
      "bably": 2036,
      "dy": 2037,
      "dra": 2038,
      "drun": 2039,
      "drug": 2040,
      "ea": 2041,
      "fan": 2042,
      "fine": 2043,
      "lves": 2044,
      "mid": 2045,
      "nal": 2046,
      "opp": 2047,
      "sk": 2048,
      "sad": 2049,
      "squ": 2050,
      "ured": 2051,
      "var": 2052,
      "yard": 2053,
      "ati": 2054,
      "ons": 2055,
      "thre": 2056,
      "ench": 2057,
      "arily": 2058,
      "itation": 2059,
      "stir": 2060,
      "stant": 2061,
      "station": 2062,
      "lege": 2063,
      "roy": 2064,
      "rock": 2065,
      "rodu": 2066,
      "rolled": 2067,
      "adv": 2068,
      "icable": 2069,
      "become": 2070,
      "ioned": 2071,
      "formed": 2072,
      "unfamiliar": 2073,
      "chau": 2074,
      "kets": 2075,
      "mother": 2076,
      "motor": 2077,
      "fear": 2078,
      "iling": 2079,
      "romantic": 2080,
      "suc": 2081,
      "tight": 2082,
      "post": 2083,
      "iff": 2084,
      "exam": 2085,
      "trans": 2086,
      "host": 2087,
      "spa": 2088,
      "ends": 2089,
      "ending": 2090,
      "store": 2091,
      "produ": 2092,
      "newspa": 2093,
      "early": 2094,
      "disappeared": 2095,
      "lower": 2096,
      "houses": 2097,
      "wants": 2098,
      "firm": 2099,
      "smile": 2100,
      "driving": 2101,
      "talking": 2102,
      "walking": 2103,
      "silence": 2104,
      "finally": 2105,
      "certainly": 2106,
      "import": 2107,
      "lovely": 2108,
      "waiting": 2109,
      "ixed": 2110,
      "trium": 2111,
      "protected": 2112,
      "eagerly": 2113,
      "ffeur": 2114,
      "memory": 2115,
      "clothes": 2116,
      "determined": 2117,
      "Carraway": 2118,
      "Suddenly": 2119,
      "Editor": 2120,
      "Sloane": 2121,
      "chauffeur": 2122,
      ",’": 2123,
      "ED": 2124,
      "Fil": 2125,
      "Ha": 2126,
      "Or": 2127,
      "bound": 2128,
      "bron": 2129,
      "card": 2130,
      "ding": 2131,
      "faded": 2132,
      "gall": 2133,
      "ier": 2134,
      "lain": 2135,
      "labor": 2136,
      "pho": 2137,
      "path": 2138,
      "sens": 2139,
      "simply": 2140,
      "tic": 2141,
      "tent": 2142,
      "tree": 2143,
      "vast": 2144,
      "wre": 2145,
      "wand": 2146,
      "”—": 2147,
      "incess": 2148,
      "returned": 2149,
      "relu": 2150,
      "edge": 2151,
      "thor": 2152,
      "ender": 2153,
      "orry": 2154,
      "means": 2155,
      "also": 2156,
      "star": 2157,
      "lear": 2158,
      "ading": 2159,
      "best": 2160,
      "force": 2161,
      "unte": 2162,
      "upstairs": 2163,
      "consci": 2164,
      "pointed": 2165,
      "def": 2166,
      "worn": 2167,
      "tless": 2168,
      "astic": 2169,
      "compl": 2170,
      "board": 2171,
      "else": 2172,
      "wood": 2173,
      "closed": 2174,
      "matches": 2175,
      "lection": 2176,
      "corre": 2177,
      "answer": 2178,
      "calling": 2179,
      "walk": 2180,
      "served": 2181,
      "gesture": 2182,
      "exclaim": 2183,
      "confused": 2184,
      "medium": 2185,
      "subject": 2186,
      "circle": 2187,
      "attention": 2188,
      "aware": 2189,
      "holding": 2190,
      "engaged": 2191,
      "struck": 2192,
      "profound": 2193,
      "finitely": 2194,
      "excitement": 2195,
      "triumph": 2196,
      "bronze": 2197,
      "laboratory": 2198,
      "photog": 2199,
      "reluct": 2200,
      "exclaimed": 2201,
      "15": 2202,
      "Bilo": 2203,
      "Con": 2204,
      "ES": 2205,
      "Every": 2206,
      "Never": 2207,
      "Pal": 2208,
      "TY": 2209,
      "Up": 2210,
      "Yet": 2211,
      "YOU": 2212,
      "bow": 2213,
      "bul": 2214,
      "bare": 2215,
      "fru": 2216,
      "father": 2217,
      "gle": 2218,
      "hab": 2219,
      "iously": 2220,
      "kit": 2221,
      "lan": 2222,
      "mad": 2223,
      "pit": 2224,
      "pink": 2225,
      "race": 2226,
      "rass": 2227,
      "uous": 2228,
      "zz": 2229,
      "ines": 2230,
      "ress": 2231,
      "return": 2232,
      "today": 2233,
      "rol": 2234,
      "acy": 2235,
      "uttered": 2236,
      "wire": 2237,
      "charge": 2238,
      "champ": 2239,
      "church": 2240,
      "nder": 2241,
      "cover": 2242,
      "pet": 2243,
      "emer": 2244,
      "embar": 2245,
      "conce": 2246,
      "tive": 2247,
      "peri": 2248,
      "permission": 2249,
      "lighted": 2250,
      "discovered": 2251,
      "dance": 2252,
      "action": 2253,
      "grou": 2254,
      "chen": 2255,
      "everyone": 2256,
      "restless": 2257,
      "pract": 2258,
      "remain": 2259,
      "remind": 2260,
      "introdu": 2261,
      "nerv": 2262,
      "names": 2263,
      "satis": 2264,
      "died": 2265,
      "paper": 2266,
      "hastily": 2267,
      "opening": 2268,
      "strained": 2269,
      "license": 2270,
      "However": 2271,
      "confusion": 2272,
      "distribution": 2273,
      "shore": 2274,
      "books": 2275,
      "weeks": 2276,
      "priv": 2277,
      "taxi": 2278,
      "given": 2279,
      "crowded": 2280,
      "dreams": 2281,
      "expect": 2282,
      "ville": 2283,
      "different": 2284,
      "received": 2285,
      "named": 2286,
      "straight": 2287,
      "slightly": 2288,
      "recogn": 2289,
      "truth": 2290,
      "further": 2291,
      "scarcely": 2292,
      "drunk": 2293,
      "gallery": 2294,
      "Biloxi": 2295,
      "kitchen": 2296,
      "embarrass": 2297,
      "En": 2298,
      "Have": 2299,
      "Sup": 2300,
      "Two": 2301,
      "Under": 2302,
      "dawn": 2303,
      "een": 2304,
      "fic": 2305,
      "fac": 2306,
      "gay": 2307,
      "gri": 2308,
      "ivid": 2309,
      "lar": 2310,
      "lamp": 2311,
      "mass": 2312,
      "pen": 2313,
      "pes": 2314,
      "tan": 2315,
      "twenty": 2316,
      "wed": 2317,
      "ination": 2318,
      "information": 2319,
      "remo": 2320,
      "requ": 2321,
      "top": 2322,
      "enjo": 2323,
      "ashes": 2324,
      "ley": 2325,
      "bell": 2326,
      "belong": 2327,
      "ides": 2328,
      "entered": 2329,
      "vert": 2330,
      "imens": 2331,
      "abrup": 2332,
      "terrible": 2333,
      "sav": 2334,
      "ilar": 2335,
      "ram": 2336,
      "anted": 2337,
      "doll": 2338,
      "conne": 2339,
      "tip": 2340,
      "tired": 2341,
      "tible": 2342,
      "pop": 2343,
      "poin": 2344,
      "individ": 2345,
      "ckle": 2346,
      "common": 2347,
      "bot": 2348,
      "comes": 2349,
      "glance": 2350,
      "dresses": 2351,
      "contact": 2352,
      "Information": 2353,
      "however": 2354,
      "obli": 2355,
      "obvi": 2356,
      "intim": 2357,
      "support": 2358,
      "ize": 2359,
      "apparently": 2360,
      "dropped": 2361,
      "impati": 2362,
      "friends": 2363,
      "decis": 2364,
      "suggestion": 2365,
      "extra": 2366,
      "touched": 2367,
      "leaves": 2368,
      "interested": 2369,
      "centr": 2370,
      "freely": 2371,
      "beauty": 2372,
      "violently": 2373,
      "possible": 2374,
      "indeed": 2375,
      "guests": 2376,
      "creatures": 2377,
      "heaps": 2378,
      "circum": 2379,
      "harsh": 2380,
      "secret": 2381,
      "Filby": 2382,
      "gleam": 2383,
      "Engl": 2384,
      "require": 2385,
      "An": 2386,
      "From": 2387,
      "June": 2388,
      "Lou": 2389,
      "ON": 2390,
      "Wor": 2391,
      "avoid": 2392,
      "block": 2393,
      "bond": 2394,
      "cul": 2395,
      "claim": 2396,
      "egro": 2397,
      "fash": 2398,
      "ges": 2399,
      "gent": 2400,
      "gate": 2401,
      "middle": 2402,
      "ray": 2403,
      "rust": 2404,
      "swo": 2405,
      "wit": 2406,
      "yach": 2407,
      "reet": 2408,
      "atter": 2409,
      "ony": 2410,
      "thro": 2411,
      "ory": 2412,
      "aled": 2413,
      "iced": 2414,
      "accoun": 2415,
      "llo": 2416,
      "omp": 2417,
      "liance": 2418,
      "loss": 2419,
      "iment": 2420,
      "agne": 2421,
      "fellow": 2422,
      "cock": 2423,
      "shout": 2424,
      "shining": 2425,
      "cam": 2426,
      "concer": 2427,
      "tel": 2428,
      "delic": 2429,
      "exist": 2430,
      "indic": 2431,
      "spir": 2432,
      "umbled": 2433,
      "eping": 2434,
      "understood": 2435,
      "rank": 2436,
      "range": 2437,
      "clam": 2438,
      "cheek": 2439,
      "obtain": 2440,
      "deser": 2441,
      "distance": 2442,
      "break": 2443,
      "supper": 2444,
      "hours": 2445,
      "Street": 2446,
      "curtain": 2447,
      "buy": 2448,
      "bushes": 2449,
      "White": 2450,
      "played": 2451,
      "groan": 2452,
      "grotes": 2453,
      "invited": 2454,
      "movement": 2455,
      "instinct": 2456,
      "believed": 2457,
      "diffic": 2458,
      "moun": 2459,
      "shock": 2460,
      "eneath": 2461,
      "finger": 2462,
      "burg": 2463,
      "smoke": 2464,
      "volunte": 2465,
      "lady": 2466,
      "Monten": 2467,
      "servants": 2468,
      "months": 2469,
      "elev": 2470,
      "politely": 2471,
      "music": 2472,
      "splend": 2473,
      "intense": 2474,
      "cheerful": 2475,
      "jumped": 2476,
      "exactly": 2477,
      "drawn": 2478,
      "threw": 2479,
      "champagne": 2480,
      "remote": 2481,
      "Louis": 2482,
      "World": 2483,
      "cocktail": 2484,
      "grotesque": 2485,
      "),": 2486,
      "May": 2487,
      "NO": 2488,
      "PR": 2489,
      "TR": 2490,
      "aur": 2491,
      "bay": 2492,
      "bir": 2493,
      "beneath": 2494,
      "cof": 2495,
      "cently": 2496,
      "cross": 2497,
      "damp": 2498,
      "fro": 2499,
      "ju": 2500,
      "kne": 2501,
      "llect": 2502,
      "mill": 2503,
      "pan": 2504,
      "sle": 2505,
      "sorry": 2506,
      "tin": 2507,
      "tem": 2508,
      "…”": 2509,
      "repl": 2510,
      "removed": 2511,
      "request": 2512,
      "educ": 2513,
      "throw": 2514,
      "mes": 2515,
      "meant": 2516,
      "staring": 2517,
      "stiff": 2518,
      "secur": 2519,
      "selves": 2520,
      "lying": 2521,
      "enter": 2522,
      "hers": 2523,
      "herself": 2524,
      "ilt": 2525,
      "shif": 2526,
      "emp": 2527,
      "concept": 2528,
      "defect": 2529,
      "ours": 2530,
      "trick": 2531,
      "quar": 2532,
      "istribut": 2533,
      "ivered": 2534,
      "comfort": 2535,
      "backward": 2536,
      "proper": 2537,
      "propri": 2538,
      "rows": 2539,
      "news": 2540,
      "donate": 2541,
      "gled": 2542,
      "cies": 2543,
      "vivid": 2544,
      "remained": 2545,
      "driver": 2546,
      "desc": 2547,
      "descri": 2548,
      "ots": 2549,
      "startled": 2550,
      "Does": 2551,
      "watched": 2552,
      "appear": 2553,
      "strong": 2554,
      "explan": 2555,
      "movements": 2556,
      "finding": 2557,
      "distribute": 2558,
      "dimens": 2559,
      "intellect": 2560,
      "surprise": 2561,
      "moonlight": 2562,
      "attempt": 2563,
      "casual": 2564,
      "absor": 2565,
      "difference": 2566,
      "drawing": 2567,
      "growing": 2568,
      "apartment": 2569,
      "interrupted": 2570,
      "fantastic": 2571,
      "spread": 2572,
      "success": 2573,
      "habit": 2574,
      "abruptly": 2575,
      "individual": 2576,
      "circumst": 2577,
      "PRO": 2578,
      "coffee": 2579,
      "30": 2580,
      "AT": 2581,
      "CH": 2582,
      "Col": 2583,
      "De": 2584,
      "Eckle": 2585,
      "Fif": 2586,
      "Fran": 2587,
      "Finn": 2588,
      "Klip": 2589,
      "Li": 2590,
      "Mey": 2591,
      "Nor": 2592,
      "Per": 2593,
      "Te": 2594,
      "av": 2595,
      "bly": 2596,
      "bru": 2597,
      "cous": 2598,
      "cure": 2599,
      "den": 2600,
      "date": 2601,
      "ease": 2602,
      "filled": 2603,
      "gla": 2604,
      "glim": 2605,
      "hum": 2606,
      "iant": 2607,
      "iety": 2608,
      "mile": 2609,
      "none": 2610,
      "osity": 2611,
      "pace": 2612,
      "sli": 2613,
      "slo": 2614,
      "ude": 2615,
      "wing": 2616,
      "invest": 2617,
      "thus": 2618,
      "tori": 2619,
      "enthus": 2620,
      "orce": 2621,
      "orche": 2622,
      "arrange": 2623,
      "metal": 2624,
      "alter": 2625,
      "stri": 2626,
      "stable": 2627,
      "stery": 2628,
      "states": 2629,
      "vel": 2630,
      "lling": 2631,
      "weather": 2632,
      "lds": 2633,
      "liked": 2634,
      "forts": 2635,
      "unpleasant": 2636,
      "chi": 2637,
      "chin": 2638,
      "aby": 2639,
      "urged": 2640,
      "nest": 2641,
      "mob": 2642,
      "ille": 2643,
      "golf": 2644,
      "sued": 2645,
      "rare": 2646,
      "consid": 2647,
      "tears": 2648,
      "amaz": 2649,
      "death": 2650,
      "weren": 2651,
      "anybody": 2652,
      "tran": 2653,
      "trust": 2654,
      "overhead": 2655,
      "lap": 2656,
      "notice": 2657,
      "noticed": 2658,
      "atever": 2659,
      "umn": 2660,
      "umin": 2661,
      "afterward": 2662,
      "boat": 2663,
      "blew": 2664,
      "whereupon": 2665,
      "grace": 2666,
      "yourself": 2667,
      "flick": 2668,
      "contempt": 2669,
      "control": 2670,
      "rested": 2671,
      "ames": 2672,
      "udy": 2673,
      "spected": 2674,
      "says": 2675,
      "sunlight": 2676,
      "efforts": 2677,
      "super": 2678,
      "supposed": 2679,
      "telling": 2680,
      "changing": 2681,
      "shaking": 2682,
      "realized": 2683,
      "wondered": 2684,
      "invent": 2685,
      "publ": 2686,
      "helped": 2687,
      "goodbye": 2688,
      "whisky": 2689,
      "personal": 2690,
      "shoes": 2691,
      "III": 2692,
      "immediate": 2693,
      "ength": 2694,
      "promise": 2695,
      "explo": 2696,
      "mistake": 2697,
      "purpose": 2698,
      "nearly": 2699,
      "damned": 2700,
      "sharply": 2701,
      "nineteen": 2702,
      "direction": 2703,
      "springer": 2704,
      "uniform": 2705,
      "calm": 2706,
      "shirts": 2707,
      "provided": 2708,
      "gradually": 2709,
      "search": 2710,
      "automob": 2711,
      "village": 2712,
      "police": 2713,
      "stretched": 2714,
      "faster": 2715,
      "guessed": 2716,
      "newspaper": 2717,
      "Haven": 2718,
      "emerged": 2719,
      "group": 2720,
      "reminded": 2721,
      "dollars": 2722,
      "bottle": 2723,
      "impatiently": 2724,
      "fashion": 2725,
      "curtains": 2726,
      "Montenegro": 2727,
      "Louisville": 2728,
      "Eckleburg": 2729,
      "Klipspringer": 2730,
      "Meyer": 2731,
      "Perhaps": 2732,
      "enthusi": 2733,
      "!’": 2734,
      "Gener": 2735,
      "Over": 2736,
      "Sph": 2737,
      "bas": 2738,
      "clim": 2739,
      "ded": 2740,
      "fight": 2741,
      "gy": 2742,
      "loud": 2743,
      "main": 2744,
      "mach": 2745,
      "mark": 2746,
      "miles": 2747,
      "nar": 2748,
      "pi": 2749,
      "rising": 2750,
      "sand": 2751,
      "scorn": 2752,
      "tun": 2753,
      "vas": 2754,
      "vic": 2755,
      "vig": 2756,
      "wan": 2757,
      "intell": 2758,
      "theless": 2759,
      "resu": 2760,
      "resol": 2761,
      "regard": 2762,
      "report": 2763,
      "represent": 2764,
      "eding": 2765,
      "asing": 2766,
      "isible": 2767,
      "altogether": 2768,
      "aloud": 2769,
      "rot": 2770,
      "seven": 2771,
      "secure": 2772,
      "waste": 2773,
      "beating": 2774,
      "ution": 2775,
      "verse": 2776,
      "west": 2777,
      "rig": 2778,
      "whatever": 2779,
      "alled": 2780,
      "safe": 2781,
      "ctly": 2782,
      "neither": 2783,
      "shivered": 2784,
      "susp": 2785,
      "cared": 2786,
      "conve": 2787,
      "constant": 2788,
      "deal": 2789,
      "ournal": 2790,
      "ational": 2791,
      "perce": 2792,
      "ulation": 2793,
      "looks": 2794,
      "istent": 2795,
      "affect": 2796,
      "affair": 2797,
      "ump": 2798,
      "blow": 2799,
      "carried": 2800,
      "elabor": 2801,
      "woke": 2802,
      "heads": 2803,
      "content": 2804,
      "restaur": 2805,
      "despair": 2806,
      "broad": 2807,
      "happy": 2808,
      "marble": 2809,
      "limited": 2810,
      "invisible": 2811,
      "puzz": 2812,
      "addition": 2813,
      "floated": 2814,
      "Only": 2815,
      "touching": 2816,
      "breathing": 2817,
      "valley": 2818,
      "spot": 2819,
      "azz": 2820,
      "fallen": 2821,
      "leaning": 2822,
      "strugg": 2823,
      "shadows": 2824,
      "keeping": 2825,
      "pockets": 2826,
      "power": 2827,
      "pieces": 2828,
      "ternal": 2829,
      "clearly": 2830,
      "ghostly": 2831,
      "regular": 2832,
      "kissed": 2833,
      "writing": 2834,
      "necessary": 2835,
      "possess": 2836,
      "usually": 2837,
      "important": 2838,
      "learn": 2839,
      "nervous": 2840,
      "gentle": 2841,
      "mounted": 2842,
      "dimensions": 2843,
      "intellectual": 2844,
      "circumstances": 2845,
      "Sphinx": 2846,
      "intellig": 2847,
      "BER": 2848,
      "CE": 2849,
      "DA": 2850,
      "ECT": 2851,
      "GUT": 2852,
      "Hot": 2853,
      "IT": 2854,
      "James": 2855,
      "JECT": 2856,
      "List": 2857,
      "Luc": 2858,
      "Nob": 2859,
      "Next": 2860,
      "Pe": 2861,
      "Po": 2862,
      "RAN": 2863,
      "Ser": 2864,
      "WAR": 2865,
      "Your": 2866,
      "cand": 2867,
      "dom": 2868,
      "dum": 2869,
      "ead": 2870,
      "east": 2871,
      "equi": 2872,
      "emotion": 2873,
      "hop": 2874,
      "hig": 2875,
      "hilar": 2876,
      "ja": 2877,
      "je": 2878,
      "length": 2879,
      "mil": 2880,
      "muttered": 2881,
      "ore": 2882,
      "pard": 2883,
      "sway": 2884,
      "song": 2885,
      "tra": 2886,
      "uously": 2887,
      "yes": 2888,
      "—“": 2889,
      "onne": 2890,
      "online": 2891,
      "editions": 2892,
      "thrill": 2893,
      "asses": 2894,
      "orig": 2895,
      "ordered": 2896,
      "arg": 2897,
      "mechan": 2898,
      "alth": 2899,
      "stone": 2900,
      "sem": 2901,
      "sevent": 2902,
      "ada": 2903,
      "owl": 2904,
      "acted": 2905,
      "acement": 2906,
      "verand": 2907,
      "wear": 2908,
      "webs": 2909,
      "format": 2910,
      "unexpected": 2911,
      "loose": 2912,
      "sold": 2913,
      "chor": 2914,
      "ability": 2915,
      "mystery": 2916,
      "agon": 2917,
      "cell": 2918,
      "upper": 2919,
      "save": 2920,
      "neare": 2921,
      "fees": 2922,
      "fected": 2923,
      "coll": 2924,
      "coloss": 2925,
      "oked": 2926,
      "shing": 2927,
      "shine": 2928,
      "goes": 2929,
      "suff": 2930,
      "suspected": 2931,
      "tif": 2932,
      "polo": 2933,
      "perform": 2934,
      "trag": 2935,
      "places": 2936,
      "aston": 2937,
      "laven": 2938,
      "acked": 2939,
      "manner": 2940,
      "inevit": 2941,
      "downstairs": 2942,
      "aked": 2943,
      "comput": 2944,
      "ortun": 2945,
      "blown": 2946,
      "ption": 2947,
      "eyed": 2948,
      "proble": 2949,
      "rowed": 2950,
      "earnest": 2951,
      "disap": 2952,
      "disclaim": 2953,
      "dancing": 2954,
      "mint": 2955,
      "offic": 2956,
      "gras": 2957,
      "brid": 2958,
      "brick": 2959,
      "contain": 2960,
      "mater": 2961,
      "obsc": 2962,
      "reng": 2963,
      "desol": 2964,
      "copying": 2965,
      "ishing": 2966,
      "surface": 2967,
      "izing": 2968,
      "shoulders": 2969,
      "solic": 2970,
      "series": 2971,
      "college": 2972,
      "collection": 2973,
      "dressed": 2974,
      "slid": 2975,
      "Something": 2976,
      "Sometimes": 2977,
      "careless": 2978,
      "singing": 2979,
      "sounded": 2980,
      "compliance": 2981,
      "distributed": 2982,
      "instance": 2983,
      "instead": 2984,
      "autumn": 2985,
      "missed": 2986,
      "continually": 2987,
      "horrible": 2988,
      "empty": 2989,
      "occup": 2990,
      "holder": 2991,
      "visible": 2992,
      "curiosity": 2993,
      "ENBER": 2994,
      "funeral": 2995,
      "casually": 2996,
      "angle": 2997,
      "objected": 2998,
      "possibly": 2999,
      "gathered": 3000,
      "ounced": 3001,
      "figures": 3002,
      "golden": 3003,
      "status": 3004,
      "ANY": 3005,
      "merely": 3006,
      "simple": 3007,
      "imagine": 3008,
      "swim": 3009,
      "providing": 3010,
      "balan": 3011,
      "glowing": 3012,
      "***": 3013,
      "travelling": 3014,
      "Green": 3015,
      "naturally": 3016,
      "displaying": 3017,
      "American": 3018,
      "opportun": 3019,
      "royal": 3020,
      "posted": 3021,
      "incessantly": 3022,
      "Palace": 3023,
      "savage": 3024,
      "obviously": 3025,
      "intimate": 3026,
      "requirements": 3027,
      "difficul": 3028,
      "volunteers": 3029,
      "PROJECT": 3030,
      "Tell": 3031,
      "glare": 3032,
      "glimp": 3033,
      "orchestra": 3034,
      "chief": 3035,
      "GUTENBER": 3036,
      "Listen": 3037,
      "Lucille": 3038,
      "Nobody": 3039,
      "WARRAN": 3040,
      "pardon": 3041,
      "origin": 3042,
      "website": 3043,
      "colossal": 3044,
      "lavender": 3045,
      "GUTENBERG": 3046,
      "Au": 3047,
      "Dimens": 3048,
      "Evidently": 3049,
      "Four": 3050,
      "IV": 3051,
      "Lake": 3052,
      "Our": 3053,
      "VI": 3054,
      "apped": 3055,
      "bent": 3056,
      "dull": 3057,
      "drank": 3058,
      "evidently": 3059,
      "fr": 3060,
      "fu": 3061,
      "fting": 3062,
      "ffl": 3063,
      "frag": 3064,
      "glo": 3065,
      "hither": 3066,
      "hinx": 3067,
      "kno": 3068,
      "mured": 3069,
      "nur": 3070,
      "paren": 3071,
      "ris": 3072,
      "rad": 3073,
      "scre": 3074,
      "tions": 3075,
      "tribut": 3076,
      "uck": 3077,
      "uffl": 3078,
      "rel": 3079,
      "resp": 3080,
      "revol": 3081,
      "attle": 3082,
      "ences": 3083,
      "asm": 3084,
      "ordin": 3085,
      "aler": 3086,
      "alive": 3087,
      "streng": 3088,
      "leather": 3089,
      "adm": 3090,
      "ided": 3091,
      "idly": 3092,
      "acter": 3093,
      "lied": 3094,
      "lifted": 3095,
      "forty": 3096,
      "unted": 3097,
      "unless": 3098,
      "unknown": 3099,
      "river": 3100,
      "chance": 3101,
      "iron": 3102,
      "note": 3103,
      "key": 3104,
      "keen": 3105,
      "mode": 3106,
      "cost": 3107,
      "shut": 3108,
      "convin": 3109,
      "test": 3110,
      "amed": 3111,
      "amoun": 3112,
      "deli": 3113,
      "experi": 3114,
      "somehow": 3115,
      "whenever": 3116,
      "anywhere": 3117,
      "quain": 3118,
      "plane": 3119,
      "prep": 3120,
      "hosp": 3121,
      "sphinx": 3122,
      "etro": 3123,
      "ument": 3124,
      "knows": 3125,
      "probably": 3126,
      "phor": 3127,
      "nights": 3128,
      "begun": 3129,
      "cloud": 3130,
      "glasses": 3131,
      "official": 3132,
      "cious": 3133,
      "doorway": 3134,
      "parts": 3135,
      "parted": 3136,
      "everybody": 3137,
      "arming": 3138,
      "waved": 3139,
      "cord": 3140,
      "ires": 3141,
      "drift": 3142,
      "drifted": 3143,
      "starting": 3144,
      "estal": 3145,
      "breaking": 3146,
      "sentiment": 3147,
      "effect": 3148,
      "current": 3149,
      "passion": 3150,
      "shaft": 3151,
      "finished": 3152,
      "While": 3153,
      "pedestal": 3154,
      "slender": 3155,
      "murmured": 3156,
      "explain": 3157,
      "counter": 3158,
      "blackness": 3159,
      "instant": 3160,
      "conditions": 3161,
      "meaning": 3162,
      "Going": 3163,
      "ceived": 3164,
      "rowned": 3165,
      "stepped": 3166,
      "falling": 3167,
      "interesting": 3168,
      "hundreds": 3169,
      "motionless": 3170,
      "expense": 3171,
      "general": 3172,
      "generations": 3173,
      "sweet": 3174,
      "persistent": 3175,
      "tonight": 3176,
      "paying": 3177,
      "queer": 3178,
      "statement": 3179,
      "snapped": 3180,
      "perfectly": 3181,
      "judged": 3182,
      "palace": 3183,
      "twink": 3184,
      "vitality": 3185,
      "increased": 3186,
      "increasing": 3187,
      "commun": 3188,
      "written": 3189,
      "magaz": 3190,
      "picked": 3191,
      "buildings": 3192,
      "links": 3193,
      "natural": 3194,
      "cigarette": 3195,
      "wandered": 3196,
      "photograph": 3197,
      "langu": 3198,
      "pointing": 3199,
      "camphor": 3200,
      "splendid": 3201,
      "security": 3202,
      "emplo": 3203,
      "quarter": 3204,
      "explanation": 3205,
      "considerable": 3206,
      "public": 3207,
      "General": 3208,
      "resolved": 3209,
      "elaborate": 3210,
      "desolate": 3211,
      "amount": 3212,
      "hospit": 3213,
      "..": 3214,
      "02": 3215,
      "Ba": 3216,
      "Comp": 3217,
      "Ho": 3218,
      "Hundred": 3219,
      "Jim": 3220,
      "Middle": 3221,
      "Oc": 3222,
      "Pres": 3223,
      "Porce": 3224,
      "Sun": 3225,
      "Satur": 3226,
      "Space": 3227,
      "Taking": 3228,
      "ahead": 3229,
      "bother": 3230,
      "bars": 3231,
      "cred": 3232,
      "dus": 3233,
      "dated": 3234,
      "dign": 3235,
      "event": 3236,
      "eternal": 3237,
      "fli": 3238,
      "furn": 3239,
      "gru": 3240,
      "gorge": 3241,
      "gonne": 3242,
      "hone": 3243,
      "ip": 3244,
      "lone": 3245,
      "mber": 3246,
      "mixed": 3247,
      "ni": 3248,
      "ns": 3249,
      "nature": 3250,
      "oper": 3251,
      "pian": 3252,
      "ride": 3253,
      "rum": 3254,
      "rise": 3255,
      "rhy": 3256,
      "raced": 3257,
      "snow": 3258,
      "tone": 3259,
      "vies": 3260,
      "inno": 3261,
      "innum": 3262,
      "informed": 3263,
      "anno": 3264,
      "rer": 3265,
      "relie": 3266,
      "referen": 3267,
      "attered": 3268,
      "atively": 3269,
      "edek": 3270,
      "thm": 3271,
      "enn": 3272,
      "aside": 3273,
      "ors": 3274,
      "isation": 3275,
      "isement": 3276,
      "army": 3277,
      "sty": 3278,
      "stag": 3279,
      "straw": 3280,
      "lemon": 3281,
      "rope": 3282,
      "advert": 3283,
      "icism": 3284,
      "idence": 3285,
      "acles": 3286,
      "active": 3287,
      "acquain": 3288,
      "llen": 3289,
      "entire": 3290,
      "ional": 3291,
      "weak": 3292,
      "liz": 3293,
      "lief": 3294,
      "riage": 3295,
      "soever": 3296,
      "chatter": 3297,
      "irres": 3298,
      "allow": 3299,
      "nob": 3300,
      "movies": 3301,
      "costu": 3302,
      "shone": 3303,
      "shop": 3304,
      "shot": 3305,
      "button": 3306,
      "contr": 3307,
      "concentr": 3308,
      "tee": 3309,
      "delight": 3310,
      "definitely": 3311,
      "Hello": 3312,
      "worried": 3313,
      "whel": 3314,
      "owns": 3315,
      "perman": 3316,
      "ulating": 3317,
      "tray": 3318,
      "pla": 3319,
      "overwhel": 3320,
      "ists": 3321,
      "mansion": 3322,
      "previ": 3323,
      "hol": 3324,
      "hollow": 3325,
      "spent": 3326,
      "stopping": 3327,
      "promo": 3328,
      "process": 3329,
      "themselves": 3330,
      "ears": 3331,
      "daylight": 3332,
      "ruin": 3333,
      "ruins": 3334,
      "canvas": 3335,
      "seeing": 3336,
      "rying": 3337,
      "cler": 3338,
      "gling": 3339,
      "firmed": 3340,
      "creeping": 3341,
      "bring": 3342,
      "flashed": 3343,
      "restr": 3344,
      "printed": 3345,
      "ftly": 3346,
      "uded": 3347,
      "thanks": 3348,
      "couple": 3349,
      "brother": 3350,
      "sunset": 3351,
      "sunshine": 3352,
      "sentence": 3353,
      "ggs": 3354,
      "izon": 3355,
      "appre": 3356,
      "bedroom": 3357,
      "serve": 3358,
      "gardens": 3359,
      "gardener": 3360,
      "built": 3361,
      "locked": 3362,
      "clean": 3363,
      "watching": 3364,
      "slower": 3365,
      "confident": 3366,
      "stranger": 3367,
      "questions": 3368,
      "decay": 3369,
      "whisper": 3370,
      "waiter": 3371,
      "horizon": 3372,
      "000": 3373,
      "vals": 3374,
      "helpless": 3375,
      "gives": 3376,
      "ENT": 3377,
      "husky": 3378,
      "violent": 3379,
      "accus": 3380,
      "organ": 3381,
      "absence": 3382,
      "needs": 3383,
      "failed": 3384,
      "mistak": 3385,
      "smoking": 3386,
      "pursued": 3387,
      "receiver": 3388,
      "approached": 3389,
      "completely": 3390,
      "third": 3391,
      "numbers": 3392,
      "nament": 3393,
      "signs": 3394,
      "vaguely": 3395,
      "swiftly": 3396,
      "intensity": 3397,
      "stuff": 3398,
      "shirt": 3399,
      "corners": 3400,
      "south": 3401,
      "travelled": 3402,
      "building": 3403,
      "excitedly": 3404,
      "automat": 3405,
      "Great": 3406,
      "possessed": 3407,
      "Almost": 3408,
      "welve": 3409,
      "frightened": 3410,
      "animal": 3411,
      "character": 3412,
      "cigarettes": 3413,
      "incredulously": 3414,
      "drugstore": 3415,
      "midnight": 3416,
      "square": 3417,
      "yards": 3418,
      "enchanted": 3419,
      "produced": 3420,
      "reluctant": 3421,
      "Everybody": 3422,
      "Nevertheless": 3423,
      "concealed": 3424,
      "embarrassment": 3425,
      "Suppose": 3426,
      "Underworld": 3427,
      "larger": 3428,
      "enjoyed": 3429,
      "connection": 3430,
      "decisively": 3431,
      "yacht": 3432,
      "groaning": 3433,
      "elevator": 3434,
      "cocktails": 3435,
      "described": 3436,
      "France": 3437,
      "cousin": 3438,
      "automobiles": 3439,
      "basket": 3440,
      "convey": 3441,
      "restaurant": 3442,
      "gentleman": 3443,
      "higher": 3444,
      "thrilling": 3445,
      "argument": 3446,
      "seventeen": 3447,
      "bridge": 3448,
      "material": 3449,
      "difficulty": 3450,
      "glimpse": 3451,
      "gloom": 3452,
      "nurse": 3453,
      "strength": 3454,
      "convinced": 3455,
      "Baedek": 3456,
      "Hotel": 3457,
      "Jimmy": 3458,
      "Presently": 3459,
      "Porcelain": 3460,
      "Saturday": 3461,
      "dusk": 3462,
      "gorgeous": 3463,
      "piano": 3464,
      "rhythm": 3465,
      "innocently": 3466,
      "innumerable": 3467,
      "advertisement": 3468,
      "entirely": 3469,
      "irresis": 3470,
      "costume": 3471,
      "Baedeker": 3472,
      "AB": 3473,
      "AL": 3474,
      "AS": 3475,
      "Are": 3476,
      "Bel": 3477,
      "BUT": 3478,
      "DIS": 3479,
      "EM": 3480,
      "FU": 3481,
      "FOR": 3482,
      "Ind": 3483,
      "ILI": 3484,
      "Journal": 3485,
      "LA": 3486,
      "LL": 3487,
      "Le": 3488,
      "MAG": 3489,
      "MIT": 3490,
      "Par": 3491,
      "Sou": 3492,
      "Sit": 3493,
      "Wa": 3494,
      "Will": 3495,
      "athe": 3496,
      "bree": 3497,
      "craw": 3498,
      "fat": 3499,
      "fed": 3500,
      "fra": 3501,
      "game": 3502,
      "gather": 3503,
      "hate": 3504,
      "harm": 3505,
      "ips": 3506,
      "itor": 3507,
      "jer": 3508,
      "lur": 3509,
      "mal": 3510,
      "non": 3511,
      "pant": 3512,
      "pment": 3513,
      "rist": 3514,
      "sme": 3515,
      "som": 3516,
      "scept": 3517,
      "sadd": 3518,
      "tt": 3519,
      "tong": 3520,
      "tum": 3521,
      "trave": 3522,
      "wra": 3523,
      "yawn": 3524,
      "hea": 3525,
      "inqu": 3526,
      "anxi": 3527,
      "rear": 3528,
      "reve": 3529,
      "attr": 3530,
      "ths": 3531,
      "orn": 3532,
      "ises": 3533,
      "arch": 3534,
      "artif": 3535,
      "itude": 3536,
      "stout": 3537,
      "stick": 3538,
      "sequ": 3539,
      "season": 3540,
      "admitted": 3541,
      "wash": 3542,
      "icke": 3543,
      "velo": 3544,
      "entity": 3545,
      "wealth": 3546,
      "omed": 3547,
      "liqu": 3548,
      "unreal": 3549,
      "uncertain": 3550,
      "ries": 3551,
      "history": 3552,
      "Their": 3553,
      "allic": 3554,
      "myster": 3555,
      "tering": 3556,
      "redistribut": 3557,
      "ceased": 3558,
      "haust": 3559,
      "nel": 3560,
      "ilities": 3561,
      "sheet": 3562,
      "ards": 3563,
      "consequ": 3564,
      "ource": 3565,
      "user": 3566,
      "owner": 3567,
      "perceived": 3568,
      "bery": 3569,
      "trace": 3570,
      "plain": 3571,
      "plicable": 3572,
      "ideas": 3573,
      "prevent": 3574,
      "deriv": 3575,
      "aff": 3576,
      "etary": 3577,
      "akes": 3578,
      "comfor": 3579,
      "inking": 3580,
      "blank": 3581,
      "els": 3582,
      "discover": 3583,
      "bles": 3584,
      "gets": 3585,
      "asser": 3586,
      "applicable": 3587,
      "underground": 3588,
      "mentioned": 3589,
      "click": 3590,
      "cied": 3591,
      "civil": 3592,
      "dread": 3593,
      "created": 3594,
      "creating": 3595,
      "brass": 3596,
      "tained": 3597,
      "intention": 3598,
      "speaking": 3599,
      "drifting": 3600,
      "ishment": 3601,
      "walks": 3602,
      "sports": 3603,
      "electric": 3604,
      "die": 3605,
      "share": 3606,
      "papers": 3607,
      "drop": 3608,
      "courage": 3609,
      "ship": 3610,
      "slowed": 3611,
      "limitation": 3612,
      "careful": 3613,
      "sounds": 3614,
      "metallic": 3615,
      "treat": 3616,
      "decided": 3617,
      "Christ": 3618,
      "faction": 3619,
      "sym": 3620,
      "icip": 3621,
      "extreme": 3622,
      "crit": 3623,
      "THIS": 3624,
      "sinister": 3625,
      "swinging": 3626,
      "visit": 3627,
      "cries": 3628,
      "giving": 3629,
      "centre": 3630,
      "REA": 3631,
      "nodding": 3632,
      "violence": 3633,
      "shows": 3634,
      "paragraphs": 3635,
      "wondering": 3636,
      "burst": 3637,
      "LIMIT": 3638,
      "powder": 3639,
      "Before": 3640,
      "payments": 3641,
      "particularly": 3642,
      "laughing": 3643,
      "IND": 3644,
      "capac": 3645,
      "complying": 3646,
      "AGRE": 3647,
      "burning": 3648,
      "incredulous": 3649,
      "fancied": 3650,
      "various": 3651,
      "advant": 3652,
      "conscious": 3653,
      "practical": 3654,
      "bells": 3655,
      "belonged": 3656,
      "popular": 3657,
      "gleaming": 3658,
      "English": 3659,
      "witness": 3660,
      "throat": 3661,
      "account": 3662,
      "shouted": 3663,
      "deserted": 3664,
      "TRI": 3665,
      "panic": 3666,
      "temper": 3667,
      "replacement": 3668,
      "defective": 3669,
      "property": 3670,
      "proprietary": 3671,
      "absorbed": 3672,
      "Like": 3673,
      "investig": 3674,
      "marked": 3675,
      "percep": 3676,
      "puzzled": 3677,
      "intelligence": 3678,
      "DAMAG": 3679,
      "candles": 3680,
      "equipment": 3681,
      "hoped": 3682,
      "swaying": 3683,
      "performing": 3684,
      "problem": 3685,
      "opportunity": 3686,
      "royalties": 3687,
      "knock": 3688,
      "parents": 3689,
      "ordinary": 3690,
      "admired": 3691,
      "experience": 3692,
      "acquaint": 3693,
      "ILITY": 3694,
      "South": 3695,
      "breeze": 3696,
      "travel": 3697,
      "yawned": 3698,
      "derivative": 3699,
      "Christmas": 3700,
      "LIMITED": 3701,
      "Aven": 3702,
      "Bl": 3703,
      "Bar": 3704,
      "Broad": 3705,
      "Che": 3706,
      "Eu": 3707,
      "Elo": 3708,
      "Fer": 3709,
      "Fir": 3710,
      "Fren": 3711,
      "Ga": 3712,
      "Get": 3713,
      "Hu": 3714,
      "Has": 3715,
      "Hill": 3716,
      "Ju": 3717,
      "Ne": 3718,
      "Nature": 3719,
      "Oggs": 3720,
      "Park": 3721,
      "Plaz": 3722,
      "Red": 3723,
      "Right": 3724,
      "Se": 3725,
      "Sil": 3726,
      "Sever": 3727,
      "Still": 3728,
      "Ter": 3729,
      "Won": 3730,
      "Walter": 3731,
      "Yale": 3732,
      "Yea": 3733,
      "aunt": 3734,
      "bri": 3735,
      "bra": 3736,
      "bust": 3737,
      "based": 3738,
      "blaz": 3739,
      "bench": 3740,
      "cuse": 3741,
      "cise": 3742,
      "dry": 3743,
      "ech": 3744,
      "fou": 3745,
      "flight": 3746,
      "fie": 3747,
      "fix": 3748,
      "fixed": 3749,
      "gun": 3750,
      "grown": 3751,
      "hint": 3752,
      "ient": 3753,
      "iantly": 3754,
      "jor": 3755,
      "kn": 3756,
      "ker": 3757,
      "kill": 3758,
      "lted": 3759,
      "liness": 3760,
      "nounced": 3761,
      "oh": 3762,
      "otle": 3763,
      "py": 3764,
      "pour": 3765,
      "pill": 3766,
      "pig": 3767,
      "park": 3768,
      "page": 3769,
      "ral": 3770,
      "rate": 3771,
      "sir": 3772,
      "scold": 3773,
      "sank": 3774,
      "snob": 3775,
      "tut": 3776,
      "tall": 3777,
      "tour": 3778,
      "uation": 3779,
      "uate": 3780,
      "uished": 3781,
      "vir": 3782,
      "vul": 3783,
      "wish": 3784,
      "winter": 3785,
      "wings": 3786,
      "wagon": 3787,
      "“—": 3788,
      "iny": 3789,
      "inity": 3790,
      "announced": 3791,
      "ret": 3792,
      "reaction": 3793,
      "resem": 3794,
      "edom": 3795,
      "thod": 3796,
      "thunder": 3797,
      "thrown": 3798,
      "tower": 3799,
      "eness": 3800,
      "ases": 3801,
      "isp": 3802,
      "array": 3803,
      "meat": 3804,
      "melo": 3805,
      "method": 3806,
      "stal": 3807,
      "strolled": 3808,
      "lead": 3809,
      "lebr": 3810,
      "sey": 3811,
      "seat": 3812,
      "ads": 3813,
      "espe": 3814,
      "ids": 3815,
      "acing": 3816,
      "velt": 3817,
      "lla": 3818,
      "entific": 3819,
      "wives": 3820,
      "wiped": 3821,
      "vern": 3822,
      "weed": 3823,
      "wels": 3824,
      "youth": 3825,
      "unutter": 3826,
      "uneasy": 3827,
      "ribly": 3828,
      "impress": 3829,
      "impass": 3830,
      "charming": 3831,
      "These": 3832,
      "aband": 3833,
      "abund": 3834,
      "abstr": 3835,
      "urity": 3836,
      "terror": 3837,
      "celebr": 3838,
      "sail": 3839,
      "haught": 3840,
      "ney": 3841,
      "negro": 3842,
      "cohere": 3843,
      "sheer": 3844,
      "pear": 3845,
      "peering": 3846,
      "shrub": 3847,
      "suspect": 3848,
      "dock": 3849,
      "concl": 3850,
      "confirmed": 3851,
      "tie": 3852,
      "tipped": 3853,
      "text": 3854,
      "ourney": 3855,
      "ify": 3856,
      "express": 3857,
      "exempt": 3858,
      "whether": 3859,
      "odour": 3860,
      "indign": 3861,
      "ulking": 3862,
      "berately": 3863,
      "track": 3864,
      "istic": 3865,
      "istening": 3866,
      "affected": 3867,
      "hood": 3868,
      "sprang": 3869,
      "likely": 3870,
      "compe": 3871,
      "stor": 3872,
      "stores": 3873,
      "worked": 3874,
      "blur": 3875,
      "forest": 3876,
      "oughtn": 3877,
      "gress": 3878,
      "bored": 3879,
      "boys": 3880,
      "bootle": 3881,
      "project": 3882,
      "elbow": 3883,
      "phoned": 3884,
      "discu": 3885,
      "disappro": 3886,
      "rush": 3887,
      "danger": 3888,
      "minister": 3889,
      "sideways": 3890,
      "sidewalk": 3891,
      "glistening": 3892,
      "cially": 3893,
      "grat": 3894,
      "creet": 3895,
      "crept": 3896,
      "brain": 3897,
      "flash": 3898,
      "flutter": 3899,
      "Instead": 3900,
      "cheon": 3901,
      "viliz": 3902,
      "pride": 3903,
      "lected": 3904,
      "special": 3905,
      "desk": 3906,
      "desp": 3907,
      "distinct": 3908,
      "wells": 3909,
      "osevelt": 3910,
      "solid": 3911,
      "div": 3912,
      "dials": 3913,
      "passing": 3914,
      "realize": 3915,
      "dressing": 3916,
      "droplane": 3917,
      "interior": 3918,
      "string": 3919,
      "author": 3920,
      "grocer": 3921,
      "Someone": 3922,
      "invite": 3923,
      "carefully": 3924,
      "confess": 3925,
      "addy": 3926,
      "compan": 3927,
      "dimin": 3928,
      "lawns": 3929,
      "subst": 3930,
      "atures": 3931,
      "surprising": 3932,
      "join": 3933,
      "awful": 3934,
      "shortly": 3935,
      "freedom": 3936,
      "humanity": 3937,
      "helplessly": 3938,
      "swam": 3939,
      "visions": 3940,
      "strug": 3941,
      "social": 3942,
      "trains": 3943,
      "easily": 3944,
      "sleeping": 3945,
      "showed": 3946,
      "promin": 3947,
      "promised": 3948,
      "fav": 3949,
      "luncheon": 3950,
      "legs": 3951,
      "legal": 3952,
      "protect": 3953,
      "gaiety": 3954,
      "assumed": 3955,
      "Roy": 3956,
      "Rosy": 3957,
      "Roosevelt": 3958,
      "drawer": 3959,
      "utterly": 3960,
      "signific": 3961,
      "bloss": 3962,
      "blood": 3963,
      "posite": 3964,
      "ghosts": 3965,
      "ification": 3966,
      "cigar": 3967,
      "guest": 3968,
      "hydroplane": 3969,
      "recover": 3970,
      "foolish": 3971,
      "listening": 3972,
      "vesti": 3973,
      "flushed": 3974,
      "vincial": 3975,
      "railroad": 3976,
      "destroy": 3977,
      "oddly": 3978,
      "eyeb": 3979,
      "gravel": 3980,
      "turf": 3981,
      "carrying": 3982,
      "Excuse": 3983,
      "ecstat": 3984,
      "ivory": 3985,
      "boxes": 3986,
      "usual": 3987,
      "Really": 3988,
      "dying": 3989,
      "drugstores": 3990,
      "examined": 3991,
      "transcri": 3992,
      "sensation": 3993,
      "wreath": 3994,
      "corrected": 3995,
      "photograp": 3996,
      "fruit": 3997,
      "introduction": 3998,
      "satisfaction": 3999,
      "private": 4000,
      "embarrassed": 4001,
      "wedding": 4002,
      "tipto": 4003,
      "England": 4004,
      "existence": 4005,
      "breakfast": 4006,
      "Maybe": 4007,
      "bird": 4008,
      "crossed": 4009,
      "million": 4010,
      "slept": 4011,
      "Doesn": 4012,
      "College": 4013,
      "North": 4014,
      "slipped": 4015,
      "narrow": 4016,
      "vigil": 4017,
      "reports": 4018,
      "suspici": 4019,
      "struggle": 4020,
      "Series": 4021,
      "jaun": 4022,
      "milk": 4023,
      "adapt": 4024,
      "veranda": 4025,
      "nearer": 4026,
      "collap": 4027,
      "tragic": 4028,
      "inevitable": 4029,
      "swimming": 4030,
      "balancing": 4031,
      "uffled": 4032,
      "model": 4033,
      "deliberately": 4034,
      "sentimental": 4035,
      "Sunday": 4036,
      "dignified": 4037,
      "gruff": 4038,
      "honest": 4039,
      "irresistible": 4040,
      "tumult": 4041,
      "anxiously": 4042,
      "artificial": 4043,
      "consequence": 4044,
      "blankly": 4045,
      "Avenue": 4046,
      "Broadway": 4047,
      "Chester": 4048,
      "Europe": 4049,
      "Eloi": 4050,
      "First": 4051,
      "French": 4052,
      "July": 4053,
      "Oggsford": 4054,
      "Plaza": 4055,
      "Several": 4056,
      "foul": 4057,
      "tournament": 4058,
      "especially": 4059,
      "impassioned": 4060,
      "abundant": 4061,
      "coheren": 4062,
      "bootlegg": 4063,
      "202": 4064,
      "50": 4065,
      "?—": 4066,
      "Age": 4067,
      "Cat": 4068,
      "City": 4069,
      "CON": 4070,
      "Fo": 4071,
      "Ger": 4072,
      "Had": 4073,
      "Metro": 4074,
      "Pr": 4075,
      "Plain": 4076,
      "Sim": 4077,
      "Spe": 4078,
      "Vol": 4079,
      "Would": 4080,
      "apo": 4081,
      "aud": 4082,
      "bon": 4083,
      "bbed": 4084,
      "brill": 4085,
      "cher": 4086,
      "dig": 4087,
      "due": 4088,
      "ean": 4089,
      "emo": 4090,
      "eper": 4091,
      "egg": 4092,
      "echo": 4093,
      "fle": 4094,
      "fate": 4095,
      "faced": 4096,
      "fier": 4097,
      "gain": 4098,
      "gers": 4099,
      "gently": 4100,
      "hast": 4101,
      "hib": 4102,
      "iven": 4103,
      "jar": 4104,
      "lly": 4105,
      "mant": 4106,
      "mson": 4107,
      "makes": 4108,
      "oon": 4109,
      "phe": 4110,
      "pages": 4111,
      "pump": 4112,
      "sla": 4113,
      "swell": 4114,
      "slip": 4115,
      "source": 4116,
      "tact": 4117,
      "ub": 4118,
      "uated": 4119,
      "vac": 4120,
      "vive": 4121,
      "wro": 4122,
      "wid": 4123,
      "xim": 4124,
      "ying": 4125,
      "’,": 4126,
      "inion": 4127,
      "infinitely": 4128,
      "rece": 4129,
      "tom": 4130,
      "tober": 4131,
      "assure": 4132,
      "istered": 4133,
      "arre": 4134,
      "itch": 4135,
      "meas": 4136,
      "alarm": 4137,
      "stud": 4138,
      "stained": 4139,
      "leash": 4140,
      "levers": 4141,
      "roof": 4142,
      "sees": 4143,
      "seated": 4144,
      "seized": 4145,
      "advent": 4146,
      "advan": 4147,
      "wasting": 4148,
      "ication": 4149,
      "ghast": 4150,
      "wires": 4151,
      "vering": 4152,
      "ays": 4153,
      "unmistak": 4154,
      "ripped": 4155,
      "impro": 4156,
      "impossible": 4157,
      "sober": 4158,
      "chain": 4159,
      "irty": 4160,
      "absur": 4161,
      "nod": 4162,
      "noise": 4163,
      "ters": 4164,
      "ceed": 4165,
      "cease": 4166,
      "ceiling": 4167,
      "hail": 4168,
      "hazy": 4169,
      "haunted": 4170,
      "ctions": 4171,
      "moder": 4172,
      "modif": 4173,
      "cott": 4174,
      "ilation": 4175,
      "gered": 4176,
      "govern": 4177,
      "sue": 4178,
      "anticip": 4179,
      "conom": 4180,
      "confirm": 4181,
      "aming": 4182,
      "amber": 4183,
      "pole": 4184,
      "dear": 4185,
      "devo": 4186,
      "decor": 4187,
      "delay": 4188,
      "devil": 4189,
      "delighted": 4190,
      "deeper": 4191,
      "ifferen": 4192,
      "worth": 4193,
      "worse": 4194,
      "exer": 4195,
      "exhaust": 4196,
      "usive": 4197,
      "indist": 4198,
      "indifferen": 4199,
      "foli": 4200,
      "permitted": 4201,
      "plun": 4202,
      "liter": 4203,
      "cks": 4204,
      "opposite": 4205,
      "opinion": 4206,
      "spite": 4207,
      "spark": 4208,
      "spired": 4209,
      "knowing": 4210,
      "knowled": 4211,
      "blance": 4212,
      "ures": 4213,
      "urely": 4214,
      "rowning": 4215,
      "eluded": 4216,
      "dish": 4217,
      "dismay": 4218,
      "gotten": 4219,
      "rules": 4220,
      "clad": 4221,
      "clut": 4222,
      "clust": 4223,
      "actual": 4224,
      "actually": 4225,
      "granted": 4226,
      "closing": 4227,
      "smashed": 4228,
      "flan": 4229,
      "contri": 4230,
      "contribut": 4231,
      "everywhere": 4232,
      "mattered": 4233,
      "waving": 4234,
      "corro": 4235,
      "corrup": 4236,
      "corrid": 4237,
      "situation": 4238,
      "intent": 4239,
      "founded": 4240,
      "desper": 4241,
      "reading": 4242,
      "brood": 4243,
      "torted": 4244,
      "startling": 4245,
      "tables": 4246,
      "survi": 4247,
      "willing": 4248,
      "scr": 4249,
      "younger": 4250,
      "marriage": 4251,
      "shake": 4252,
      "fined": 4253,
      "hush": 4254,
      "appears": 4255,
      "appearing": 4256,
      "playing": 4257,
      "singular": 4258,
      "push": 4259,
      "company": 4260,
      "minded": 4261,
      "dining": 4262,
      "farther": 4263,
      "fainted": 4264,
      "flower": 4265,
      "brighter": 4266,
      "remarks": 4267,
      "Through": 4268,
      "Things": 4269,
      "horse": 4270,
      "cracked": 4271,
      "priate": 4272,
      "rounded": 4273,
      "dogs": 4274,
      "crimson": 4275,
      "incident": 4276,
      "hesitation": 4277,
      "objects": 4278,
      "idden": 4279,
      "needed": 4280,
      "generation": 4281,
      "sweat": 4282,
      "swept": 4283,
      "approach": 4284,
      "appropriate": 4285,
      "tries": 4286,
      "possib": 4287,
      "physically": 4288,
      "science": 4289,
      "scientific": 4290,
      "reasonable": 4291,
      "service": 4292,
      "apartments": 4293,
      "drinking": 4294,
      "meeting": 4295,
      "directly": 4296,
      "bitter": 4297,
      "registered": 4298,
      "universe": 4299,
      "capable": 4300,
      "circular": 4301,
      "orders": 4302,
      "imagination": 4303,
      "steadily": 4304,
      "freshness": 4305,
      "calcul": 4306,
      "fluct": 4307,
      "ballo": 4308,
      "eighteen": 4309,
      "judge": 4310,
      "searched": 4311,
      "command": 4312,
      "salt": 4313,
      "ragged": 4314,
      "displayed": 4315,
      "Except": 4316,
      "balls": 4317,
      "north": 4318,
      "thousands": 4319,
      "addressed": 4320,
      "fasc": 4321,
      "solemnly": 4322,
      "fancy": 4323,
      "oppress": 4324,
      "skin": 4325,
      "wreck": 4326,
      "incessant": 4327,
      "gestures": 4328,
      "profoundly": 4329,
      "fruits": 4330,
      "period": 4331,
      "grief": 4332,
      "decision": 4333,
      "central": 4334,
      "swollen": 4335,
      "spirit": 4336,
      "knee": 4337,
      "millions": 4338,
      "educated": 4339,
      "conception": 4340,
      "appearance": 4341,
      "graceful": 4342,
      "purposeless": 4343,
      "calmly": 4344,
      "machines": 4345,
      "pipe": 4346,
      "affection": 4347,
      "possession": 4348,
      "dumb": 4349,
      "eastward": 4350,
      "mechanism": 4351,
      "alert": 4352,
      "keenly": 4353,
      "hospitality": 4354,
      "October": 4355,
      "relieved": 4356,
      "staggered": 4357,
      "previous": 4358,
      "Journalist": 4359,
      "Wait": 4360,
      "gathering": 4361,
      "scepticism": 4362,
      "saddle": 4363,
      "tongue": 4364,
      "comfortable": 4365,
      "sympath": 4366,
      "capacity": 4367,
      "advantage": 4368,
      "perceptible": 4369,
      "discuss": 4370,
      "apolog": 4371,
      "emotions": 4372,
      "fierce": 4373,
      "hasty": 4374,
      "iveness": 4375,
      "mantel": 4376,
      "wrote": 4377,
      "receive": 4378,
      "absurd": 4379,
      "confirmation": 4380,
      "knowledge": 4381,
      "22": 4382,
      "41": 4383,
      "80": 4384,
      "90": 4385,
      "Ah": 4386,
      "Aired": 4387,
      "ACT": 4388,
      "Again": 4389,
      "BE": 4390,
      "BO": 4391,
      "BREA": 4392,
      "Cer": 4393,
      "Cla": 4394,
      "Cive": 4395,
      "Cross": 4396,
      "CII": 4397,
      "CEN": 4398,
      "Daddy": 4399,
      "EX": 4400,
      "Ed": 4401,
      "Ear": 4402,
      "Ella": 4403,
      "EBO": 4404,
      "Fin": 4405,
      "Fit": 4406,
      "Fear": 4407,
      "Flu": 4408,
      "Frid": 4409,
      "Hold": 4410,
      "IM": 4411,
      "IX": 4412,
      "IRE": 4413,
      "Jer": 4414,
      "Kay": 4415,
      "LE": 4416,
      "Mu": 4417,
      "Mad": 4418,
      "Main": 4419,
      "ND": 4420,
      "NI": 4421,
      "OK": 4422,
      "OSE": 4423,
      "PG": 4424,
      "PU": 4425,
      "Ph": 4426,
      "Qu": 4427,
      "Res": 4428,
      "SS": 4429,
      "ST": 4430,
      "Sch": 4431,
      "Sant": 4432,
      "Sea": 4433,
      "TO": 4434,
      "Town": 4435,
      "Turn": 4436,
      "Tattle": 4437,
      "Use": 4438,
      "VE": 4439,
      "Van": 4440,
      "VII": 4441,
      "VIII": 4442,
      "WI": 4443,
      "Whe": 4444,
      "Was": 4445,
      "War": 4446,
      "Want": 4447,
      "ax": 4448,
      "bid": 4449,
      "bag": 4450,
      "bla": 4451,
      "bum": 4452,
      "bend": 4453,
      "bure": 4454,
      "biz": 4455,
      "boun": 4456,
      "bending": 4457,
      "baby": 4458,
      "cow": 4459,
      "cast": 4460,
      "crushed": 4461,
      "dic": 4462,
      "dil": 4463,
      "etor": 4464,
      "ebook": 4465,
      "fly": 4466,
      "fender": 4467,
      "fumbled": 4468,
      "frowned": 4469,
      "frowning": 4470,
      "gap": 4471,
      "gtion": 4472,
      "hang": 4473,
      "hips": 4474,
      "hulking": 4475,
      "ium": 4476,
      "ially": 4477,
      "jail": 4478,
      "journey": 4479,
      "lin": 4480,
      "lon": 4481,
      "lor": 4482,
      "lined": 4483,
      "male": 4484,
      "muffled": 4485,
      "ners": 4486,
      "pas": 4487,
      "pun": 4488,
      "pack": 4489,
      "pomp": 4490,
      "sne": 4491,
      "sought": 4492,
      "scho": 4493,
      "scared": 4494,
      "tend": 4495,
      "tang": 4496,
      "twelve": 4497,
      "uk": 4498,
      "ues": 4499,
      "uish": 4500,
      "win": 4501,
      "wick": 4502,
      "wise": 4503,
      "zed": 4504,
      "’?”": 4505,
      "hello": 4506,
      "intr": 4507,
      "inade": 4508,
      "inery": 4509,
      "inction": 4510,
      "incoheren": 4511,
      "thed": 4512,
      "thetic": 4513,
      "theory": 4514,
      "rever": 4515,
      "repro": 4516,
      "reass": 4517,
      "research": 4518,
      "ata": 4519,
      "erior": 4520,
      "ernal": 4521,
      "thud": 4522,
      "thread": 4523,
      "towel": 4524,
      "endo": 4525,
      "asp": 4526,
      "astern": 4527,
      "orch": 4528,
      "orous": 4529,
      "orously": 4530,
      "orang": 4531,
      "isol": 4532,
      "iscu": 4533,
      "isingly": 4534,
      "arse": 4535,
      "itable": 4536,
      "iture": 4537,
      "mess": 4538,
      "alty": 4539,
      "alian": 4540,
      "stro": 4541,
      "lep": 4542,
      "lev": 4543,
      "leaf": 4544,
      "rog": 4545,
      "roll": 4546,
      "sell": 4547,
      "separ": 4548,
      "adjust": 4549,
      "admir": 4550,
      "icated": 4551,
      "bewild": 4552,
      "beads": 4553,
      "iding": 4554,
      "acti": 4555,
      "velled": 4556,
      "verge": 4557,
      "weary": 4558,
      "oms": 4559,
      "lies": 4560,
      "lious": 4561,
      "liability": 4562,
      "unch": 4563,
      "untered": 4564,
      "unbroken": 4565,
      "untrue": 4566,
      "unsuccess": 4567,
      "unusual": 4568,
      "rier": 4569,
      "riot": 4570,
      "whim": 4571,
      "loves": 4572,
      "solit": 4573,
      "chairs": 4574,
      "ird": 4575,
      "irregular": 4576,
      "outdoors": 4577,
      "abl": 4578,
      "nobody": 4579,
      "nostri": 4580,
      "aggress": 4581,
      "urs": 4582,
      "ury": 4583,
      "tery": 4584,
      "sauntered": 4585,
      "keys": 4586,
      "features": 4587,
      "costs": 4588,
      "sheep": 4589,
      "shrill": 4590,
      "goin": 4591,
      "sul": 4592,
      "suits": 4593,
      "cape": 4594,
      "const": 4595,
      "conven": 4596,
      "ounding": 4597,
      "ament": 4598,
      "pot": 4599,
      "dep": 4600,
      "degre": 4601,
      "detail": 4602,
      "excl": 4603,
      "food": 4604,
      "folds": 4605,
      "perv": 4606,
      "persu": 4607,
      "ulse": 4608,
      "ousine": 4609,
      "trous": 4610,
      "pled": 4611,
      "plum": 4612,
      "plants": 4613,
      "Its": 4614,
      "Italian": 4615,
      "astically": 4616,
      "istice": 4617,
      "preced": 4618,
      "preserved": 4619,
      "hose": 4620,
      "hovered": 4621,
      "spend": 4622,
      "ette": 4623,
      "timetable": 4624,
      "oline": 4625,
      "illa": 4626,
      "compre": 4627,
      "committed": 4628,
      "handed": 4629,
      "handker": 4630,
      "lightly": 4631,
      "stoop": 4632,
      "stoff": 4633,
      "working": 4634,
      "blan": 4635,
      "Young": 4636,
      "icking": 4637,
      "Probably": 4638,
      "bore": 4639,
      "boots": 4640,
      "rowing": 4641,
      "phase": 4642,
      "discreet": 4643,
      "whatsoever": 4644,
      "older": 4645,
      "undergrad": 4646,
      "mention": 4647,
      "dances": 4648,
      "minable": 4649,
      "clan": 4650,
      "cling": 4651,
      "thinks": 4652,
      "civiliz": 4653,
      "moments": 4654,
      "momentary": 4655,
      "momentarily": 4656,
      "grate": 4657,
      "smiling": 4658,
      "tense": 4659,
      "tender": 4660,
      "cream": 4661,
      "brace": 4662,
      "flung": 4663,
      "contained": 4664,
      "resting": 4665,
      "ordance": 4666,
      "print": 4667,
      "armistice": 4668,
      "copied": 4669,
      "mattre": 4670,
      "obscene": 4671,
      "tainly": 4672,
      "intently": 4673,
      "intended": 4674,
      "speed": 4675,
      "species": 4676,
      "speech": 4677,
      "halt": 4678,
      "untarily": 4679,
      "desire": 4680,
      "readable": 4681,
      "ota": 4682,
      "disting": 4683,
      "ishly": 4684,
      "pressing": 4685,
      "pressure": 4686,
      "halfway": 4687,
      "wallet": 4688,
      "ester": 4689,
      "establ": 4690,
      "breast": 4691,
      "breeding": 4692,
      "setting": 4693,
      "scal": 4694,
      "Stand": 4695,
      "Station": 4696,
      "paral": 4697,
      "parad": 4698,
      "parti": 4699,
      "appar": 4700,
      "alongshore": 4701,
      "lieu": 4702,
      "bedrooms": 4703,
      "dial": 4704,
      "silk": 4705,
      "silhou": 4706,
      "tapped": 4707,
      "merged": 4708,
      "Wester": 4709,
      "electronically": 4710,
      "famous": 4711,
      "intermit": 4712,
      "interminable": 4713,
      "player": 4714,
      "impulse": 4715,
      "aughter": 4716,
      "limousine": 4717,
      "Somebody": 4718,
      "confidence": 4719,
      "explor": 4720,
      "explicable": 4721,
      "guil": 4722,
      "latter": 4723,
      "decade": 4724,
      "whistle": 4725,
      "choose": 4726,
      "shoe": 4727,
      "Donations": 4728,
      "Thus": 4729,
      "Three": 4730,
      "surprisingly": 4731,
      "horns": 4732,
      "horribly": 4733,
      "joined": 4734,
      "lingered": 4735,
      "bara": 4736,
      "crou": 4737,
      "understanding": 4738,
      "awed": 4739,
      "aneously": 4740,
      "breathless": 4741,
      "breathlessly": 4742,
      "THAT": 4743,
      "occas": 4744,
      "Buchanans": 4745,
      "cyn": 4746,
      "frequ": 4747,
      "arrival": 4748,
      "telephoned": 4749,
      "azed": 4750,
      "swung": 4751,
      "swallow": 4752,
      "Little": 4753,
      "warned": 4754,
      "towns": 4755,
      "dreamed": 4756,
      "END": 4757,
      "drum": 4758,
      "society": 4759,
      "solutely": 4760,
      "Tostoff": 4761,
      "accordance": 4762,
      "ulture": 4763,
      "ultaneously": 4764,
      "ictions": 4765,
      "accessible": 4766,
      "promising": 4767,
      "absently": 4768,
      "glancing": 4769,
      "faith": 4770,
      "fault": 4771,
      "mistress": 4772,
      "receipt": 4773,
      "LIAB": 4774,
      "LICEN": 4775,
      "hillside": 4776,
      "protest": 4777,
      "Absolutely": 4778,
      "damn": 4779,
      "damages": 4780,
      "walls": 4781,
      "pointment": 4782,
      "ladies": 4783,
      "powdered": 4784,
      "takes": 4785,
      "indefinite": 4786,
      "repeat": 4787,
      "bloomed": 4788,
      "fifteen": 4789,
      "tremend": 4790,
      "snap": 4791,
      "determine": 4792,
      "INC": 4793,
      "ING": 4794,
      "incredible": 4795,
      "doubtfully": 4796,
      "bitch": 4797,
      "listen": 4798,
      "maid": 4799,
      "mail": 4800,
      "major": 4801,
      "riding": 4802,
      "thinning": 4803,
      "exciting": 4804,
      "steady": 4805,
      "muscle": 4806,
      "stuck": 4807,
      "rubies": 4808,
      "rubbing": 4809,
      "balance": 4810,
      "palaces": 4811,
      "destiny": 4812,
      "lazed": 4813,
      "commut": 4814,
      "flattered": 4815,
      "ART": 4816,
      "sides": 4817,
      "necessity": 4818,
      "specified": 4819,
      "specimens": 4820,
      "Anything": 4821,
      "Anyhow": 4822,
      "TIES": 4823,
      "TION": 4824,
      "fero": 4825,
      "mirror": 4826,
      "sensu": 4827,
      "turbul": 4828,
      "widest": 4829,
      "sixty": 4830,
      "planet": 4831,
      "streets": 4832,
      "1919": 4833,
      "ailable": 4834,
      "fantry": 4835,
      "animals": 4836,
      "accidental": 4837,
      "borrowed": 4838,
      "variety": 4839,
      "examining": 4840,
      "newspapers": 4841,
      "conscient": 4842,
      "tlessly": 4843,
      "complained": 4844,
      "correct": 4845,
      "reluctance": 4846,
      "conceal": 4847,
      "introduced": 4848,
      "satisf": 4849,
      "privile": 4850,
      "Superior": 4851,
      "facing": 4852,
      "population": 4853,
      "extraordinary": 4854,
      "avoided": 4855,
      "bonds": 4856,
      "yachting": 4857,
      "concerning": 4858,
      "delicate": 4859,
      "obtaining": 4860,
      "elevated": 4861,
      "NOT": 4862,
      "julep": 4863,
      "panels": 4864,
      "throwing": 4865,
      "proprietor": 4866,
      "Defect": 4867,
      "Fifth": 4868,
      "Finnish": 4869,
      "available": 4870,
      "slope": 4871,
      "stables": 4872,
      "amazing": 4873,
      "flicker": 4874,
      "flickering": 4875,
      "contemptuous": 4876,
      "superior": 4877,
      "enthusiasm": 4878,
      "enthusiastically": 4879,
      "Overworld": 4880,
      "machinery": 4881,
      "vicinity": 4882,
      "resumed": 4883,
      "result": 4884,
      "regarded": 4885,
      "regarding": 4886,
      "westward": 4887,
      "additional": 4888,
      "People": 4889,
      "domain": 4890,
      "astonishment": 4891,
      "computer": 4892,
      "computers": 4893,
      "earnestly": 4894,
      "disappointment": 4895,
      "disclaimer": 4896,
      "officer": 4897,
      "officers": 4898,
      "solicit": 4899,
      "occupied": 4900,
      "WARRANTY": 4901,
      "WARRANTIES": 4902,
      "original": 4903,
      "Dimension": 4904,
      "hitherto": 4905,
      "radiant": 4906,
      "tribute": 4907,
      "respons": 4908,
      "prepare": 4909,
      "clouds": 4910,
      "expenses": 4911,
      "magazine": 4912,
      "employe": 4913,
      "flipped": 4914,
      "furniture": 4915,
      "gonnegtion": 4916,
      "lonely": 4917,
      "rumours": 4918,
      "annoyed": 4919,
      "references": 4920,
      "lemons": 4921,
      "buttons": 4922,
      "teeth": 4923,
      "permanent": 4924,
      "promoting": 4925,
      "clerks": 4926,
      "restrictions": 4927,
      "appreci": 4928,
      "automatically": 4929,
      "ASCII": 4930,
      "DISTRI": 4931,
      "FULL": 4932,
      "fatig": 4933,
      "federal": 4934,
      "jerk": 4935,
      "pantry": 4936,
      "attracted": 4937,
      "wealthy": 4938,
      "liquor": 4939,
      "mysterious": 4940,
      "sheets": 4941,
      "affairs": 4942,
      "asserted": 4943,
      "AGREE": 4944,
      "consciousness": 4945,
      "investigation": 4946,
      "DAMAGES": 4947,
      "Barbara": 4948,
      "Redistribut": 4949,
      "Silent": 4950,
      "Terms": 4951,
      "Yeah": 4952,
      "brief": 4953,
      "brakes": 4954,
      "fields": 4955,
      "scolding": 4956,
      "resemblance": 4957,
      "unutterable": 4958,
      "pearls": 4959,
      "shrubbery": 4960,
      "indignantly": 4961,
      "compelled": 4962,
      "storm": 4963,
      "blurred": 4964,
      "gratitude": 4965,
      "diminished": 4966,
      "prominently": 4967,
      "Royalty": 4968,
      "significance": 4969,
      "eyebrows": 4970,
      "ecstatic": 4971,
      "bootlegger": 4972,
      "Metropole": 4973,
      "ghastly": 4974,
      "scrut": 4975,
      "singularly": 4976,
      "Airedale": 4977,
      "BREACH": 4978,
      "Certainly": 4979,
      "Civet": 4980,
      "EBOOK": 4981,
      "Finally": 4982,
      "Fitz": 4983,
      "Friday": 4984,
      "IRECT": 4985,
      "Jersey": 4986,
      "Kaye": 4987,
      "START": 4988,
      "Santa": 4989,
      "Vanilla": 4990,
      "Whenever": 4991,
      "bureau": 4992,
      "bizarre": 4993,
      "longest": 4994,
      "school": 4995,
      "tangible": 4996,
      "incoherent": 4997,
      "reproach": 4998,
      "oranges": 4999,
      "solitary": 5000,
      "handkerchief": 5001,
      "undergraduate": 5002,
      "mattress": 5003,
      "LICENSE": 5004,
      "DISTRIBUT": 5005,
      "(“": 5006,
      ".—": 5007,
      "64": 5008,
      "Cl": 5009,
      "Cent": 5010,
      "Dark": 5011,
      "Eight": 5012,
      "Fe": 5013,
      "Fur": 5014,
      "Fine": 5015,
      "Gr": 5016,
      "Gold": 5017,
      "Hal": 5018,
      "Ma": 5019,
      "Night": 5020,
      "Neither": 5021,
      "Sal": 5022,
      "Say": 5023,
      "Save": 5024,
      "Tri": 5025,
      "Those": 5026,
      "Work": 5027,
      "ape": 5028,
      "awoke": 5029,
      "bin": 5030,
      "bat": 5031,
      "bill": 5032,
      "bbles": 5033,
      "cis": 5034,
      "cab": 5035,
      "drain": 5036,
      "dazz": 5037,
      "drowned": 5038,
      "dirty": 5039,
      "eed": 5040,
      "eter": 5041,
      "evid": 5042,
      "fit": 5043,
      "fill": 5044,
      "frank": 5045,
      "gs": 5046,
      "gen": 5047,
      "gra": 5048,
      "glazed": 5049,
      "hover": 5050,
      "hide": 5051,
      "hidden": 5052,
      "iative": 5053,
      "jac": 5054,
      "jam": 5055,
      "lent": 5056,
      "lust": 5057,
      "lumin": 5058,
      "muse": 5059,
      "mmed": 5060,
      "norm": 5061,
      "ox": 5062,
      "oce": 5063,
      "oil": 5064,
      "pup": 5065,
      "pul": 5066,
      "pane": 5067,
      "poured": 5068,
      "sque": 5069,
      "sends": 5070,
      "size": 5071,
      "tro": 5072,
      "tach": 5073,
      "tted": 5074,
      "tangle": 5075,
      "ule": 5076,
      "uct": 5077,
      "udd": 5078,
      "vice": 5079,
      "wink": 5080,
      "inf": 5081,
      "inth": 5082,
      "init": 5083,
      "inher": 5084,
      "incontin": 5085,
      "inhuman": 5086,
      "influ": 5087,
      "anged": 5088,
      "angu": 5089,
      "rep": 5090,
      "renew": 5091,
      "reced": 5092,
      "reput": 5093,
      "retre": 5094,
      "returning": 5095,
      "respect": 5096,
      "ressed": 5097,
      "recently": 5098,
      "relief": 5099,
      "reserve": 5100,
      "reassure": 5101,
      "thither": 5102,
      "encies": 5103,
      "asha": 5104,
      "orrow": 5105,
      "isk": 5106,
      "isto": 5107,
      "isher": 5108,
      "island": 5109,
      "ari": 5110,
      "argu": 5111,
      "melted": 5112,
      "stup": 5113,
      "stem": 5114,
      "stare": 5115,
      "stum": 5116,
      "study": 5117,
      "level": 5118,
      "seas": 5119,
      "addresses": 5120,
      "washed": 5121,
      "owed": 5122,
      "icity": 5123,
      "bear": 5124,
      "beard": 5125,
      "bearing": 5126,
      "belief": 5127,
      "acute": 5128,
      "forced": 5129,
      "unlike": 5130,
      "uncle": 5131,
      "ripe": 5132,
      "ripp": 5133,
      "sob": 5134,
      "chill": 5135,
      "chamber": 5136,
      "ceme": 5137,
      "cerem": 5138,
      "ham": 5139,
      "haw": 5140,
      "haired": 5141,
      "nell": 5142,
      "fever": 5143,
      "covery": 5144,
      "ils": 5145,
      "geome": 5146,
      "shelves": 5147,
      "ssibly": 5148,
      "peered": 5149,
      "shr": 5150,
      "sharing": 5151,
      "conside": 5152,
      "consol": 5153,
      "amid": 5154,
      "amused": 5155,
      "dew": 5156,
      "decl": 5157,
      "detach": 5158,
      "exting": 5159,
      "indire": 5160,
      "fold": 5161,
      "folly": 5162,
      "periment": 5163,
      "ulated": 5164,
      "plicity": 5165,
      "overtaking": 5166,
      "laps": 5167,
      "noted": 5168,
      "notes": 5169,
      "istance": 5170,
      "artz": 5171,
      "deri": 5172,
      "ols": 5173,
      "umsy": 5174,
      "illumin": 5175,
      "composed": 5176,
      "compressed": 5177,
      "endure": 5178,
      "stored": 5179,
      "hated": 5180,
      "carpet": 5181,
      "proof": 5182,
      "proceed": 5183,
      "distr": 5184,
      "dismissed": 5185,
      "discord": 5186,
      "discovery": 5187,
      "wore": 5188,
      "rude": 5189,
      "mental": 5190,
      "ranean": 5191,
      "reek": 5192,
      "clumsy": 5193,
      "longed": 5194,
      "actions": 5195,
      "dreaded": 5196,
      "closer": 5197,
      "crest": 5198,
      "creative": 5199,
      "bringing": 5200,
      "flor": 5201,
      "flicke": 5202,
      "Inst": 5203,
      "vily": 5204,
      "prin": 5205,
      "lecting": 5206,
      "waist": 5207,
      "waves": 5208,
      "corrug": 5209,
      "lasted": 5210,
      "please": 5211,
      "desired": 5212,
      "distur": 5213,
      "tors": 5214,
      "forms": 5215,
      "hens": 5216,
      "tale": 5217,
      "breathe": 5218,
      "sented": 5219,
      "survive": 5220,
      "sett": 5221,
      "scri": 5222,
      "sched": 5223,
      "scattered": 5224,
      "happens": 5225,
      "putting": 5226,
      "appalled": 5227,
      "shapes": 5228,
      "paused": 5229,
      "ensed": 5230,
      "mering": 5231,
      "reality": 5232,
      "runs": 5233,
      "drops": 5234,
      "slum": 5235,
      "interval": 5236,
      "strain": 5237,
      "implied": 5238,
      "invol": 5239,
      "career": 5240,
      "pushing": 5241,
      "inclined": 5242,
      "adding": 5243,
      "energy": 5244,
      "friendly": 5245,
      "strangest": 5246,
      "dimly": 5247,
      "subter": 5248,
      "subtle": 5249,
      "substant": 5250,
      "decad": 5251,
      "besides": 5252,
      "Thousand": 5253,
      "Thurs": 5254,
      "reflection": 5255,
      "circling": 5256,
      "horses": 5257,
      "horror": 5258,
      "joy": 5259,
      "kindly": 5260,
      "linger": 5261,
      "iciency": 5262,
      "extinction": 5263,
      "crab": 5264,
      "attach": 5265,
      "attached": 5266,
      "awk": 5267,
      "busy": 5268,
      "halls": 5269,
      "enetr": 5270,
      "spots": 5271,
      "cycle": 5272,
      "hotter": 5273,
      "vision": 5274,
      "visibly": 5275,
      "visitor": 5276,
      "taxes": 5277,
      "dusty": 5278,
      "logical": 5279,
      "drag": 5280,
      "cases": 5281,
      "hurry": 5282,
      "angry": 5283,
      "ultim": 5284,
      "lux": 5285,
      "easier": 5286,
      "wonderful": 5287,
      "fail": 5288,
      "legally": 5289,
      "wildly": 5290,
      "footsteps": 5291,
      "football": 5292,
      "hillo": 5293,
      "hills": 5294,
      "laden": 5295,
      "powers": 5296,
      "colourless": 5297,
      "Carlo": 5298,
      "snat": 5299,
      "profit": 5300,
      "similar": 5301,
      "simplicity": 5302,
      "univers": 5303,
      "imagined": 5304,
      "mastered": 5305,
      "masses": 5306,
      "quietly": 5307,
      "glowed": 5308,
      "patent": 5309,
      "cheerfully": 5310,
      "flame": 5311,
      "miserable": 5312,
      "painting": 5313,
      "soul": 5314,
      "cattle": 5315,
      "ferred": 5316,
      "jumping": 5317,
      "reaching": 5318,
      "neighbourhood": 5319,
      "welcome": 5320,
      "rapidly": 5321,
      "letters": 5322,
      "stretch": 5323,
      "burnt": 5324,
      "bathing": 5325,
      "America": 5326,
      "stirring": 5327,
      "firmly": 5328,
      "sensations": 5329,
      "complac": 5330,
      "Upon": 5331,
      "Upper": 5332,
      "remains": 5333,
      "remaining": 5334,
      "nervously": 5335,
      "recognised": 5336,
      "largest": 5337,
      "tangled": 5338,
      "obvious": 5339,
      "extravag": 5340,
      "blocked": 5341,
      "throb": 5342,
      "concerned": 5343,
      "delicately": 5344,
      "indicate": 5345,
      "indicating": 5346,
      "spiration": 5347,
      "clamber": 5348,
      "cheeks": 5349,
      "instinctively": 5350,
      "splendour": 5351,
      "birth": 5352,
      "jug": 5353,
      "knees": 5354,
      "tiny": 5355,
      "tempor": 5356,
      "replaced": 5357,
      "shifted": 5358,
      "vividly": 5359,
      "descend": 5360,
      "descended": 5361,
      "amazed": 5362,
      "transit": 5363,
      "tunnel": 5364,
      "reported": 5365,
      "struggles": 5366,
      "powerful": 5367,
      "Possibly": 5368,
      "hilariously": 5369,
      "suffering": 5370,
      "disappointed": 5371,
      "grasped": 5372,
      "obscurity": 5373,
      "occupation": 5374,
      "simplest": 5375,
      "Fourth": 5376,
      "fragment": 5377,
      "passionate": 5378,
      "twinkle": 5379,
      "magazines": 5380,
      "language": 5381,
      "Company": 5382,
      "credit": 5383,
      "plaus": 5384,
      "overwhelming": 5385,
      "Indeed": 5386,
      "Sitting": 5387,
      "frame": 5388,
      "sombre": 5389,
      "wrapped": 5390,
      "heavily": 5391,
      "inquir": 5392,
      "reverent": 5393,
      "sticks": 5394,
      "velocity": 5395,
      "prevented": 5396,
      "civilisation": 5397,
      "critical": 5398,
      "acquaintance": 5399,
      "guns": 5400,
      "killing": 5401,
      "pillars": 5402,
      "abandoned": 5403,
      "favour": 5404,
      "transcription": 5405,
      "German": 5406,
      "Simon": 5407,
      "flesh": 5408,
      "hibition": 5409,
      "alarmed": 5410,
      "unmistakable": 5411,
      "indistinct": 5412,
      "plunged": 5413,
      "dismayed": 5414,
      "corridor": 5415,
      "punct": 5416,
      "tendency": 5417,
      "stroke": 5418,
      "convenient": 5419,
      "degree": 5420,
      "trousers": 5421,
      "paradox": 5422,
      "silhouette": 5423,
      "intermittent": 5424,
      "Central": 5425,
      "Further": 5426,
      "Golden": 5427,
      "museum": 5428,
      "ocean": 5429,
      "winked": 5430,
      "initiative": 5431,
      "incontinently": 5432,
      "influence": 5433,
      "ashamed": 5434,
      "considered": 5435,
      "indirectly": 5436,
      "lapsed": 5437,
      "illuminated": 5438,
      "flickered": 5439,
      "corrugated": 5440,
      "Thursday": 5441,
      ".)": 5442,
      ".—”": 5443,
      "16": 5444,
      "17": 5445,
      "200": 5446,
      "?’": 5447,
      "Aw": 5448,
      "App": 5449,
      "Asto": 5450,
      "Ang": 5451,
      "BY": 5452,
      "Bo": 5453,
      "Back": 5454,
      "Bet": 5455,
      "Brid": 5456,
      "Ci": 5457,
      "Co": 5458,
      "Cas": 5459,
      "Cra": 5460,
      "Coney": 5461,
      "Camp": 5462,
      "Cec": 5463,
      "Clear": 5464,
      "Called": 5465,
      "Du": 5466,
      "Detro": 5467,
      "El": 5468,
      "Each": 5469,
      "Either": 5470,
      "Ewing": 5471,
      "Eastern": 5472,
      "Five": 5473,
      "Fort": 5474,
      "Father": 5475,
      "Filled": 5476,
      "Gad": 5477,
      "GRE": 5478,
      "GAT": 5479,
      "Greek": 5480,
      "Hen": 5481,
      "Hor": 5482,
      "Imag": 5483,
      "Jew": 5484,
      "Jazz": 5485,
      "Kats": 5486,
      "Lu": 5487,
      "Lon": 5488,
      "Lem": 5489,
      "Love": 5490,
      "Lots": 5491,
      "Mum": 5492,
      "Minn": 5493,
      "Ow": 5494,
      "Out": 5495,
      "Old": 5496,
      "Open": 5497,
      "Port": 5498,
      "Penn": 5499,
      "Que": 5500,
      "Ret": 5501,
      "Rise": 5502,
      "Sh": 5503,
      "Sl": 5504,
      "Sure": 5505,
      "Shall": 5506,
      "Story": 5507,
      "Sorry": 5508,
      "Scott": 5509,
      "Snell": 5510,
      "SBY": 5511,
      "Tr": 5512,
      "Tu": 5513,
      "Tow": 5514,
      "Tay": 5515,
      "Tha": 5516,
      "Twenty": 5517,
      "Twelve": 5518,
      "Ver": 5519,
      "Vlad": 5520,
      "Wat": 5521,
      "Wha": 5522,
      "ais": 5523,
      "aid": 5524,
      "aqu": 5525,
      "ajar": 5526,
      "bac": 5527,
      "bod": 5528,
      "bach": 5529,
      "bened": 5530,
      "brave": 5531,
      "blocks": 5532,
      "bones": 5533,
      "brushed": 5534,
      "battle": 5535,
      "biscu": 5536,
      "bunch": 5537,
      "bishly": 5538,
      "cro": 5539,
      "cli": 5540,
      "cate": 5541,
      "cute": 5542,
      "crun": 5543,
      "ds": 5544,
      "dart": 5545,
      "dend": 5546,
      "dash": 5547,
      "ditch": 5548,
      "data": 5549,
      "daughter": 5550,
      "ere": 5551,
      "ees": 5552,
      "eld": 5553,
      "eleg": 5554,
      "econom": 5555,
      "fs": 5556,
      "fide": 5557,
      "fare": 5558,
      "farm": 5559,
      "fren": 5560,
      "frail": 5561,
      "gin": 5562,
      "gion": 5563,
      "gir": 5564,
      "gam": 5565,
      "gown": 5566,
      "gul": 5567,
      "glit": 5568,
      "gross": 5569,
      "gins": 5570,
      "gency": 5571,
      "gazed": 5572,
      "hon": 5573,
      "hats": 5574,
      "honey": 5575,
      "hones": 5576,
      "hunted": 5577,
      "io": 5578,
      "iers": 5579,
      "itory": 5580,
      "jan": 5581,
      "jing": 5582,
      "jut": 5583,
      "jest": 5584,
      "journal": 5585,
      "jazz": 5586,
      "lam": 5587,
      "lvan": 5588,
      "mp": 5589,
      "mut": 5590,
      "mace": 5591,
      "mare": 5592,
      "mers": 5593,
      "mutter": 5594,
      "mumbled": 5595,
      "nis": 5596,
      "nes": 5597,
      "nant": 5598,
      "nished": 5599,
      "nail": 5600,
      "national": 5601,
      "nicke": 5602,
      "oes": 5603,
      "olo": 5604,
      "othing": 5605,
      "oted": 5606,
      "pic": 5607,
      "pity": 5608,
      "pite": 5609,
      "pile": 5610,
      "pairs": 5611,
      "ration": 5612,
      "rho": 5613,
      "racy": 5614,
      "sper": 5615,
      "send": 5616,
      "sang": 5617,
      "sworn": 5618,
      "tide": 5619,
      "tough": 5620,
      "tched": 5621,
      "tically": 5622,
      "tune": 5623,
      "tumbled": 5624,
      "trot": 5625,
      "ugh": 5626,
      "uri": 5627,
      "uge": 5628,
      "uating": 5629,
      "uga": 5630,
      "uendo": 5631,
      "vion": 5632,
      "vable": 5633,
      "vably": 5634,
      "wist": 5635,
      "wine": 5636,
      "wich": 5637,
      "wake": 5638,
      "wering": 5639,
      "wides": 5640,
      "wrig": 5641,
      "wisp": 5642,
      "xop": 5643,
      "és": 5644,
      "’?": 5645,
      "hell": 5646,
      "hend": 5647,
      "height": 5648,
      "heel": 5649,
      "hemis": 5650,
      "heav": 5651,
      "ina": 5652,
      "inal": 5653,
      "inated": 5654,
      "inquest": 5655,
      "incomplete": 5656,
      "inized": 5657,
      "infinite": 5658,
      "inexhaust": 5659,
      "inexplicable": 5660,
      "infantry": 5661,
      "theat": 5662,
      "theor": 5663,
      "ange": 5664,
      "anchor": 5665,
      "required": 5666,
      "repor": 5667,
      "reappeared": 5668,
      "repair": 5669,
      "reassured": 5670,
      "revel": 5671,
      "record": 5672,
      "relev": 5673,
      "atic": 5674,
      "atmo": 5675,
      "attain": 5676,
      "atform": 5677,
      "attained": 5678,
      "onic": 5679,
      "edition": 5680,
      "eddying": 5681,
      "erred": 5682,
      "erment": 5683,
      "erably": 5684,
      "error": 5685,
      "thrust": 5686,
      "andal": 5687,
      "tot": 5688,
      "toil": 5689,
      "toler": 5690,
      "tossed": 5691,
      "towels": 5692,
      "tobac": 5693,
      "enes": 5694,
      "enched": 5695,
      "aste": 5696,
      "ashen": 5697,
      "asms": 5698,
      "ascertain": 5699,
      "orgi": 5700,
      "orange": 5701,
      "issued": 5702,
      "issue": 5703,
      "offe": 5704,
      "ofess": 5705,
      "arise": 5706,
      "argue": 5707,
      "arrog": 5708,
      "itut": 5709,
      "itatively": 5710,
      "mee": 5711,
      "mest": 5712,
      "melan": 5713,
      "member": 5714,
      "ald": 5715,
      "alto": 5716,
      "alous": 5717,
      "altern": 5718,
      "alumin": 5719,
      "stur": 5720,
      "stain": 5721,
      "stunt": 5722,
      "stale": 5723,
      "leis": 5724,
      "leaking": 5725,
      "leading": 5726,
      "leaked": 5727,
      "rored": 5728,
      "roared": 5729,
      "rosy": 5730,
      "rolling": 5731,
      "seats": 5732,
      "selling": 5733,
      "adour": 5734,
      "admit": 5735,
      "admission": 5736,
      "adays": 5737,
      "esmen": 5738,
      "esota": 5739,
      "owe": 5740,
      "ics": 5741,
      "icit": 5742,
      "icide": 5743,
      "icate": 5744,
      "icions": 5745,
      "icited": 5746,
      "iction": 5747,
      "icabs": 5748,
      "beha": 5749,
      "beamed": 5750,
      "iday": 5751,
      "acting": 5752,
      "accor": 5753,
      "accompan": 5754,
      "veget": 5755,
      "veiled": 5756,
      "vember": 5757,
      "entous": 5758,
      "ential": 5759,
      "wiping": 5760,
      "withered": 5761,
      "versed": 5762,
      "ionally": 5763,
      "web": 5764,
      "weight": 5765,
      "weap": 5766,
      "wearing": 5767,
      "ldoon": 5768,
      "omen": 5769,
      "omas": 5770,
      "lier": 5771,
      "liable": 5772,
      "liment": 5773,
      "lives": 5774,
      "fork": 5775,
      "unk": 5776,
      "unable": 5777,
      "unting": 5778,
      "unwill": 5779,
      "unhapp": 5780,
      "unrolled": 5781,
      "uncomfort": 5782,
      "unhappy": 5783,
      "unusually": 5784,
      "ria": 5785,
      "rip": 5786,
      "rigu": 5787,
      "riages": 5788,
      "whirl": 5789,
      "loaf": 5790,
      "imony": 5791,
      "impersonal": 5792,
      "sop": 5793,
      "sore": 5794,
      "sogg": 5795,
      "soothing": 5796,
      "histic": 5797,
      "chall": 5798,
      "chick": 5799,
      "chap": 5800,
      "chiff": 5801,
      "choked": 5802,
      "irt": 5803,
      "irrelev": 5804,
      "nosed": 5805,
      "notori": 5806,
      "redol": 5807,
      "upward": 5808,
      "saxop": 5809,
      "net": 5810,
      "neath": 5811,
      "nephe": 5812,
      "moan": 5813,
      "modest": 5814,
      "moths": 5815,
      "femin": 5816,
      "coinc": 5817,
      "cooked": 5818,
      "theran": 5819,
      "shel": 5820,
      "shelf": 5821,
      "ssip": 5822,
      "pest": 5823,
      "perem": 5824,
      "pebbles": 5825,
      "shy": 5826,
      "shown": 5827,
      "gossip": 5828,
      "suite": 5829,
      "suicide": 5830,
      "cake": 5831,
      "causing": 5832,
      "cakes": 5833,
      "rav": 5834,
      "raising": 5835,
      "ember": 5836,
      "dodend": 5837,
      "conting": 5838,
      "concei": 5839,
      "conserv": 5840,
      "condesc": 5841,
      "tibly": 5842,
      "tect": 5843,
      "ounded": 5844,
      "amour": 5845,
      "ampt": 5846,
      "amuse": 5847,
      "ambit": 5848,
      "deck": 5849,
      "depart": 5850,
      "deft": 5851,
      "develo": 5852,
      "deferred": 5853,
      "detect": 5854,
      "ourselves": 5855,
      "worry": 5856,
      "excess": 5857,
      "exchanged": 5858,
      "exclam": 5859,
      "excell": 5860,
      "experiment": 5861,
      "wheat": 5862,
      "indis": 5863,
      "owned": 5864,
      "foc": 5865,
      "foss": 5866,
      "performed": 5867,
      "perspiration": 5868,
      "ulate": 5869,
      "bert": 5870,
      "plate": 5871,
      "platform": 5872,
      "asting": 5873,
      "overlooked": 5874,
      "overflow": 5875,
      "overseas": 5876,
      "laid": 5877,
      "lather": 5878,
      "acks": 5879,
      "notion": 5880,
      "isting": 5881,
      "artic": 5882,
      "artistic": 5883,
      "Tomorrow": 5884,
      "pread": 5885,
      "presum": 5886,
      "preserve": 5887,
      "cked": 5888,
      "ckers": 5889,
      "ders": 5890,
      "deranged": 5891,
      "opy": 5892,
      "holic": 5893,
      "hotel": 5894,
      "spat": 5895,
      "sped": 5896,
      "spid": 5897,
      "sphere": 5898,
      "spraw": 5899,
      "spaces": 5900,
      "spilled": 5901,
      "etc": 5902,
      "vens": 5903,
      "venir": 5904,
      "umps": 5905,
      "comin": 5906,
      "comment": 5907,
      "commen": 5908,
      "commer": 5909,
      "commotion": 5910,
      "commission": 5911,
      "inky": 5912,
      "handle": 5913,
      "handsome": 5914,
      "hedge": 5915,
      "stove": 5916,
      "workmen": 5917,
      "workshop": 5918,
      "blunder": 5919,
      "blond": 5920,
      "utenant": 5921,
      "forehead": 5922,
      "backs": 5923,
      "greed": 5924,
      "ptuous": 5925,
      "ptember": 5926,
      "Provincial": 5927,
      "carved": 5928,
      "carriages": 5929,
      "bob": 5930,
      "boom": 5931,
      "boats": 5932,
      "proved": 5933,
      "proport": 5934,
      "promotion": 5935,
      "provincial": 5936,
      "proxim": 5937,
      "prolonged": 5938,
      "prosper": 5939,
      "themat": 5940,
      "elicited": 5941,
      "disk": 5942,
      "disp": 5943,
      "dissol": 5944,
      "discontin": 5945,
      "disquiet": 5946,
      "disgust": 5947,
      "disordered": 5948,
      "distorted": 5949,
      "lessness": 5950,
      "rule": 5951,
      "underwear": 5952,
      "underneath": 5953,
      "seeking": 5954,
      "eyesore": 5955,
      "nightmare": 5956,
      "ryst": 5957,
      "wherever": 5958,
      "begged": 5959,
      "begins": 5960,
      "minent": 5961,
      "class": 5962,
      "clenched": 5963,
      "sidewalks": 5964,
      "glaring": 5965,
      "offended": 5966,
      "cilious": 5967,
      "vot": 5968,
      "seems": 5969,
      "tyre": 5970,
      "tenor": 5971,
      "tension": 5972,
      "tennis": 5973,
      "brisk": 5974,
      "flag": 5975,
      "flinging": 5976,
      "headlong": 5977,
      "headlights": 5978,
      "fulness": 5979,
      "contour": 5980,
      "Into": 5981,
      "cheap": 5982,
      "restlessly": 5983,
      "vial": 5984,
      "viour": 5985,
      "prac": 5986,
      "proud": 5987,
      "musty": 5988,
      "ulls": 5989,
      "wave": 5990,
      "wail": 5991,
      "wavered": 5992,
      "uding": 5993,
      "whitewashed": 5994,
      "corne": 5995,
      "cordial": 5996,
      "obtr": 5997,
      "sities": 5998,
      "rented": 5999,
      "moral": 6000,
      "morbid": 6001,
      "intending": 6002,
      "intrigu": 6003,
      "darker": 6004,
      "windy": 6005,
      "stands": 6006,
      "standard": 6007,
      "driven": 6008,
      "drizz": 6009,
      "design": 6010,
      "descent": 6011,
      "answering": 6012,
      "distaste": 6013,
      "torn": 6014,
      "starts": 6015,
      "former": 6016,
      "formal": 6017,
      "formats": 6018,
      "formality": 6019,
      "lets": 6020,
      "wellery": 6021,
      "sung": 6022,
      "sunken": 6023,
      "sentences": 6024,
      "settee": 6025,
      "supp": 6026,
      "scandal": 6027,
      "scenes": 6028,
      "happiness": 6029,
      "quieter": 6030,
      "rossed": 6031,
      "greater": 6032,
      "greatly": 6033,
      "Star": 6034,
      "Study": 6035,
      "izes": 6036,
      "izable": 6037,
      "Doc": 6038,
      "cuff": 6039,
      "History": 6040,
      "alongside": 6041,
      "lieutenant": 6042,
      "dious": 6043,
      "afternoons": 6044,
      "silly": 6045,
      "curved": 6046,
      "marve": 6047,
      "marred": 6048,
      "marshes": 6049,
      "marrying": 6050,
      "passage": 6051,
      "shame": 6052,
      "shared": 6053,
      "shaved": 6054,
      "shaped": 6055,
      "buck": 6056,
      "pathetic": 6057,
      "paugh": 6058,
      "tauk": 6059,
      "tapest": 6060,
      "final": 6061,
      "finable": 6062,
      "Nothing": 6063,
      "November": 6064,
      "clever": 6065,
      "realised": 6066,
      "realizing": 6067,
      "hushed": 6068,
      "mono": 6069,
      "monstr": 6070,
      "interpret": 6071,
      "courtes": 6072,
      "garnished": 6073,
      "excused": 6074,
      "impenetr": 6075,
      "authen": 6076,
      "groped": 6077,
      "groping": 6078,
      "roadhouse": 6079,
      "roadster": 6080,
      "limit": 6081,
      "ignor": 6082,
      "Somehow": 6083,
      "invitation": 6084,
      "invari": 6085,
      "confid": 6086,
      "count": 6087,
      "compliment": 6088,
      "faintest": 6089,
      "ield": 6090,
      "instantly": 6091,
      "subway": 6092,
      "submerged": 6093,
      "flowered": 6094,
      "decency": 6095,
      "Afterward": 6096,
      "brightly": 6097,
      "identical": 6098,
      "identified": 6099,
      "Chryst": 6100,
      "missing": 6101,
      "sylvan": 6102,
      "hearse": 6103,
      "ashing": 6104,
      "whispers": 6105,
      "fella": 6106,
      "fellas": 6107,
      "personality": 6108,
      "floating": 6109,
      "eezed": 6110,
      "choly": 6111,
      "remarkable": 6112,
      "Throwing": 6113,
      "Thomas": 6114,
      "refuse": 6115,
      "refused": 6116,
      "refuge": 6117,
      "Morlock": 6118,
      "president": 6119,
      "kinds": 6120,
      "raining": 6121,
      "ician": 6122,
      "icient": 6123,
      "extent": 6124,
      "barrier": 6125,
      "cric": 6126,
      "crisp": 6127,
      "shade": 6128,
      "weekends": 6129,
      "understandingly": 6130,
      "wholesome": 6131,
      "matters": 6132,
      "portentous": 6133,
      "valued": 6134,
      "shortcut": 6135,
      "Argonne": 6136,
      "coldly": 6137,
      "remembering": 6138,
      "arrive": 6139,
      "arrivals": 6140,
      "surer": 6141,
      "pretended": 6142,
      "duck": 6143,
      "highballs": 6144,
      "tradition": 6145,
      "falls": 6146,
      "swing": 6147,
      "swit": 6148,
      "taxicabs": 6149,
      "curiously": 6150,
      "century": 6151,
      "gerald": 6152,
      "engrossed": 6153,
      "pleasure": 6154,
      "pleasantly": 6155,
      "duster": 6156,
      "warn": 6157,
      "struct": 6158,
      "version": 6159,
      "Looking": 6160,
      "complex": 6161,
      "hurt": 6162,
      "hurrying": 6163,
      "accused": 6164,
      "luck": 6165,
      "closest": 6166,
      "sofa": 6167,
      "softly": 6168,
      "stern": 6169,
      "staying": 6170,
      "bursts": 6171,
      "burden": 6172,
      "Didn": 6173,
      "generally": 6174,
      "purple": 6175,
      "swee": 6176,
      "sweep": 6177,
      "coolly": 6178,
      "latest": 6179,
      "trip": 6180,
      "abortive": 6181,
      "McKees": 6182,
      "damaged": 6183,
      "gaud": 6184,
      "points": 6185,
      "local": 6186,
      "Monte": 6187,
      "Montauk": 6188,
      "signed": 6189,
      "Georgi": 6190,
      "warmth": 6191,
      "reasons": 6192,
      "ancestors": 6193,
      "hopeless": 6194,
      "murmurous": 6195,
      "eleven": 6196,
      "eagerness": 6197,
      "cutting": 6198,
      "director": 6199,
      "hyper": 6200,
      "wett": 6201,
      "listened": 6202,
      "simultaneously": 6203,
      "capit": 6204,
      "troubled": 6205,
      "Goodbye": 6206,
      "innuendo": 6207,
      "viewed": 6208,
      "master": 6209,
      "blinds": 6210,
      "blindness": 6211,
      "cups": 6212,
      "eighty": 6213,
      "kissing": 6214,
      "patron": 6215,
      "pattern": 6216,
      "pattering": 6217,
      "paternal": 6218,
      "richer": 6219,
      "twisting": 6220,
      "vines": 6221,
      "memories": 6222,
      "searching": 6223,
      "wheeled": 6224,
      "phrases": 6225,
      "spectacles": 6226,
      "flav": 6227,
      "flakes": 6228,
      "flames": 6229,
      "fairly": 6230,
      "gasping": 6231,
      "gasoline": 6232,
      "gravely": 6233,
      "miserably": 6234,
      "magic": 6235,
      "painful": 6236,
      "souvenir": 6237,
      "truly": 6238,
      "clothed": 6239,
      "speculation": 6240,
      "beginnings": 6241,
      "catching": 6242,
      "crying": 6243,
      "mirrored": 6244,
      "sensit": 6245,
      "villages": 6246,
      "interrupt": 6247,
      "Already": 6248,
      "ballroom": 6249,
      "planes": 6250,
      "banjo": 6251,
      "banners": 6252,
      "baths": 6253,
      "bathrooms": 6254,
      "frightening": 6255,
      "spree": 6256,
      "shallow": 6257,
      "checks": 6258,
      "Americans": 6259,
      "peculiarly": 6260,
      "midsummer": 6261,
      "skull": 6262,
      "sadness": 6263,
      "squeezed": 6264,
      "advice": 6265,
      "advised": 6266,
      "motorcycle": 6267,
      "transitory": 6268,
      "hostile": 6269,
      "cardboard": 6270,
      "ticket": 6271,
      "tentatively": 6272,
      "thorn": 6273,
      "thorough": 6274,
      "starlight": 6275,
      "consciously": 6276,
      "defiant": 6277,
      "defiantly": 6278,
      "boarder": 6279,
      "correction": 6280,
      "circles": 6281,
      "triumphantly": 6282,
      "bowls": 6283,
      "madman": 6284,
      "madame": 6285,
      "covering": 6286,
      "groups": 6287,
      "practice": 6288,
      "practically": 6289,
      "satisfac": 6290,
      "expectantly": 6291,
      "recognized": 6292,
      "recognizable": 6293,
      "massed": 6294,
      "penni": 6295,
      "tanned": 6296,
      "connected": 6297,
      "pointlessly": 6298,
      "oblig": 6299,
      "obliged": 6300,
      "oblivion": 6301,
      "swore": 6302,
      "accounting": 6303,
      "indicated": 6304,
      "groaned": 6305,
      "difficult": 6306,
      "shocked": 6307,
      "remotely": 6308,
      "Mayor": 6309,
      "crossly": 6310,
      "education": 6311,
      "educational": 6312,
      "securities": 6313,
      "entertain": 6314,
      "shifting": 6315,
      "shiftless": 6316,
      "quarte": 6317,
      "newsstand": 6318,
      "describe": 6319,
      "explanations": 6320,
      "attempting": 6321,
      "absorbing": 6322,
      "Fifty": 6323,
      "Francis": 6324,
      "Nordic": 6325,
      "bruary": 6326,
      "cousins": 6327,
      "denied": 6328,
      "slipping": 6329,
      "torily": 6330,
      "arrangement": 6331,
      "strike": 6332,
      "unpleasantness": 6333,
      "rarely": 6334,
      "afterwards": 6335,
      "contemptuously": 6336,
      "supercilious": 6337,
      "invented": 6338,
      "inventions": 6339,
      "exploded": 6340,
      "automobile": 6341,
      "fashionable": 6342,
      "fashionably": 6343,
      "climbing": 6344,
      "narrowed": 6345,
      "scornful": 6346,
      "represented": 6347,
      "representations": 6348,
      "rotten": 6349,
      "rigidly": 6350,
      "suspicions": 6351,
      "perceive": 6352,
      "blows": 6353,
      "contented": 6354,
      "despairingly": 6355,
      "possessions": 6356,
      "Peter": 6357,
      "Point": 6358,
      "domin": 6359,
      "hilarity": 6360,
      "jewels": 6361,
      "jealous": 6362,
      "jewellery": 6363,
      "traversed": 6364,
      "verandas": 6365,
      "unexpectedly": 6366,
      "chorus": 6367,
      "chords": 6368,
      "cellar": 6369,
      "nearest": 6370,
      "collar": 6371,
      "tragically": 6372,
      "inevitably": 6373,
      "grasp": 6374,
      "obscurely": 6375,
      "balanced": 6376,
      "savagely": 6377,
      "chiefly": 6378,
      "August": 6379,
      "furi": 6380,
      "fragile": 6381,
      "risk": 6382,
      "alertly": 6383,
      "testimony": 6384,
      "bothering": 6385,
      "events": 6386,
      "eventually": 6387,
      "loneliness": 6388,
      "operations": 6389,
      "annoy": 6390,
      "rers": 6391,
      "reference": 6392,
      "weakness": 6393,
      "contralto": 6394,
      "concentration": 6395,
      "concentrated": 6396,
      "holiday": 6397,
      "hollowly": 6398,
      "procession": 6399,
      "ruinous": 6400,
      "restrained": 6401,
      "couples": 6402,
      "accusations": 6403,
      "accusingly": 6404,
      "shirtwaist": 6405,
      "automatic": 6406,
      "gloomily": 6407,
      "Beluga": 6408,
      "Legion": 6409,
      "Parke": 6410,
      "crawling": 6411,
      "lurking": 6412,
      "smeared": 6413,
      "wrapping": 6414,
      "heavens": 6415,
      "clicked": 6416,
      "temperament": 6417,
      "knocked": 6418,
      "acquaintances": 6419,
      "Southampt": 6420,
      "Black": 6421,
      "Ferdie": 6422,
      "Ferret": 6423,
      "Human": 6424,
      "Necess": 6425,
      "Self": 6426,
      "September": 6427,
      "Wonder": 6428,
      "blazing": 6429,
      "cisely": 6430,
      "pyjam": 6431,
      "pouring": 6432,
      "pigsty": 6433,
      "snobbishly": 6434,
      "vulgar": 6435,
      "melody": 6436,
      "melodious": 6437,
      "leader": 6438,
      "impressive": 6439,
      "abstracted": 6440,
      "celebrated": 6441,
      "sailles": 6442,
      "haughty": 6443,
      "haughtily": 6444,
      "flashing": 6445,
      "fluttering": 6446,
      "divorce": 6447,
      "substance": 6448,
      "swamps": 6449,
      "struggled": 6450,
      "struggling": 6451,
      "vestige": 6452,
      "vestibu": 6453,
      "photographers": 6454,
      "tiptoed": 6455,
      "tiptoes": 6456,
      "milliona": 6457,
      "suspicious": 6458,
      "suspiciously": 6459,
      "jaunty": 6460,
      "jauntily": 6461,
      "collapse": 6462,
      "collapsed": 6463,
      "tumultuous": 6464,
      "Catholic": 6465,
      "Forest": 6466,
      "Profess": 6467,
      "Special": 6468,
      "audible": 6469,
      "bona": 6470,
      "brilliant": 6471,
      "slapping": 6472,
      "studies": 6473,
      "roofs": 6474,
      "advanced": 6475,
      "improving": 6476,
      "ceaselessly": 6477,
      "modification": 6478,
      "government": 6479,
      "devotion": 6480,
      "delayed": 6481,
      "exercise": 6482,
      "indifferent": 6483,
      "foliage": 6484,
      "literally": 6485,
      "sparkling": 6486,
      "clutching": 6487,
      "clustered": 6488,
      "flannel": 6489,
      "contributed": 6490,
      "corrobor": 6491,
      "intentions": 6492,
      "desperately": 6493,
      "startlingly": 6494,
      "mindedness": 6495,
      "possibilities": 6496,
      "calculated": 6497,
      "fluctuating": 6498,
      "judgements": 6499,
      "commanded": 6500,
      "fascinated": 6501,
      "oppressive": 6502,
      "apology": 6503,
      "mantelpiece": 6504,
      "Claud": 6505,
      "Crossing": 6506,
      "Edgar": 6507,
      "Earl": 6508,
      "Flushing": 6509,
      "Holding": 6510,
      "Muldoon": 6511,
      "Madame": 6512,
      "Turning": 6513,
      "blaze": 6514,
      "bounce": 6515,
      "coward": 6516,
      "dilatory": 6517,
      "hangs": 6518,
      "linen": 6519,
      "pompadour": 6520,
      "wicker": 6521,
      "inadequ": 6522,
      "reassur": 6523,
      "orchids": 6524,
      "isolated": 6525,
      "message": 6526,
      "separated": 6527,
      "adjustment": 6528,
      "admiration": 6529,
      "bewilderment": 6530,
      "activ": 6531,
      "unsuccessfully": 6532,
      "riotous": 6533,
      "nostrils": 6534,
      "aggressively": 6535,
      "pervading": 6536,
      "blanket": 6537,
      "discreetly": 6538,
      "civilization": 6539,
      "tenderness": 6540,
      "speedily": 6541,
      "distinguished": 6542,
      "esterday": 6543,
      "established": 6544,
      "Western": 6545,
      "guilty": 6546,
      "crouching": 6547,
      "cynical": 6548,
      "frequent": 6549,
      "swallowed": 6550,
      "drums": 6551,
      "tremendous": 6552,
      "commuting": 6553,
      "ferocious": 6554,
      "sensuous": 6555,
      "turbulent": 6556,
      "conscientious": 6557,
      "satisfy": 6558,
      "privilege": 6559,
      "scrutinized": 6560,
      "Fitzgerald": 6561,
      "February": 6562,
      "Half": 6563,
      "frankly": 6564,
      "genially": 6565,
      "hovering": 6566,
      "normal": 6567,
      "inherited": 6568,
      "reply": 6569,
      "retreated": 6570,
      "stupid": 6571,
      "cemetery": 6572,
      "hawthorn": 6573,
      "geometry": 6574,
      "consoling": 6575,
      "extinguished": 6576,
      "proceeded": 6577,
      "florid": 6578,
      "schedule": 6579,
      "involuntarily": 6580,
      "substanti": 6581,
      "dragging": 6582,
      "universal": 6583,
      "plausible": 6584,
      "Apparently": 6585,
      "Astoria": 6586,
      "Angry": 6587,
      "Bridge": 6588,
      "Crazy": 6589,
      "Cecil": 6590,
      "Clearly": 6591,
      "Detroit": 6592,
      "Forty": 6593,
      "GREAT": 6594,
      "GATSBY": 6595,
      "Henry": 6596,
      "Katspaugh": 6597,
      "Lutheran": 6598,
      "London": 6599,
      "Minnesota": 6600,
      "Owl": 6601,
      "Pennsylvan": 6602,
      "Queens": 6603,
      "Return": 6604,
      "Tuolo": 6605,
      "Taylor": 6606,
      "Thames": 6607,
      "Versailles": 6608,
      "Vladmir": 6609,
      "benediction": 6610,
      "biscuits": 6611,
      "elegant": 6612,
      "frenzy": 6613,
      "girders": 6614,
      "honour": 6615,
      "janitor": 6616,
      "muttering": 6617,
      "nickel": 6618,
      "rhododend": 6619,
      "widespread": 6620,
      "wriggling": 6621,
      "heavy": 6622,
      "inexhaustible": 6623,
      "reporter": 6624,
      "atmosphere": 6625,
      "errors": 6626,
      "tobacco": 6627,
      "offered": 6628,
      "arrogant": 6629,
      "melancholy": 6630,
      "aluminium": 6631,
      "sturdy": 6632,
      "stunts": 6633,
      "according": 6634,
      "unwillingly": 6635,
      "unhappily": 6636,
      "uncomfortably": 6637,
      "loafing": 6638,
      "soggy": 6639,
      "histicated": 6640,
      "chicken": 6641,
      "chiffon": 6642,
      "redolent": 6643,
      "saxophones": 6644,
      "nephew": 6645,
      "coincidence": 6646,
      "peremp": 6647,
      "ambitious": 6648,
      "blundering": 6649,
      "proximity": 6650,
      "prosperous": 6651,
      "disquieting": 6652,
      "intriguing": 6653,
      "drizzle": 6654,
      "designs": 6655,
      "monstrous": 6656,
      "courtesy": 6657,
      "invariably": 6658,
      "penniless": 6659,
      "Southampton": 6660,
      "Professor": 6661,
      "Pennsylvania": 6662,
      "Tuolomee": 6663,
      "rhododendron": 6664,
      "!)": 6665,
      "!—": 6666,
      "($": 6667,
      ")(": 6668,
      "18": 6669,
      "20": 6670,
      "59": 6671,
      "60": 6672,
      "622": 6673,
      "87": 6674,
      "841": 6675,
      "AD": 6676,
      "AP": 6677,
      "Am": 6678,
      "Abo": 6679,
      "Add": 6680,
      "Abr": 6681,
      "ASE": 6682,
      "AVE": 6683,
      "ATION": 6684,
      "Bes": 6685,
      "BILITY": 6686,
      "Cre": 6687,
      "Cor": 6688,
      "Com": 6689,
      "CLA": 6690,
      "Copy": 6691,
      "Di": 6692,
      "Des": 6693,
      "Doub": 6694,
      "DED": 6695,
      "DON": 6696,
      "DENT": 6697,
      "DING": 6698,
      "DIRECT": 6699,
      "EG": 6700,
      "EV": 6701,
      "EIN": 6702,
      "Econom": 6703,
      "Email": 6704,
      "FO": 6705,
      "Fa": 6706,
      "Full": 6707,
      "FOU": 6708,
      "FIT": 6709,
      "GH": 6710,
      "GEN": 6711,
      "GIV": 6712,
      "Hart": 6713,
      "HAVE": 6714,
      "IF": 6715,
      "IR": 6716,
      "IES": 6717,
      "IBILITY": 6718,
      "IDENT": 6719,
      "IGH": 6720,
      "KIND": 6721,
      "LU": 6722,
      "Langu": 6723,
      "Mer": 6724,
      "Mar": 6725,
      "Mil": 6726,
      "Mex": 6727,
      "Many": 6728,
      "MER": 6729,
      "MED": 6730,
      "More": 6731,
      "MENT": 6732,
      "March": 6733,
      "NER": 6734,
      "Nearly": 6735,
      "NES": 6736,
      "NDA": 6737,
      "NEG": 6738,
      "OW": 6739,
      "OTH": 6740,
      "OSS": 6741,
      "PT": 6742,
      "Put": 6743,
      "Plat": 6744,
      "PRE": 6745,
      "PLI": 6746,
      "PAR": 6747,
      "PLA": 6748,
      "PLE": 6749,
      "POSE": 6750,
      "Plent": 6751,
      "POSS": 6752,
      "QU": 6753,
      "Rich": 6754,
      "Reven": 6755,
      "Ref": 6756,
      "Rather": 6757,
      "Rele": 6758,
      "RAP": 6759,
      "RIGH": 6760,
      "RPOSE": 6761,
      "SU": 6762,
      "Seven": 6763,
      "Such": 6764,
      "STRI": 6765,
      "SEND": 6766,
      "Tit": 6767,
      "Take": 6768,
      "TAB": 6769,
      "USE": 6770,
      "UAL": 6771,
      "UND": 6772,
      "WOR": 6773,
      "aper": 6774,
      "ause": 6775,
      "aily": 6776,
      "bone": 6777,
      "bous": 6778,
      "brow": 6779,
      "bran": 6780,
      "cla": 6781,
      "cru": 6782,
      "dain": 6783,
      "dare": 6784,
      "dried": 6785,
      "dies": 6786,
      "dwell": 6787,
      "dashed": 6788,
      "daily": 6789,
      "egot": 6790,
      "eves": 6791,
      "fab": 6792,
      "fist": 6793,
      "file": 6794,
      "fade": 6795,
      "fence": 6796,
      "fath": 6797,
      "fish": 6798,
      "fond": 6799,
      "files": 6800,
      "fists": 6801,
      "ffoc": 6802,
      "gif": 6803,
      "gran": 6804,
      "gence": 6805,
      "gates": 6806,
      "gib": 6807,
      "gutter": 6808,
      "hiding": 6809,
      "ike": 6810,
      "ipp": 6811,
      "iance": 6812,
      "ka": 6813,
      "kily": 6814,
      "kicking": 6815,
      "lab": 6816,
      "lack": 6817,
      "lines": 6818,
      "laby": 6819,
      "mous": 6820,
      "mingly": 6821,
      "nib": 6822,
      "noun": 6823,
      "nony": 6824,
      "nify": 6825,
      "nause": 6826,
      "oct": 6827,
      "ola": 6828,
      "pall": 6829,
      "pical": 6830,
      "piled": 6831,
      "rt": 6832,
      "rant": 6833,
      "rasp": 6834,
      "ritable": 6835,
      "rinth": 6836,
      "sher": 6837,
      "sco": 6838,
      "slit": 6839,
      "sig": 6840,
      "scor": 6841,
      "sively": 6842,
      "sending": 6843,
      "scape": 6844,
      "til": 6845,
      "tite": 6846,
      "tick": 6847,
      "tint": 6848,
      "tempt": 6849,
      "trail": 6850,
      "tram": 6851,
      "tattered": 6852,
      "ug": 6853,
      "uv": 6854,
      "uary": 6855,
      "uckle": 6856,
      "vain": 6857,
      "vist": 6858,
      "vap": 6859,
      "vance": 6860,
      "wane": 6861,
      "xes": 6862,
      "yield": 6863,
      "yesterday": 6864,
      "çade": 6865,
      "——": 6866,
      "”),": 6867,
      "™,": 6868,
      "™.": 6869,
      "™’": 6870,
      "health": 6871,
      "inac": 6872,
      "insu": 6873,
      "inspired": 6874,
      "inaccessible": 6875,
      "anse": 6876,
      "ancial": 6877,
      "rend": 6878,
      "reck": 6879,
      "resc": 6880,
      "replace": 6881,
      "remove": 6882,
      "resort": 6883,
      "recovered": 6884,
      "reserved": 6885,
      "retin": 6886,
      "reverse": 6887,
      "retreat": 6888,
      "retorted": 6889,
      "refined": 6890,
      "atus": 6891,
      "eddies": 6892,
      "thy": 6893,
      "thic": 6894,
      "thudd": 6895,
      "tore": 6896,
      "ensur": 6897,
      "enforce": 6898,
      "encounter": 6899,
      "asy": 6900,
      "asion": 6901,
      "aspe": 6902,
      "asking": 6903,
      "assum": 6904,
      "ingen": 6905,
      "ison": 6906,
      "isite": 6907,
      "aration": 6908,
      "arched": 6909,
      "aristo": 6910,
      "iter": 6911,
      "ittle": 6912,
      "itting": 6913,
      "itute": 6914,
      "itations": 6915,
      "itution": 6916,
      "alid": 6917,
      "altered": 6918,
      "alarming": 6919,
      "stac": 6920,
      "stun": 6921,
      "stage": 6922,
      "stones": 6923,
      "staff": 6924,
      "lel": 6925,
      "leap": 6926,
      "robes": 6927,
      "sel": 6928,
      "sexes": 6929,
      "esses": 6930,
      "escri": 6931,
      "escape": 6932,
      "bel": 6933,
      "beast": 6934,
      "begotten": 6935,
      "idious": 6936,
      "idols": 6937,
      "acre": 6938,
      "acce": 6939,
      "utiously": 6940,
      "entist": 6941,
      "entry": 6942,
      "verification": 6943,
      "weeping": 6944,
      "weird": 6945,
      "yous": 6946,
      "ldly": 6947,
      "omin": 6948,
      "omable": 6949,
      "liver": 6950,
      "liances": 6951,
      "forb": 6952,
      "forman": 6953,
      "forgive": 6954,
      "undered": 6955,
      "unlink": 6956,
      "uncertainly": 6957,
      "unprotected": 6958,
      "unnecessary": 6959,
      "unsolic": 6960,
      "unscre": 6961,
      "unfinished": 6962,
      "uncomfortable": 6963,
      "unfath": 6964,
      "unenforce": 6965,
      "rif": 6966,
      "rimmed": 6967,
      "whips": 6968,
      "loading": 6969,
      "imen": 6970,
      "imal": 6971,
      "imposed": 6972,
      "impet": 6973,
      "imminent": 6974,
      "histor": 6975,
      "chok": 6976,
      "chilled": 6977,
      "irreverent": 6978,
      "irritable": 6979,
      "outcome": 6980,
      "outlet": 6981,
      "outdated": 6982,
      "abide": 6983,
      "absent": 6984,
      "abomin": 6985,
      "alling": 6986,
      "notif": 6987,
      "noises": 6988,
      "agent": 6989,
      "agric": 6990,
      "urus": 6991,
      "urable": 6992,
      "terrace": 6993,
      "reddish": 6994,
      "uptly": 6995,
      "updated": 6996,
      "safer": 6997,
      "saurus": 6998,
      "haze": 6999,
      "neg": 7000,
      "nels": 7001,
      "moss": 7002,
      "feared": 7003,
      "fears": 7004,
      "female": 7005,
      "codes": 7006,
      "illy": 7007,
      "shell": 7008,
      "oks": 7009,
      "oken": 7010,
      "ssing": 7011,
      "petal": 7012,
      "shold": 7013,
      "shuffl": 7014,
      "goals": 7015,
      "suing": 7016,
      "suffe": 7017,
      "sullen": 7018,
      "sustained": 7019,
      "suffoc": 7020,
      "caf": 7021,
      "cautiously": 7022,
      "rait": 7023,
      "emic": 7024,
      "empl": 7025,
      "email": 7026,
      "emnify": 7027,
      "anting": 7028,
      "antically": 7029,
      "dotted": 7030,
      "concre": 7031,
      "convert": 7032,
      "convic": 7033,
      "consented": 7034,
      "tied": 7035,
      "tier": 7036,
      "tile": 7037,
      "amb": 7038,
      "poign": 7039,
      "dev": 7040,
      "delet": 7041,
      "oury": 7042,
      "exqu": 7043,
      "export": 7044,
      "exult": 7045,
      "expost": 7046,
      "exhilar": 7047,
      "usively": 7048,
      "somewhat": 7049,
      "indescri": 7050,
      "indemnify": 7051,
      "perpet": 7052,
      "performan": 7053,
      "ulous": 7054,
      "ulations": 7055,
      "intoler": 7056,
      "tles": 7057,
      "therewith": 7058,
      "trical": 7059,
      "traces": 7060,
      "traced": 7061,
      "qual": 7062,
      "quil": 7063,
      "pling": 7064,
      "plor": 7065,
      "plates": 7066,
      "placed": 7067,
      "placement": 7068,
      "pluck": 7069,
      "astro": 7070,
      "literary": 7071,
      "istently": 7072,
      "mankind": 7073,
      "manager": 7074,
      "atest": 7075,
      "preted": 7076,
      "preci": 7077,
      "preyed": 7078,
      "prejud": 7079,
      "preoccupation": 7080,
      "derive": 7081,
      "area": 7082,
      "hopping": 7083,
      "hooks": 7084,
      "spun": 7085,
      "downward": 7086,
      "downloading": 7087,
      "olas": 7088,
      "akers": 7089,
      "umbling": 7090,
      "comb": 7091,
      "endlessly": 7092,
      "stories": 7093,
      "iges": 7094,
      "blinking": 7095,
      "background": 7096,
      "greatest": 7097,
      "eyel": 7098,
      "carn": 7099,
      "carriage": 7100,
      "boldly": 7101,
      "provisions": 7102,
      "prodig": 7103,
      "provision": 7104,
      "prohibition": 7105,
      "elusive": 7106,
      "earn": 7107,
      "disconcer": 7108,
      "disease": 7109,
      "dismal": 7110,
      "bleached": 7111,
      "bleeding": 7112,
      "lowered": 7113,
      "selfish": 7114,
      "donation": 7115,
      "donors": 7116,
      "assistance": 7117,
      "danced": 7118,
      "dangers": 7119,
      "mineral": 7120,
      "clas": 7121,
      "clue": 7122,
      "clung": 7123,
      "theirs": 7124,
      "glor": 7125,
      "gliding": 7126,
      "offers": 7127,
      "roughly": 7128,
      "grind": 7129,
      "smould": 7130,
      "smiles": 7131,
      "type": 7132,
      "types": 7133,
      "creation": 7134,
      "creak": 7135,
      "brated": 7136,
      "brutes": 7137,
      "brittle": 7138,
      "fled": 7139,
      "flaring": 7140,
      "flaming": 7141,
      "facet": 7142,
      "parting": 7143,
      "partake": 7144,
      "issipp": 7145,
      "controlled": 7146,
      "contempl": 7147,
      "Intern": 7148,
      "Internal": 7149,
      "psy": 7150,
      "nevertheless": 7151,
      "restrain": 7152,
      "price": 7153,
      "udes": 7154,
      "coral": 7155,
      "corpor": 7156,
      "obser": 7157,
      "obsole": 7158,
      "observed": 7159,
      "rence": 7160,
      "renamed": 7161,
      "taining": 7162,
      "darkling": 7163,
      "halted": 7164,
      "desires": 7165,
      "readth": 7166,
      "readjust": 7167,
      "distant": 7168,
      "distress": 7169,
      "nerves": 7170,
      "stillness": 7171,
      "breed": 7172,
      "effected": 7173,
      "surrounded": 7174,
      "sets": 7175,
      "scra": 7176,
      "scram": 7177,
      "happening": 7178,
      "quivering": 7179,
      "chanced": 7180,
      "changes": 7181,
      "Stone": 7182,
      "Start": 7183,
      "State": 7184,
      "cuit": 7185,
      "cube": 7186,
      "apping": 7187,
      "apple": 7188,
      "apply": 7189,
      "appliances": 7190,
      "appalling": 7191,
      "serious": 7192,
      "seriously": 7193,
      "follows": 7194,
      "silently": 7195,
      "curve": 7196,
      "curate": 7197,
      "bug": 7198,
      "smaller": 7199,
      "financial": 7200,
      "ensive": 7201,
      "collecting": 7202,
      "monster": 7203,
      "monkey": 7204,
      "appetite": 7205,
      "dropping": 7206,
      "slam": 7207,
      "intervals": 7208,
      "intermarriage": 7209,
      "interpreted": 7210,
      "courses": 7211,
      "shiver": 7212,
      "garments": 7213,
      "excuse": 7214,
      "strides": 7215,
      "insens": 7216,
      "insidious": 7217,
      "licensed": 7218,
      "Mission": 7219,
      "Mississipp": 7220,
      "limits": 7221,
      "limbs": 7222,
      "invalid": 7223,
      "countries": 7224,
      "include": 7225,
      "additions": 7226,
      "compilation": 7227,
      "friendship": 7228,
      "fourth": 7229,
      "dined": 7230,
      "dimness": 7231,
      "fainter": 7232,
      "guesses": 7233,
      "subtly": 7234,
      "subscri": 7235,
      "demon": 7236,
      "flowed": 7237,
      "identify": 7238,
      "identification": 7239,
      "synony": 7240,
      "flood": 7241,
      "bigger": 7242,
      "summit": 7243,
      "conduc": 7244,
      "Though": 7245,
      "Unless": 7246,
      "Until": 7247,
      "reflected": 7248,
      "circuit": 7249,
      "joint": 7250,
      "joyous": 7251,
      "moonlit": 7252,
      "includes": 7253,
      "crust": 7254,
      "cracy": 7255,
      "shaded": 7256,
      "attend": 7257,
      "awake": 7258,
      "awfully": 7259,
      "sorts": 7260,
      "stream": 7261,
      "streak": 7262,
      "ventilation": 7263,
      "aneous": 7264,
      "THOSE": 7265,
      "THING": 7266,
      "ibility": 7267,
      "portrait": 7268,
      "value": 7269,
      "ringing": 7270,
      "ringement": 7271,
      "crowbar": 7272,
      "ffic": 7273,
      "freshe": 7274,
      "fresher": 7275,
      "childish": 7276,
      "highly": 7277,
      "teleg": 7278,
      "swamp": 7279,
      "switch": 7280,
      "vanish": 7281,
      "vanishing": 7282,
      "crimin": 7283,
      "futurity": 7284,
      "engag": 7285,
      "fireplace": 7286,
      "warning": 7287,
      "warrant": 7288,
      "ENTI": 7289,
      "REFU": 7290,
      "REMED": 7291,
      "REPLA": 7292,
      "husk": 7293,
      "violates": 7294,
      "shadowy": 7295,
      "largely": 7296,
      "Mankind": 7297,
      "eastern": 7298,
      "itional": 7299,
      "sterical": 7300,
      "accessed": 7301,
      "shower": 7302,
      "idding": 7303,
      "expend": 7304,
      "expanse": 7305,
      "façade": 7306,
      "smoked": 7307,
      "smoky": 7308,
      "pursuing": 7309,
      "sweeping": 7310,
      "receiving": 7311,
      "cooling": 7312,
      "presented": 7313,
      "LIGEN": 7314,
      "deeply": 7315,
      "damage": 7316,
      "gaudy": 7317,
      "assume": 7318,
      "ladder": 7319,
      "accepting": 7320,
      "locations": 7321,
      "Monday": 7322,
      "doubted": 7323,
      "thickness": 7324,
      "politan": 7325,
      "indefinable": 7326,
      "reasoning": 7327,
      "servant": 7328,
      "bloody": 7329,
      "trembled": 7330,
      "murmuring": 7331,
      "AND": 7332,
      "ANTAB": 7333,
      "ifications": 7334,
      "profits": 7335,
      "hysterical": 7336,
      "slightest": 7337,
      "maxim": 7338,
      "mathemat": 7339,
      "heaped": 7340,
      "regulating": 7341,
      "vestiges": 7342,
      "hurriedly": 7343,
      "fastly": 7344,
      "mingled": 7345,
      "twigs": 7346,
      "viewing": 7347,
      "steadfastly": 7348,
      "freshly": 7349,
      "enormously": 7350,
      "blinding": 7351,
      "Sections": 7352,
      "cupola": 7353,
      "patient": 7354,
      "twice": 7355,
      "twisted": 7356,
      "increase": 7357,
      "destined": 7358,
      "lazily": 7359,
      "eyeballs": 7360,
      "ARK": 7361,
      "magn": 7362,
      "necessarily": 7363,
      "specimen": 7364,
      "determination": 7365,
      "TICE": 7366,
      "TIVE": 7367,
      "catastro": 7368,
      "crystal": 7369,
      "fervent": 7370,
      "hungry": 7371,
      "linked": 7372,
      "villain": 7373,
      "Also": 7374,
      "landscape": 7375,
      "beaten": 7376,
      "polished": 7377,
      "AGRAP": 7378,
      "SEQU": 7379,
      "gusts": 7380,
      "animated": 7381,
      "charities": 7382,
      "charges": 7383,
      "charitable": 7384,
      "Replacement": 7385,
      "skirt": 7386,
      "threshold": 7387,
      "stirred": 7388,
      "stationary": 7389,
      "rocks": 7390,
      "advance": 7391,
      "becomes": 7392,
      "succul": 7393,
      "examination": 7394,
      "produce": 7395,
      "production": 7396,
      "wretched": 7397,
      "wander": 7398,
      "wandering": 7399,
      "unteers": 7400,
      "deficiency": 7401,
      "reluctantly": 7402,
      "1500": 7403,
      "1541": 7404,
      "Contribut": 7405,
      "Contact": 7406,
      "Everyone": 7407,
      "Everything": 7408,
      "Updated": 7409,
      "barely": 7410,
      "pitch": 7411,
      "pinkish": 7412,
      "returns": 7413,
      "tively": 7414,
      "restlessness": 7415,
      "paperwork": 7416,
      "recognition": 7417,
      "facility": 7418,
      "facilities": 7419,
      "grie": 7420,
      "gripped": 7421,
      "massive": 7422,
      "ramifications": 7423,
      "connect": 7424,
      "bottom": 7425,
      "intimation": 7426,
      "impatient": 7427,
      "harshly": 7428,
      "rustle": 7429,
      "rustling": 7430,
      "shouting": 7431,
      "camp": 7432,
      "exists": 7433,
      "instinctive": 7434,
      "volunteer": 7435,
      "NOTICE": 7436,
      "TRACT": 7437,
      "TRAD": 7438,
      "frozen": 7439,
      "knelt": 7440,
      "sleeves": 7441,
      "tricks": 7442,
      "newsletter": 7443,
      "succession": 7444,
      "PROVI": 7445,
      "CHANTAB": 7446,
      "brush": 7447,
      "brushes": 7448,
      "sloping": 7449,
      "slopes": 7450,
      "arrangements": 7451,
      "alteration": 7452,
      "consider": 7453,
      "tranquil": 7454,
      "trusting": 7455,
      "gracefully": 7456,
      "explosion": 7457,
      "climb": 7458,
      "climbed": 7459,
      "deduct": 7460,
      "maintaining": 7461,
      "vigour": 7462,
      "conveyed": 7463,
      "blowing": 7464,
      "restaurants": 7465,
      "learnt": 7466,
      "CEMENT": 7467,
      "CEPT": 7468,
      "Service": 7469,
      "candle": 7470,
      "equipped": 7471,
      "swayed": 7472,
      "traffic": 7473,
      "mechanical": 7474,
      "suffer": 7475,
      "astonished": 7476,
      "astonishing": 7477,
      "problems": 7478,
      "earnestness": 7479,
      "disclaimers": 7480,
      "grasping": 7481,
      "containing": 7482,
      "obscure": 7483,
      "solicitation": 7484,
      "ANYTHING": 7485,
      "opportunities": 7486,
      "royalty": 7487,
      "originator": 7488,
      "Author": 7489,
      "frantic": 7490,
      "frantically": 7491,
      "fuss": 7492,
      "screaming": 7493,
      "related": 7494,
      "respond": 7495,
      "shafts": 7496,
      "statements": 7497,
      "twinkled": 7498,
      "twinkling": 7499,
      "employed": 7500,
      "Compliance": 7501,
      "flirt": 7502,
      "furnish": 7503,
      "stagnant": 7504,
      "shops": 7505,
      "contrast": 7506,
      "overwhelmingly": 7507,
      "previously": 7508,
      "processing": 7509,
      "cleaned": 7510,
      "horizontal": 7511,
      "organized": 7512,
      "mistaken": 7513,
      "DISCLA": 7514,
      "EMENT": 7515,
      "EMNI": 7516,
      "EMARK": 7517,
      "LAF": 7518,
      "crawled": 7519,
      "framed": 7520,
      "harmless": 7521,
      "nonproprietary": 7522,
      "panting": 7523,
      "smell": 7524,
      "mysteries": 7525,
      "redistribute": 7526,
      "redistributing": 7527,
      "redistribution": 7528,
      "discoveries": 7529,
      "dreadful": 7530,
      "treatment": 7531,
      "extremely": 7532,
      "READ": 7533,
      "powdery": 7534,
      "INDIRECT": 7535,
      "INDEMNI": 7536,
      "AGREEMENT": 7537,
      "witnessed": 7538,
      "DAMAGE": 7539,
      "knocking": 7540,
      "virt": 7541,
      "virus": 7542,
      "thunderstorm": 7543,
      "methods": 7544,
      "stalked": 7545,
      "abandon": 7546,
      "conclusion": 7547,
      "concluded": 7548,
      "tieth": 7549,
      "texts": 7550,
      "projecting": 7551,
      "distinctly": 7552,
      "companion": 7553,
      "substitute": 7554,
      "blossom": 7555,
      "blossoms": 7556,
      "transcribe": 7557,
      "birds": 7558,
      "adapted": 7559,
      "2021": 7560,
      "501": 7561,
      "CONSEQU": 7562,
      "CONTRACT": 7563,
      "Volunteers": 7564,
      "echoed": 7565,
      "slippers": 7566,
      "vacant": 7567,
      "widening": 7568,
      "moderate": 7569,
      "modified": 7570,
      "anticipation": 7571,
      "devoted": 7572,
      "decoration": 7573,
      "exhausted": 7574,
      "contributions": 7575,
      "corroded": 7576,
      "corrupt": 7577,
      "desperate": 7578,
      "brooded": 7579,
      "approaching": 7580,
      "possibility": 7581,
      "bitterly": 7582,
      "calculate": 7583,
      "balloon": 7584,
      "fascination": 7585,
      "periodic": 7586,
      "sympathy": 7587,
      "discussing": 7588,
      "fiercely": 7589,
      "801": 7590,
      "809": 7591,
      "ACTUAL": 7592,
      "BEFO": 7593,
      "EXPRE": 7594,
      "EXCEPT": 7595,
      "IMER": 7596,
      "IMPLI": 7597,
      "NITIVE": 7598,
      "PGLAF": 7599,
      "PURPOSE": 7600,
      "PUNITIVE": 7601,
      "WITH": 7602,
      "WILL": 7603,
      "intricate": 7604,
      "threadbare": 7605,
      "depends": 7606,
      "exclusion": 7607,
      "comprehens": 7608,
      "comprehend": 7609,
      "gratefully": 7610,
      "paraly": 7611,
      "parallel": 7612,
      "partially": 7613,
      "apparition": 7614,
      "apparatus": 7615,
      "LIABILITY": 7616,
      "LIABLE": 7617,
      "INCIDENT": 7618,
      "INCLU": 7619,
      "Defects": 7620,
      "Overworlders": 7621,
      "employee": 7622,
      "employees": 7623,
      "appreciate": 7624,
      "fatigued": 7625,
      "Redistributing": 7626,
      "Redistribution": 7627,
      "DISTRIBUTE": 7628,
      "DISTRIBUTOR": 7629,
      "Darkness": 7630,
      "Salt": 7631,
      "binary": 7632,
      "dazzled": 7633,
      "lustre": 7634,
      "luminous": 7635,
      "tropical": 7636,
      "infringement": 7637,
      "argued": 7638,
      "stems": 7639,
      "stumble": 7640,
      "uncles": 7641,
      "ripple": 7642,
      "ceremony": 7643,
      "feverish": 7644,
      "declaration": 7645,
      "folding": 7646,
      "derived": 7647,
      "proofread": 7648,
      "Instinct": 7649,
      "princi": 7650,
      "disturb": 7651,
      "settled": 7652,
      "subterranean": 7653,
      "awkward": 7654,
      "ultimate": 7655,
      "luxuri": 7656,
      "failure": 7657,
      "hillock": 7658,
      "snatched": 7659,
      "complacency": 7660,
      "Upperworld": 7661,
      "clambering": 7662,
      "temporary": 7663,
      "inquiry": 7664,
      "2001": 7665,
      "theories": 7666,
      "tolerance": 7667,
      "alternate": 7668,
      "behaviour": 7669,
      "weapon": 7670,
      "network": 7671,
      "amusement": 7672,
      "department": 7673,
      "excessively": 7674,
      "exclamation": 7675,
      "overflowing": 7676,
      "commercial": 7677,
      "proportions": 7678,
      "discontinue": 7679,
      "flags": 7680,
      "interpretation": 7681,
      "impenetrable": 7682,
      "structure": 7683,
      "hypertext": 7684,
      "Necessity": 7685,
      "inadequacy": 7686,
      "1887": 7687,
      "596": 7688,
      "6221541": 7689,
      "84116": 7690,
      "Above": 7691,
      "Additional": 7692,
      "Abruptly": 7693,
      "ATIONS": 7694,
      "Besides": 7695,
      "Creating": 7696,
      "Copyright": 7697,
      "Despite": 7698,
      "Doubtless": 7699,
      "DONATIONS": 7700,
      "EVEN": 7701,
      "FOUNDA": 7702,
      "FITNES": 7703,
      "GIVE": 7704,
      "IRS": 7705,
      "Language": 7706,
      "Mexic": 7707,
      "MERCHANTAB": 7708,
      "Moreover": 7709,
      "NEGLIGEN": 7710,
      "OWNER": 7711,
      "OTHER": 7712,
      "PARAGRAP": 7713,
      "PLEASE": 7714,
      "Plenty": 7715,
      "POSSIBILITY": 7716,
      "Revenue": 7717,
      "Refund": 7718,
      "Release": 7719,
      "RIGHT": 7720,
      "SUCH": 7721,
      "STRICT": 7722,
      "Title": 7723,
      "UNDER": 7724,
      "WORK": 7725,
      "apert": 7726,
      "branches": 7727,
      "cruel": 7728,
      "egotism": 7729,
      "fabric": 7730,
      "gift": 7731,
      "granite": 7732,
      "labyrinth": 7733,
      "score": 7734,
      "signing": 7735,
      "vista": 7736,
      "vapour": 7737,
      "inaccurate": 7738,
      "rescue": 7739,
      "resorted": 7740,
      "thudding": 7741,
      "ensuring": 7742,
      "aspect": 7743,
      "assumption": 7744,
      "aristocracy": 7745,
      "stunned": 7746,
      "leaping": 7747,
      "acceler": 7748,
      "unsolicited": 7749,
      "unscrewed": 7750,
      "unfathomable": 7751,
      "unenforceability": 7752,
      "choking": 7753,
      "notifies": 7754,
      "agriculture": 7755,
      "petals": 7756,
      "shuffling": 7757,
      "suffered": 7758,
      "concrete": 7759,
      "conviction": 7760,
      "poignant": 7761,
      "deletions": 7762,
      "exquisite": 7763,
      "exporting": 7764,
      "exultation": 7765,
      "indescribably": 7766,
      "perpetual": 7767,
      "performances": 7768,
      "intolerable": 7769,
      "precipit": 7770,
      "prejudice": 7771,
      "eyelashes": 7772,
      "contemplation": 7773,
      "International": 7774,
      "corporation": 7775,
      "obsolete": 7776,
      "Mississippi": 7777,
      "invalidity": 7778,
      "subscribe": 7779,
      "synonymous": 7780,
      "warranties": 7781,
      "ENTIAL": 7782,
      "REFUND": 7783,
      "REMEDIES": 7784,
      "REPLACEMENT": 7785,
      "maximum": 7786,
      "succulent": 7787,
      "Contributions": 7788,
      "TRADEMARK": 7789,
      "PROVIDED": 7790,
      "deductible": 7791,
      "flirtation": 7792,
      "DISCLAIMER": 7793,
      "INDEMNITY": 7794,
      "CONSEQUENTIAL": 7795,
      "BEFORE": 7796,
      "EXPRESS": 7797,
      "IMPLIED": 7798,
      "comprehensible": 7799,
      "INCIDENTAL": 7800,
      "INCLUDING": 7801,
      "FOUNDATION": 7802,
      "FITNESS": 7803,
      "MERCHANTABILITY": 7804,
      "NEGLIGENCE": 7805,
      "PARAGRAPH": 7806,
      "06": 7807,
      "12": 7808,
      "14": 7809,
      "33": 7810,
      "35": 7811,
      "38": 7812,
      "317": 7813,
      "58": 7814,
      "5th": 7815,
      "500": 7816,
      "8th": 7817,
      "Ain": 7818,
      "Ale": 7819,
      "Ano": 7820,
      "Asa": 7821,
      "Ashe": 7822,
      "Aust": 7823,
      "Ahead": 7824,
      "Aren": 7825,
      "Aunt": 7826,
      "Adri": 7827,
      "Amen": 7828,
      "Apri": 7829,
      "Adam": 7830,
      "Amid": 7831,
      "Across": 7832,
      "ACH": 7833,
      "Agreed": 7834,
      "Bre": 7835,
      "Bou": 7836,
      "Ben": 7837,
      "Bro": 7838,
      "Bay": 7839,
      "Bun": 7840,
      "Bri": 7841,
      "Bem": 7842,
      "Bill": 7843,
      "Big": 7844,
      "Bey": 7845,
      "Bless": 7846,
      "Bull": 7847,
      "Bath": 7848,
      "Base": 7849,
      "Beach": 7850,
      "Bles": 7851,
      "Bost": 7852,
      "Blocks": 7853,
      "Blu": 7854,
      "Buc": 7855,
      "Blink": 7856,
      "Bowl": 7857,
      "Biscu": 7858,
      "Bird": 7859,
      "Breadth": 7860,
      "Cal": 7861,
      "Cro": 7862,
      "Cly": 7863,
      "Cun": 7864,
      "Cab": 7865,
      "Call": 7866,
      "Cred": 7867,
      "Cart": 7868,
      "Cass": 7869,
      "Chead": 7870,
      "Came": 7871,
      "Cars": 7872,
      "Clock": 7873,
      "Cond": 7874,
      "Clay": 7875,
      "Clu": 7876,
      "Cele": 7877,
      "Dut": 7878,
      "Dim": 7879,
      "Dem": 7880,
      "Dod": 7881,
      "Dul": 7882,
      "Dum": 7883,
      "Dear": 7884,
      "Dew": 7885,
      "Dish": 7886,
      "Duck": 7887,
      "Denn": 7888,
      "Dressed": 7889,
      "Distance": 7890,
      "Er": 7891,
      "Et": 7892,
      "Ever": 7893,
      "End": 7894,
      "Eber": 7895,
      "Eck": 7896,
      "Ext": 7897,
      "Ebooks": 7898,
      "Epi": 7899,
      "Eyes": 7900,
      "Emp": 7901,
      "Fon": 7902,
      "Fut": 7903,
      "Fay": 7904,
      "Fam": 7905,
      "Fair": 7906,
      "Fish": 7907,
      "Flink": 7908,
      "Fixed": 7909,
      "Fris": 7910,
      "Gas": 7911,
      "Gro": 7912,
      "Gut": 7913,
      "Gall": 7914,
      "Gus": 7915,
      "Gul": 7916,
      "Girl": 7917,
      "Grave": 7918,
      "Got": 7919,
      "Gild": 7920,
      "Greco": 7921,
      "Gray": 7922,
      "Glor": 7923,
      "Gulls": 7924,
      "Hm": 7925,
      "Hô": 7926,
      "Hand": 7927,
      "Hall": 7928,
      "Ham": 7929,
      "Hind": 7930,
      "Hop": 7931,
      "Hum": 7932,
      "High": 7933,
      "Hither": 7934,
      "Highb": 7935,
      "Hemp": 7936,
      "Hip": 7937,
      "Horn": 7938,
      "Hulking": 7939,
      "Ism": 7940,
      "Je": 7941,
      "Jan": 7942,
      "Jong": 7943,
      "Jack": 7944,
      "Judy": 7945,
      "Joh": 7946,
      "Jaqu": 7947,
      "Ke": 7948,
      "Kant": 7949,
      "Know": 7950,
      "Kel": 7951,
      "Knew": 7952,
      "Kap": 7953,
      "Kais": 7954,
      "Lad": 7955,
      "Lone": 7956,
      "Lover": 7957,
      "Line": 7958,
      "Lect": 7959,
      "Lew": 7960,
      "Lee": 7961,
      "Lea": 7962,
      "Legro": 7963,
      "Length": 7964,
      "Luck": 7965,
      "Lester": 7966,
      "Laughter": 7967,
      "Lilly": 7968,
      "ME": 7969,
      "Mo": 7970,
      "Men": 7971,
      "Mid": 7972,
      "Mur": 7973,
      "Mul": 7974,
      "Make": 7975,
      "Much": 7976,
      "Making": 7977,
      "Matter": 7978,
      "Maur": 7979,
      "Memp": 7980,
      "Mav": 7981,
      "Mean": 7982,
      "Marse": 7983,
      "MACH": 7984,
      "Non": 7985,
      "Nic": 7986,
      "Nest": 7987,
      "Norm": 7988,
      "National": 7989,
      "Ninth": 7990,
      "Ola": 7991,
      "Pa": 7992,
      "Pre": 7993,
      "Pam": 7994,
      "Play": 7995,
      "Post": 7996,
      "Pages": 7997,
      "Pump": 7998,
      "Phone": 7999,
      "Punch": 8000,
      "Picking": 8001,
      "Ri": 8002,
      "Rex": 8003,
      "Rus": 8004,
      "Rack": 8005,
      "Rep": 8006,
      "Rot": 8007,
      "Reach": 8008,
      "Rome": 8009,
      "Roc": 8010,
      "San": 8011,
      "Son": 8012,
      "Sto": 8013,
      "Swas": 8014,
      "Sha": 8015,
      "Squ": 8016,
      "Side": 8017,
      "Sop": 8018,
      "Sho": 8019,
      "Sig": 8020,
      "Slow": 8021,
      "Sci": 8022,
      "Spr": 8023,
      "Stell": 8024,
      "Saut": 8025,
      "Scho": 8026,
      "Six": 8027,
      "Seas": 8028,
      "Smir": 8029,
      "Swed": 8030,
      "Scul": 8031,
      "Swett": 8032,
      "Ten": 8033,
      "Table": 8034,
      "Till": 8035,
      "Tran": 8036,
      "Trap": 8037,
      "Trust": 8038,
      "Tenn": 8039,
      "Trying": 8040,
      "Uly": 8041,
      "Usu": 8042,
      "Utop": 8043,
      "Von": 8044,
      "Ven": 8045,
      "Vis": 8046,
      "Var": 8047,
      "Val": 8048,
      "Vent": 8049,
      "Vill": 8050,
      "Ville": 8051,
      "Wed": 8052,
      "Wis": 8053,
      "Wine": 8054,
      "Wake": 8055,
      "Wild": 8056,
      "Women": 8057,
      "Washing": 8058,
      "Wreck": 8059,
      "XI": 8060,
      "XV": 8061,
      "XII": 8062,
      "XIII": 8063,
      "XIV": 8064,
      "XVI": 8065,
      "Yours": 8066,
      "Yuk": 8067,
      "Zeld": 8068,
      "_was": 8069,
      "_The": 8070,
      "_can": 8071,
      "ait": 8072,
      "aes": 8073,
      "aver": 8074,
      "amy": 8075,
      "aved": 8076,
      "avan": 8077,
      "aired": 8078,
      "awaited": 8079,
      "apet": 8080,
      "apolo": 8081,
      "avering": 8082,
      "aplanes": 8083,
      "aemic": 8084,
      "bab": 8085,
      "bany": 8086,
      "bast": 8087,
      "baf": 8088,
      "bity": 8089,
      "bite": 8090,
      "bass": 8091,
      "bary": 8092,
      "bren": 8093,
      "bund": 8094,
      "baking": 8095,
      "bau": 8096,
      "baw": 8097,
      "bung": 8098,
      "bster": 8099,
      "bals": 8100,
      "bbled": 8101,
      "bank": 8102,
      "braid": 8103,
      "border": 8104,
      "bune": 8105,
      "bonne": 8106,
      "baked": 8107,
      "bounced": 8108,
      "bbon": 8109,
      "bait": 8110,
      "cé": 8111,
      "cad": 8112,
      "cil": 8113,
      "cdo": 8114,
      "cation": 8115,
      "cort": 8116,
      "cend": 8117,
      "cated": 8118,
      "cence": 8119,
      "cket": 8120,
      "claws": 8121,
      "chers": 8122,
      "clap": 8123,
      "cises": 8124,
      "caddy": 8125,
      "dé": 8126,
      "dou": 8127,
      "dit": 8128,
      "dard": 8129,
      "drow": 8130,
      "dways": 8131,
      "diz": 8132,
      "dates": 8133,
      "daz": 8134,
      "dyed": 8135,
      "dging": 8136,
      "drows": 8137,
      "dazed": 8138,
      "dentist": 8139,
      "durable": 8140,
      "eb": 8141,
      "ev": 8142,
      "eer": 8143,
      "eup": 8144,
      "ether": 8145,
      "eats": 8146,
      "egr": 8147,
      "eced": 8148,
      "eigh": 8149,
      "eating": 8150,
      "evil": 8151,
      "eloc": 8152,
      "elds": 8153,
      "evas": 8154,
      "eggs": 8155,
      "ejac": 8156,
      "elier": 8157,
      "ebuck": 8158,
      "erers": 8159,
      "euv": 8160,
      "etles": 8161,
      "fal": 8162,
      "fought": 8163,
      "fried": 8164,
      "fans": 8165,
      "fund": 8166,
      "fused": 8167,
      "flock": 8168,
      "filed": 8169,
      "fung": 8170,
      "frown": 8171,
      "fired": 8172,
      "fian": 8173,
      "ficial": 8174,
      "fading": 8175,
      "fishing": 8176,
      "fisher": 8177,
      "ficient": 8178,
      "gan": 8179,
      "gid": 8180,
      "gut": 8181,
      "gig": 8182,
      "gated": 8183,
      "gment": 8184,
      "gage": 8185,
      "gau": 8186,
      "gles": 8187,
      "glove": 8188,
      "gene": 8189,
      "gloved": 8190,
      "gidd": 8191,
      "grail": 8192,
      "gilt": 8193,
      "games": 8194,
      "gowns": 8195,
      "gés": 8196,
      "gulls": 8197,
      "hl": 8198,
      "hn": 8199,
      "han": 8200,
      "hit": 8201,
      "hom": 8202,
      "hag": 8203,
      "hick": 8204,
      "hue": 8205,
      "hire": 8206,
      "hired": 8207,
      "hinted": 8208,
      "hunting": 8209,
      "ik": 8210,
      "ias": 8211,
      "iar": 8212,
      "iac": 8213,
      "ili": 8214,
      "ifor": 8215,
      "iol": 8216,
      "iated": 8217,
      "ience": 8218,
      "iary": 8219,
      "iot": 8220,
      "iest": 8221,
      "itori": 8222,
      "iries": 8223,
      "ilious": 8224,
      "irier": 8225,
      "jon": 8226,
      "jok": 8227,
      "job": 8228,
      "km": 8229,
      "kin": 8230,
      "knot": 8231,
      "kish": 8232,
      "kiness": 8233,
      "kota": 8234,
      "kike": 8235,
      "kidding": 8236,
      "lou": 8237,
      "lid": 8238,
      "lac": 8239,
      "lour": 8240,
      "lace": 8241,
      "lick": 8242,
      "lcome": 8243,
      "lull": 8244,
      "lars": 8245,
      "lately": 8246,
      "lane": 8247,
      "loun": 8248,
      "lantic": 8249,
      "lurch": 8250,
      "lump": 8251,
      "lacked": 8252,
      "lorn": 8253,
      "lacing": 8254,
      "lumps": 8255,
      "mow": 8256,
      "mould": 8257,
      "mour": 8258,
      "mate": 8259,
      "mig": 8260,
      "mally": 8261,
      "mph": 8262,
      "mies": 8263,
      "mary": 8264,
      "mise": 8265,
      "mped": 8266,
      "mason": 8267,
      "mult": 8268,
      "mium": 8269,
      "mudd": 8270,
      "mbals": 8271,
      "nic": 8272,
      "nour": 8273,
      "nap": 8274,
      "nible": 8275,
      "nia": 8276,
      "nician": 8277,
      "oing": 8278,
      "oom": 8279,
      "oard": 8280,
      "oak": 8281,
      "obo": 8282,
      "oars": 8283,
      "osing": 8284,
      "oyed": 8285,
      "oons": 8286,
      "ovals": 8287,
      "oters": 8288,
      "othed": 8289,
      "osities": 8290,
      "oeuv": 8291,
      "ogene": 8292,
      "pon": 8293,
      "pand": 8294,
      "pion": 8295,
      "pher": 8296,
      "pne": 8297,
      "pone": 8298,
      "pra": 8299,
      "pper": 8300,
      "pess": 8301,
      "pure": 8302,
      "pless": 8303,
      "pap": 8304,
      "phere": 8305,
      "pies": 8306,
      "phen": 8307,
      "pung": 8308,
      "pants": 8309,
      "piles": 8310,
      "pinn": 8311,
      "packed": 8312,
      "pisto": 8313,
      "pumps": 8314,
      "rd": 8315,
      "rou": 8316,
      "rand": 8317,
      "rac": 8318,
      "rout": 8319,
      "rone": 8320,
      "rats": 8321,
      "rind": 8322,
      "rical": 8323,
      "races": 8324,
      "rls": 8325,
      "rati": 8326,
      "rulous": 8327,
      "san": 8328,
      "sor": 8329,
      "sis": 8330,
      "sac": 8331,
      "ske": 8332,
      "sard": 8333,
      "sive": 8334,
      "sill": 8335,
      "surn": 8336,
      "scan": 8337,
      "sage": 8338,
      "sche": 8339,
      "sions": 8340,
      "sary": 8341,
      "scop": 8342,
      "swa": 8343,
      "swind": 8344,
      "scam": 8345,
      "slap": 8346,
      "sinking": 8347,
      "tz": 8348,
      "té": 8349,
      "tat": 8350,
      "tac": 8351,
      "tag": 8352,
      "trom": 8353,
      "tant": 8354,
      "tte": 8355,
      "tap": 8356,
      "tread": 8357,
      "tical": 8358,
      "treal": 8359,
      "tiness": 8360,
      "tton": 8361,
      "tank": 8362,
      "trap": 8363,
      "trodu": 8364,
      "trol": 8365,
      "tilt": 8366,
      "tuously": 8367,
      "tub": 8368,
      "tissue": 8369,
      "tug": 8370,
      "tapping": 8371,
      "uth": 8372,
      "uit": 8373,
      "ume": 8374,
      "uke": 8375,
      "ucer": 8376,
      "uced": 8377,
      "ucted": 8378,
      "ubs": 8379,
      "umes": 8380,
      "uries": 8381,
      "ulets": 8382,
      "vish": 8383,
      "vinc": 8384,
      "vict": 8385,
      "vada": 8386,
      "vulets": 8387,
      "wd": 8388,
      "ws": 8389,
      "wis": 8390,
      "wad": 8391,
      "wic": 8392,
      "wag": 8393,
      "wound": 8394,
      "waf": 8395,
      "ware": 8396,
      "wers": 8397,
      "wised": 8398,
      "wished": 8399,
      "wls": 8400,
      "winking": 8401,
      "wartz": 8402,
      "xen": 8403,
      "xity": 8404,
      "xta": 8405,
      "xistent": 8406,
      "yer": 8407,
      "yol": 8408,
      "yage": 8409,
      "za": 8410,
      "zes": 8411,
      "æon": 8412,
      "êpe": 8413,
      "œnician": 8414,
      "’!”": 8415,
      "“…": 8416,
      "”)": 8417,
      "hey": 8418,
      "hest": 8419,
      "hement": 8420,
      "healed": 8421,
      "heels": 8422,
      "hevelled": 8423,
      "indo": 8424,
      "inate": 8425,
      "incom": 8426,
      "infl": 8427,
      "inning": 8428,
      "inary": 8429,
      "incer": 8430,
      "inner": 8431,
      "insur": 8432,
      "insol": 8433,
      "incur": 8434,
      "inched": 8435,
      "infin": 8436,
      "inviol": 8437,
      "inspect": 8438,
      "infirm": 8439,
      "inhab": 8440,
      "inhabit": 8441,
      "inspected": 8442,
      "inhospit": 8443,
      "indecisively": 8444,
      "inexperience": 8445,
      "inconsequence": 8446,
      "incorrup": 8447,
      "inappropriate": 8448,
      "incapable": 8449,
      "insul": 8450,
      "inargu": 8451,
      "inscri": 8452,
      "inconcei": 8453,
      "incarn": 8454,
      "incrust": 8455,
      "thel": 8456,
      "theme": 8457,
      "theart": 8458,
      "theaded": 8459,
      "theore": 8460,
      "theastern": 8461,
      "thesis": 8462,
      "ani": 8463,
      "anon": 8464,
      "anter": 8465,
      "anach": 8466,
      "anci": 8467,
      "anking": 8468,
      "ancho": 8469,
      "anger": 8470,
      "angled": 8471,
      "antom": 8472,
      "anaemic": 8473,
      "anza": 8474,
      "rect": 8475,
      "repo": 8476,
      "retr": 8477,
      "reject": 8478,
      "regre": 8479,
      "reel": 8480,
      "reuse": 8481,
      "remin": 8482,
      "recl": 8483,
      "reci": 8484,
      "recall": 8485,
      "recept": 8486,
      "resent": 8487,
      "relic": 8488,
      "recent": 8489,
      "retribut": 8490,
      "recurrent": 8491,
      "republic": 8492,
      "revisit": 8493,
      "restor": 8494,
      "rejoin": 8495,
      "revive": 8496,
      "resented": 8497,
      "revalued": 8498,
      "rewd": 8499,
      "atess": 8500,
      "atting": 8501,
      "attired": 8502,
      "ateness": 8503,
      "aternal": 8504,
      "atoes": 8505,
      "atulate": 8506,
      "oner": 8507,
      "oning": 8508,
      "onse": 8509,
      "onful": 8510,
      "onial": 8511,
      "oniously": 8512,
      "eders": 8513,
      "editori": 8514,
      "erly": 8515,
      "erne": 8516,
      "erbo": 8517,
      "erving": 8518,
      "erwa": 8519,
      "erring": 8520,
      "erased": 8521,
      "erbach": 8522,
      "errone": 8523,
      "thal": 8524,
      "thur": 8525,
      "thum": 8526,
      "tharg": 8527,
      "andy": 8528,
      "anded": 8529,
      "andfather": 8530,
      "andelier": 8531,
      "topl": 8532,
      "toine": 8533,
      "tool": 8534,
      "toile": 8535,
      "tomed": 8536,
      "toiled": 8537,
      "token": 8538,
      "tools": 8539,
      "tossing": 8540,
      "towers": 8541,
      "enas": 8542,
      "enge": 8543,
      "enced": 8544,
      "enlarge": 8545,
      "enlar": 8546,
      "enburg": 8547,
      "aske": 8548,
      "asmo": 8549,
      "asco": 8550,
      "asant": 8551,
      "asper": 8552,
      "asunder": 8553,
      "ingale": 8554,
      "inguish": 8555,
      "ingrati": 8556,
      "orad": 8557,
      "orter": 8558,
      "orable": 8559,
      "orph": 8560,
      "orced": 8561,
      "oria": 8562,
      "ornament": 8563,
      "isles": 8564,
      "isitions": 8565,
      "isons": 8566,
      "iscence": 8567,
      "oft": 8568,
      "arc": 8569,
      "arity": 8570,
      "aract": 8571,
      "arrest": 8572,
      "arose": 8573,
      "ariously": 8574,
      "ites": 8575,
      "itent": 8576,
      "item": 8577,
      "itive": 8578,
      "itect": 8579,
      "itary": 8580,
      "itious": 8581,
      "itative": 8582,
      "meate": 8583,
      "mellow": 8584,
      "melt": 8585,
      "alle": 8586,
      "alow": 8587,
      "alco": 8588,
      "alight": 8589,
      "alted": 8590,
      "although": 8591,
      "align": 8592,
      "alia": 8593,
      "alcul": 8594,
      "alizing": 8595,
      "alists": 8596,
      "sted": 8597,
      "stim": 8598,
      "stall": 8599,
      "stif": 8600,
      "stice": 8601,
      "stair": 8602,
      "sters": 8603,
      "stations": 8604,
      "stumbled": 8605,
      "stalled": 8606,
      "staid": 8607,
      "stacks": 8608,
      "stasy": 8609,
      "staved": 8610,
      "stinate": 8611,
      "lete": 8612,
      "lequ": 8613,
      "leak": 8614,
      "lepr": 8615,
      "leans": 8616,
      "lecu": 8617,
      "lehers": 8618,
      "letharg": 8619,
      "rob": 8620,
      "rode": 8621,
      "roved": 8622,
      "roses": 8623,
      "roaring": 8624,
      "royed": 8625,
      "rocut": 8626,
      "rotog": 8627,
      "ropes": 8628,
      "romes": 8629,
      "roamed": 8630,
      "robust": 8631,
      "robin": 8632,
      "rooted": 8633,
      "ropolitan": 8634,
      "rocket": 8635,
      "roscop": 8636,
      "sep": 8637,
      "seab": 8638,
      "sept": 8639,
      "seren": 8640,
      "seys": 8641,
      "selection": 8642,
      "sealed": 8643,
      "selected": 8644,
      "seizes": 8645,
      "adro": 8646,
      "ades": 8647,
      "adel": 8648,
      "adore": 8649,
      "adorable": 8650,
      "lys": 8651,
      "lyric": 8652,
      "wasted": 8653,
      "esca": 8654,
      "essee": 8655,
      "escort": 8656,
      "owing": 8657,
      "icine": 8658,
      "icative": 8659,
      "icizing": 8660,
      "ghorn": 8661,
      "ghtheaded": 8662,
      "beam": 8663,
      "bellow": 8664,
      "belt": 8665,
      "beau": 8666,
      "beheld": 8667,
      "beaded": 8668,
      "bewit": 8669,
      "betray": 8670,
      "belted": 8671,
      "belly": 8672,
      "beetles": 8673,
      "idy": 8674,
      "idor": 8675,
      "idable": 8676,
      "idges": 8677,
      "idiot": 8678,
      "actor": 8679,
      "accent": 8680,
      "acres": 8681,
      "actory": 8682,
      "accompl": 8683,
      "util": 8684,
      "utality": 8685,
      "utonic": 8686,
      "vet": 8687,
      "veter": 8688,
      "vement": 8689,
      "veyed": 8690,
      "vehement": 8691,
      "lls": 8692,
      "llar": 8693,
      "llous": 8694,
      "llies": 8695,
      "llations": 8696,
      "thatched": 8697,
      "ents": 8698,
      "ented": 8699,
      "entless": 8700,
      "entran": 8701,
      "entary": 8702,
      "entering": 8703,
      "entangled": 8704,
      "verted": 8705,
      "vermin": 8706,
      "verify": 8707,
      "verdig": 8708,
      "versities": 8709,
      "vergence": 8710,
      "wept": 8711,
      "weave": 8712,
      "wears": 8713,
      "weigh": 8714,
      "western": 8715,
      "omni": 8716,
      "lifting": 8717,
      "libert": 8718,
      "libel": 8719,
      "lilac": 8720,
      "lightheaded": 8721,
      "forgi": 8722,
      "forgetting": 8723,
      "forlorn": 8724,
      "uncon": 8725,
      "unde": 8726,
      "uness": 8727,
      "unjust": 8728,
      "uncont": 8729,
      "unrest": 8730,
      "unthought": 8731,
      "unwa": 8732,
      "unheard": 8733,
      "unsc": 8734,
      "unseen": 8735,
      "unbelie": 8736,
      "unopened": 8737,
      "unquestion": 8738,
      "unquiet": 8739,
      "unforget": 8740,
      "unavoid": 8741,
      "unstable": 8742,
      "unimportant": 8743,
      "unintellig": 8744,
      "unnaturally": 8745,
      "uncommun": 8746,
      "unlocked": 8747,
      "unreve": 8748,
      "undeserted": 8749,
      "unaffected": 8750,
      "uneasily": 8751,
      "unadapt": 8752,
      "unwilling": 8753,
      "unreasonable": 8754,
      "unsought": 8755,
      "unpreced": 8756,
      "unciviliz": 8757,
      "unsteady": 8758,
      "uninf": 8759,
      "unbelief": 8760,
      "unfold": 8761,
      "unpunct": 8762,
      "unashamed": 8763,
      "unobtr": 8764,
      "undespairingly": 8765,
      "unrestrained": 8766,
      "unprosperous": 8767,
      "unreasoning": 8768,
      "unforgi": 8769,
      "rial": 8770,
      "rily": 8771,
      "rift": 8772,
      "rival": 8773,
      "rivelled": 8774,
      "ribbon": 8775,
      "rioters": 8776,
      "rivulets": 8777,
      "whit": 8778,
      "whip": 8779,
      "los": 8780,
      "loy": 8781,
      "lover": 8782,
      "lored": 8783,
      "loca": 8784,
      "loite": 8785,
      "loving": 8786,
      "loped": 8787,
      "lots": 8788,
      "imit": 8789,
      "imne": 8790,
      "imper": 8791,
      "imist": 8792,
      "image": 8793,
      "impr": 8794,
      "impose": 8795,
      "imperson": 8796,
      "imming": 8797,
      "impressed": 8798,
      "imitation": 8799,
      "impercep": 8800,
      "immoder": 8801,
      "soph": 8802,
      "soap": 8803,
      "soles": 8804,
      "sobs": 8805,
      "soaked": 8806,
      "sobbed": 8807,
      "sohn": 8808,
      "hissed": 8809,
      "hissing": 8810,
      "chid": 8811,
      "chaf": 8812,
      "chine": 8813,
      "charm": 8814,
      "chases": 8815,
      "chasms": 8816,
      "chatting": 8817,
      "chandelier": 8818,
      "chimne": 8819,
      "irk": 8820,
      "irable": 8821,
      "irrecover": 8822,
      "outa": 8823,
      "outstay": 8824,
      "outlined": 8825,
      "abby": 8826,
      "abbed": 8827,
      "abroad": 8828,
      "abounding": 8829,
      "abounded": 8830,
      "abnormal": 8831,
      "alls": 8832,
      "noct": 8833,
      "noisy": 8834,
      "noses": 8835,
      "agle": 8836,
      "agony": 8837,
      "aggled": 8838,
      "agiar": 8839,
      "byter": 8840,
      "bystand": 8841,
      "ura": 8842,
      "urous": 8843,
      "urried": 8844,
      "urry": 8845,
      "urging": 8846,
      "urban": 8847,
      "urgent": 8848,
      "urgency": 8849,
      "termin": 8850,
      "teries": 8851,
      "terraced": 8852,
      "terribly": 8853,
      "terrif": 8854,
      "redness": 8855,
      "reduced": 8856,
      "cement": 8857,
      "celled": 8858,
      "celain": 8859,
      "ceeding": 8860,
      "ceasing": 8861,
      "cember": 8862,
      "upright": 8863,
      "uphol": 8864,
      "saus": 8865,
      "sailing": 8866,
      "saucer": 8867,
      "haute": 8868,
      "hams": 8869,
      "haunting": 8870,
      "herding": 8871,
      "herded": 8872,
      "neat": 8873,
      "neared": 8874,
      "nelled": 8875,
      "nebul": 8876,
      "keting": 8877,
      "kefell": 8878,
      "keyed": 8879,
      "aine": 8880,
      "ainly": 8881,
      "onesty": 8882,
      "mops": 8883,
      "movi": 8884,
      "moves": 8885,
      "modish": 8886,
      "molars": 8887,
      "molecu": 8888,
      "feit": 8889,
      "feud": 8890,
      "feather": 8891,
      "feign": 8892,
      "code": 8893,
      "coats": 8894,
      "coach": 8895,
      "coarse": 8896,
      "coasting": 8897,
      "cobbled": 8898,
      "cooing": 8899,
      "cotton": 8900,
      "colos": 8901,
      "ilating": 8902,
      "illes": 8903,
      "iladel": 8904,
      "gears": 8905,
      "thern": 8906,
      "shears": 8907,
      "ssons": 8908,
      "pepper": 8909,
      "peasant": 8910,
      "shions": 8911,
      "shud": 8912,
      "shrug": 8913,
      "shots": 8914,
      "shorn": 8915,
      "shuffled": 8916,
      "shying": 8917,
      "shrewd": 8918,
      "shrivelled": 8919,
      "romp": 8920,
      "romances": 8921,
      "goats": 8922,
      "suck": 8923,
      "sumed": 8924,
      "sugar": 8925,
      "caho": 8926,
      "capt": 8927,
      "caves": 8928,
      "caution": 8929,
      "raven": 8930,
      "rapt": 8931,
      "raft": 8932,
      "rams": 8933,
      "railed": 8934,
      "raught": 8935,
      "ramid": 8936,
      "raja": 8937,
      "raordinary": 8938,
      "rakish": 8939,
      "raeders": 8940,
      "butter": 8941,
      "embro": 8942,
      "empor": 8943,
      "embrace": 8944,
      "embod": 8945,
      "ardson": 8946,
      "anty": 8947,
      "antity": 8948,
      "antired": 8949,
      "antenn": 8950,
      "anteced": 8951,
      "dome": 8952,
      "doses": 8953,
      "doings": 8954,
      "doze": 8955,
      "doctor": 8956,
      "domest": 8957,
      "conti": 8958,
      "convi": 8959,
      "confound": 8960,
      "conquest": 8961,
      "convent": 8962,
      "conste": 8963,
      "consin": 8964,
      "constrained": 8965,
      "conspir": 8966,
      "convul": 8967,
      "confined": 8968,
      "converted": 8969,
      "consumed": 8970,
      "tiger": 8971,
      "tipping": 8972,
      "tigers": 8973,
      "tika": 8974,
      "tipsy": 8975,
      "tearing": 8976,
      "tels": 8977,
      "amity": 8978,
      "amish": 8979,
      "amput": 8980,
      "ammon": 8981,
      "amond": 8982,
      "ambig": 8983,
      "ambul": 8984,
      "amorph": 8985,
      "pore": 8986,
      "poise": 8987,
      "posts": 8988,
      "poliz": 8989,
      "postern": 8990,
      "pothesis": 8991,
      "wayward": 8992,
      "wayside": 8993,
      "deaf": 8994,
      "deare": 8995,
      "deject": 8996,
      "depression": 8997,
      "defun": 8998,
      "dels": 8999,
      "degrad": 9000,
      "depressed": 9001,
      "devoid": 9002,
      "departed": 9003,
      "device": 9004,
      "decomposed": 9005,
      "deplor": 9006,
      "debau": 9007,
      "derelic": 9008,
      "Hell": 9009,
      "ourish": 9010,
      "ifinal": 9011,
      "worst": 9012,
      "nowhere": 9013,
      "nowled": 9014,
      "nowadays": 9015,
      "exul": 9016,
      "extr": 9017,
      "exten": 9018,
      "excur": 9019,
      "exchanging": 9020,
      "exhib": 9021,
      "exhibition": 9022,
      "exasper": 9023,
      "exalted": 9024,
      "usal": 9025,
      "sometime": 9026,
      "ustry": 9027,
      "ustration": 9028,
      "ustina": 9029,
      "inded": 9030,
      "indian": 9031,
      "owness": 9032,
      "owners": 9033,
      "foam": 9034,
      "foxt": 9035,
      "footed": 9036,
      "foamy": 9037,
      "foghorn": 9038,
      "perple": 9039,
      "perish": 9040,
      "percent": 9041,
      "pertur": 9042,
      "perforce": 9043,
      "perfu": 9044,
      "perspired": 9045,
      "permeate": 9046,
      "uling": 9047,
      "ulent": 9048,
      "ulist": 9049,
      "ulity": 9050,
      "ulously": 9051,
      "ulster": 9052,
      "ulsion": 9053,
      "oused": 9054,
      "ousness": 9055,
      "ongating": 9056,
      "therein": 9057,
      "thereabout": 9058,
      "therefore": 9059,
      "berish": 9060,
      "trici": 9061,
      "truc": 9062,
      "tracing": 9063,
      "trunk": 9064,
      "tridges": 9065,
      "quart": 9066,
      "qually": 9067,
      "quot": 9068,
      "quivered": 9069,
      "quakes": 9070,
      "quinade": 9071,
      "quils": 9072,
      "quartz": 9073,
      "quavering": 9074,
      "quantity": 9075,
      "plans": 9076,
      "plung": 9077,
      "plined": 9078,
      "plagiar": 9079,
      "astounding": 9080,
      "astounded": 9081,
      "overlook": 9082,
      "overnight": 9083,
      "overturned": 9084,
      "overtook": 9085,
      "overheard": 9086,
      "overlooking": 9087,
      "overcoat": 9088,
      "overhung": 9089,
      "overboard": 9090,
      "overpop": 9091,
      "overhang": 9092,
      "overripe": 9093,
      "ppings": 9094,
      "Were": 9095,
      "Weren": 9096,
      "Webster": 9097,
      "Welcome": 9098,
      "idered": 9099,
      "lame": 9100,
      "lared": 9101,
      "laud": 9102,
      "lapped": 9103,
      "laund": 9104,
      "lazy": 9105,
      "laundered": 9106,
      "lavish": 9107,
      "ackling": 9108,
      "acknowled": 9109,
      "notions": 9110,
      "artreuse": 9111,
      "managed": 9112,
      "preten": 9113,
      "premat": 9114,
      "preser": 9115,
      "precisely": 9116,
      "prehistor": 9117,
      "premium": 9118,
      "cker": 9119,
      "Dai": 9120,
      "Dakota": 9121,
      "abouts": 9122,
      "opal": 9123,
      "affront": 9124,
      "afford": 9125,
      "affirmed": 9126,
      "inept": 9127,
      "inets": 9128,
      "ineff": 9129,
      "otherwise": 9130,
      "arer": 9131,
      "hog": 9132,
      "hooked": 9133,
      "holoca": 9134,
      "hotels": 9135,
      "spy": 9136,
      "spared": 9137,
      "sparen": 9138,
      "spiced": 9139,
      "spasm": 9140,
      "spires": 9141,
      "sparse": 9142,
      "spasms": 9143,
      "spoken": 9144,
      "spinning": 9145,
      "spanking": 9146,
      "spasmo": 9147,
      "sporad": 9148,
      "spades": 9149,
      "downpour": 9150,
      "eting": 9151,
      "olves": 9152,
      "olalia": 9153,
      "akened": 9154,
      "umbre": 9155,
      "umbus": 9156,
      "umatic": 9157,
      "whoever": 9158,
      "wholes": 9159,
      "whosoever": 9160,
      "illusion": 9161,
      "illustration": 9162,
      "commit": 9163,
      "composition": 9164,
      "compet": 9165,
      "combust": 9166,
      "orted": 9167,
      "inkle": 9168,
      "enda": 9169,
      "endless": 9170,
      "endured": 9171,
      "endicit": 9172,
      "endowing": 9173,
      "lighting": 9174,
      "aching": 9175,
      "achie": 9176,
      "stock": 9177,
      "stocked": 9178,
      "worktable": 9179,
      "igram": 9180,
      "hatted": 9181,
      "hatboxes": 9182,
      "bler": 9183,
      "blink": 9184,
      "bleness": 9185,
      "iterer": 9186,
      "urnal": 9187,
      "foreign": 9188,
      "foreground": 9189,
      "forefinger": 9190,
      "backed": 9191,
      "bergs": 9192,
      "greeting": 9193,
      "ickness": 9194,
      "ickers": 9195,
      "ickerbo": 9196,
      "Produ": 9197,
      "Probity": 9198,
      "carame": 9199,
      "carav": 9200,
      "carries": 9201,
      "cartridges": 9202,
      "boiled": 9203,
      "boister": 9204,
      "bores": 9205,
      "bothered": 9206,
      "bosom": 9207,
      "bobbed": 9208,
      "boasting": 9209,
      "provo": 9210,
      "proposed": 9211,
      "procal": 9212,
      "progress": 9213,
      "proté": 9214,
      "proceeding": 9215,
      "Sheik": 9216,
      "rowdy": 9217,
      "rowboat": 9218,
      "eline": 9219,
      "elations": 9220,
      "eludes": 9221,
      "elongating": 9222,
      "newly": 9223,
      "phur": 9224,
      "phia": 9225,
      "phantom": 9226,
      "eple": 9227,
      "epigram": 9228,
      "disc": 9229,
      "dislike": 9230,
      "disci": 9231,
      "distor": 9232,
      "disinte": 9233,
      "disposed": 9234,
      "discard": 9235,
      "dissens": 9236,
      "disengaged": 9237,
      "disappear": 9238,
      "disliked": 9239,
      "dismounted": 9240,
      "disarray": 9241,
      "dishonest": 9242,
      "disappearing": 9243,
      "disadvantage": 9244,
      "dissimilar": 9245,
[...]
