{
  "version": "1.0",
  "truncation": null,
  "padding": null,
  "added_tokens": [
    {
      "id": 0,
      "content": "<|endoftext|>",
      "single_word": false,
      "lstrip": false,
      "rstrip": false,
      "normalized": false,
      "special": true
    }
  ],
  "normalizer": null,
  "pre_tokenizer": {
    "type": "ByteLevel",
    "add_prefix_space": false,
    "trim_offsets": true,
    "use_regex": true
  },
  "post_processor": {
    "type": "ByteLevel",
    "add_prefix_space": true,
    "trim_offsets": false,
    "use_regex": true
  },
  "decoder": {
    "type": "ByteLevel",
    "add_prefix_space": true,
    "trim_offsets": true,
    "use_regex": true
  },
  "model": {
    "type": "BPE",
    "dropout": null,
    "unk_token": null,
    "continuing_subword_prefix": null,
    "end_of_word_suffix": null,
    "fuse_unk": false,
    "byte_fallback": false,
    "ignore_merges": false,
    "vocab": {
      "<|endoftext|>": 0,
      "!": 1,
      "#": 2,
      "$": 3,
      "%": 4,
      "'": 5,
      "(": 6,
      ")": 7,
      "*": 8,
      ",": 9,
      "-": 10,
      ".": 11,
      "/": 12,
      "0": 13,
      "1": 14,
      "2": 15,
      "3": 16,
      "4": 17,
      "5": 18,
      "6": 19,
      "7": 20,
      "8": 21,
      "9": 22,
      ":": 23,
      ";": 24,
      "?": 25,
      "A": 26,
      "B": 27,
      "C": 28,
      "D": 29,
      "E": 30,
      "F": 31,
      "G": 32,
      "H": 33,
      "I": 34,
      "J": 35,
      "K": 36,
      "L": 37,
      "M": 38,
      "N": 39,
      "O": 40,
      "P": 41,
      "Q": 42,
      "R": 43,
      "S": 44,
      "T": 45,
      "U": 46,
      "V": 47,
      "W": 48,
      "X": 49,
      "Y": 50,
      "Z": 51,
      "[": 52,
      "]": 53,
      "_": 54,
      "a": 55,
      "b": 56,
      "c": 57,
      "d": 58,
      "e": 59,
      "f": 60,
      "g": 61,
      "h": 62,
      "i": 63,
      "j": 64,
      "k": 65,
      "l": 66,
      "m": 67,
      "n": 68,
      "o": 69,
      "p": 70,
      "q": 71,
      "r": 72,
      "s": 73,
      "t": 74,
      "u": 75,
      "v": 76,
      "w": 77,
      "x": 78,
      "y": 79,
      "z": 80,
      "¢": 81,
      "¦": 82,
      "§": 83,
      "©": 84,
      "ª": 85,
      "´": 86,
      "»": 87,
      "¼": 88,
      "¿": 89,
      "Ã": 90,
      "Å": 91,
      "â": 92,
      "ï": 93,
      "Ċ": 94,
      "Ġ": 95,
      "Ģ": 96,
      "Ħ": 97,
      "Ĭ": 98,
      "ĵ": 99,
      "Ķ": 100,
      "ĺ": 101,
      "Ļ": 102,
      "ľ": 103,
      "Ŀ": 104,
      "Ġt": 105,
      "he": 106,
      "Ġa": 107,
      "in": 108,
      "âĢ": 109,
      "Ġw": 110,
      "Ġs": 111,
      "Ġthe": 112,
      "Ġo": 113,
      "re": 114,
      "nd": 115,
      "ed": 116,
      "er": 117,
      "ou": 118,
      "at": 119,
      "Ġm": 120,
      "Ġh": 121,
      "it": 122,
      "en": 123,
      "on": 124,
      "Ġb": 125,
      "Ġf": 126,
      "ing": 127,
      "Ġc": 128,
      "is": 129,
      "Ġand": 130,
      "or": 131,
      "Ġto": 132,
      "Ġof": 133,
      "ĠI": 134,
      "as": 135,
      "--": 136,
      "Ġd": 137,
      "Ġin": 138,
      "ar": 139,
      "le": 140,
      "âĢľ": 141,
      "an": 142,
      "Ġth": 143,
      "âĢĿ": 144,
      "ll": 145,
      "om": 146,
      "âĢĻ": 147,
      "Ġp": 148,
      "es": 149,
      "Ġl": 150,
      "Ġhe": 151,
      "Ġg": 152,
      "ut": 153,
      "ad": 154,
      "ow": 155,
      "Ġwas": 156,
      "ly": 157,
      "ĠĠ": 158,
      "Ġn": 159,
      "st": 160,
      "ic": 161,
      "gh": 162,
      "Ġe": 163,
      "id": 164,
      "im": 165,
      "----": 166,
      "ve": 167,
      "Ġbe": 168,
      "ent": 169,
      "ro": 170,
      "Ġy": 171,
      "ac": 172,
      "Ġu": 173,
      "al": 174,
      "se": 175,
      "Ġthat": 176,
      "ĠT": 177,
      "ver": 178,
      "ion": 179,
      "Ġon": 180,
      "ay": 181,
      "ot": 182,
      "ld": 183,
      "Ġit": 184,
      "ght": 185,
      "ith": 186,
      "Ġyou": 187,
      "et": 188,
      ".âĢĿ": 189,
      "ri": 190,
      "Ġwith": 191,
      "Ġst": 192,
      "Ġre": 193,
      "ir": 194,
      "Ġwe": 195,
      "Ġme": 196,
      "Ġwh": 197,
      "Ġan": 198,
      "Ġhad": 199,
      "am": 200,
      "ur": 201,
      "and": 202,
      "Ġat": 203,
      "âĢĶ": 204,
      "Ġfor": 205,
      "oo": 206,
      "ĠâĢľ": 207,
      "Ġhis": 208,
      "Ġas": 209,
      "ct": 210,
      "Ġmy": 211,
      "the": 212,
      "ce": 213,
      "red": 214,
      "il": 215,
      "ĠG": 216,
      "--------": 217,
      "ain": 218,
      "ĠĠĠĠ": 219,
      ",âĢĿ": 220,
      "ter": 221,
      "Ġsa": 222,
      "Ġher": 223,
      "ke": 224,
      "ch": 225,
      "ight": 226,
      "th": 227,
      "all": 228,
      "ss": 229,
      "if": 230,
      "ome": 231,
      "Ġse": 232,
      "rom": 233,
      "em": 234,
      "ĠM": 235,
      "ave": 236,
      "ĠThe": 237,
      "pp": 238,
      "to": 239,
      "Ġsu": 240,
      "Ġup": 241,
      "ard": 242,
      "Ġhim": 243,
      "Ġr": 244,
      "ĠW": 245,
      "ant": 246,
      "ook": 247,
      "Ġshe": 248,
      "by": 249,
      "ol": 250,
      "ĠA": 251,
      "ore": 252,
      "Ġsh": 253,
      "ould": 254,
      "?âĢĿ": 255,
      "ound": 256,
      "ect": 257,
      "her": 258,
      "ĠH": 259,
      "ag": 260,
      "ĠS": 261,
      "ats": 262,
      "Ġfrom": 263,
      "out": 264,
      "ation": 265,
      "ame": 266,
      "Ġsaid": 267,
      "ble": 268,
      "Ġdo": 269,
      "atsby": 270,
      "Ġall": 271,
      "Ġk": 272,
      "ust": 273,
      "Ġout": 274,
      "Ġor": 275,
      "Ġab": 276,
      "op": 277,
      "Ġle": 278,
      "ew": 279,
      "Ġli": 280,
      "el": 281,
      "Ġthis": 282,
      "ous": 283,
      "own": 284,
      "Ġwere": 285,
      "one": 286,
      "ĠD": 287,
      "ess": 288,
      "un": 289,
      "est": 290,
      "Ġwor": 291,
      "ong": 292,
      "our": 293,
      "Ġbut": 294,
      "Ġv": 295,
      "Ġso": 296,
      "ill": 297,
      "ast": 298,
      "us": 299,
      "hen": 300,
      "ist": 301,
      "ber": 302,
      "ind": 303,
      "ĠB": 304,
      "ĠGatsby": 305,
      "qu": 306,
      "Ġinto": 307,
      "Ġex": 308,
      "tle": 309,
      "ul": 310,
      "Ġal": 311,
      "Ġnot": 312,
      "um": 313,
      "ck": 314,
      "Ġag": 315,
      "ell": 316,
      "lo": 317,
      "art": 318,
      "Ġcon": 319,
      "ĠP": 320,
      "Ġkn": 321,
      "ais": 322,
      "ack": 323,
      "ap": 324,
      "ort": 325,
      "----------------": 326,
      "Ġsp": 327,
      "Ġis": 328,
      "The": 329,
      "Ġby": 330,
      "Ġthere": 331,
      "ime": 332,
      "ide": 333,
      "Ġun": 334,
      "ive": 335,
      "Ġhave": 336,
      "Ġany": 337,
      "Ġover": 338,
      "aisy": 339,
      "hed": 340,
      "ate": 341,
      "very": 342,
      "way": 343,
      "Ġne": 344,
      "Ġlook": 345,
      "od": 346,
      "ak": 347,
      "ace": 348,
      "ough": 349,
      "au": 350,
      "Ġtr": 351,
      "Ġabout": 352,
      "ĠTom": 353,
      "Ġone": 354,
      "ĠHe": 355,
      "Ġgo": 356,
      "ost": 357,
      "Ġch": 358,
      "fter": 359,
      "ge": 360,
      "Ġar": 361,
      "Ġsome": 362,
      "pt": 363,
      "ject": 364,
      "ine": 365,
      "ittle": 366,
      "nder": 367,
      "Ġdown": 368,
      "ved": 369,
      "ĠF": 370,
      "Ġman": 371,
      "Ġro": 372,
      "ers": 373,
      "ven": 374,
      "ich": 375,
      "ity": 376,
      "hing": 377,
      "ite": 378,
      "able": 379,
      "ĠĠĠĠĠĠĠĠ": 380,
      "ĠDaisy": 381,
      "Ġcame": 382,
      "ig": 383,
      "Ġj": 384,
      "Ġthey": 385,
      "ink": 386,
      "hat": 387,
      "Ġno": 388,
      "Ġwho": 389,
      "Ġlike": 390,
      "ach": 391,
      "You": 392,
      "ure": 393,
      "uten": 394,
      "Ġlittle": 395,
      "urn": 396,
      "berg": 397,
      "ĠC": 398,
      "utenberg": 399,
      "ked": 400,
      "ĠE": 401,
      "Ġif": 402,
      "Ġhand": 403,
      "Ġtoo": 404,
      "ice": 405,
      "Ġbeen": 406,
      "ered": 407,
      "ep": 408,
      "ear": 409,
      "Ġback": 410,
      "ther": 411,
      "are": 412,
      "ĠN": 413,
      "ated": 414,
      "Ġdid": 415,
      "roject": 416,
      "wn": 417,
      "here": 418,
      "right": 419,
      "Ġcom": 420,
      "ick": 421,
      "ord": 422,
      "Ġwork": 423,
      "ress": 424,
      "ally": 425,
      "Ġcould": 426,
      "ĠIt": 427,
      "ra": 428,
      "ass": 429,
      "Ġagain": 430,
      "Ġde": 431,
      "Ġwhen": 432,
      "Ġthem": 433,
      "fore": 434,
      "sel": 435,
      "ĠO": 436,
      "ought": 437,
      "Ġus": 438,
      "ff": 439,
      "ried": 440,
      "ood": 441,
      "Ġafter": 442,
      "reat": 443,
      "ĠJ": 444,
      "ies": 445,
      "Ġknow": 446,
      "ile": 447,
      "ward": 448,
      "ark": 449,
      "dd": 450,
      "Ġey": 451,
      "ove": 452,
      "Ġtime": 453,
      "Ġha": 454,
      "self": 455,
      "sh": 456,
      "ĠProject": 457,
      "Ġthen": 458,
      "Ġfl": 459,
      "Ġcar": 460,
      "Ġpro": 461,
      "Ġnow": 462,
      "Ġother": 463,
      "ull": 464,
      "Ġtw": 465,
      "pl": 466,
      "Ġwent": 467,
      "Ġwhat": 468,
      "ĠGutenberg": 469,
      "He": 470,
      "ĊĊ": 471,
      "Ġwhich": 472,
      "te": 473,
      "ree": 474,
      "Ġpe": 475,
      "ted": 476,
      "ĠL": 477,
      "Ġdon": 478,
      "Ġgr": 479,
      "ouse": 480,
      "Ġthing": 481,
      "Ġac": 482,
      "Ġcan": 483,
      "Ġbefore": 484,
      "Ġsee": 485,
      "Ġmore": 486,
      "Ġare": 487,
      "Ġbl": 488,
      "ab": 489,
      "ake": 490,
      "but": 491,
      "Ġget": 492,
      "Ġrem": 493,
      "Ġeyes": 494,
      "omet": 495,
      "Ġpl": 496,
      "of": 497,
      "Ġim": 498,
      "Ġway": 499,
      "Ġwant": 500,
      "Ġsm": 501,
      "ance": 502,
      "ron": 503,
      "Ġdis": 504,
      "ĠMr": 505,
      "ness": 506,
      "oment": 507,
      "ry": 508,
      "Ġqu": 509,
      "Ġgl": 510,
      "ade": 511,
      "Ġbeg": 512,
      "ru": 513,
      "Ġsaw": 514,
      "Ġoff": 515,
      "less": 516,
      "Ġthr": 517,
      "Ġgot": 518,
      "Ġlooked": 519,
      "Ġold": 520,
      "Ġhouse": 521,
      "Ġfe": 522,
      "!âĢĿ": 523,
      "li": 524,
      "ving": 525,
      "ting": 526,
      "Ġunder": 527,
      "ople": 528,
      "ĠâĢ": 529,
      "Ġmoment": 530,
      "Ġday": 531,
      "Ġthink": 532,
      "Ġnight": 533,
      "gg": 534,
      "ment": 535,
      "ang": 536,
      "Ġpre": 537,
      "It": 538,
      "Ġaway": 539,
      "Ġturn": 540,
      "oon": 541,
      "Ġupon": 542,
      "Ġvery": 543,
      "Ġtheir": 544,
      "Ġlong": 545,
      "act": 546,
      "Ġyour": 547,
      "sp": 548,
      "we": 549,
      "âĦ": 550,
      "Ġam": 551,
      "Ġper": 552,
      "âĦ¢": 553,
      "orn": 554,
      "ils": 555,
      "Ġwould": 556,
      "Ġpo": 557,
      "Ġpart": 558,
      "Ġdoor": 559,
      "ft": 560,
      "air": 561,
      "cl": 562,
      "uch": 563,
      "ĠBut": 564,
      "Ġlight": 565,
      "ody": 566,
      "Ġpeople": 567,
      "iss": 568,
      "ci": 569,
      "irst": 570,
      "for": 571,
      "his": 572,
      "tain": 573,
      "Ġjust": 574,
      "other": 575,
      "Ġthrough": 576,
      "age": 577,
      "nt": 578,
      "Ġhere": 579,
      "ather": 580,
      "ions": 581,
      "Ġseem": 582,
      "be": 583,
      "ty": 584,
      "Ġco": 585,
      "ue": 586,
      "ute": 587,
      "Ġdidn": 588,
      "ire": 589,
      "ence": 590,
      "ilson": 591,
      "Ġsl": 592,
      "Ġsomet": 593,
      "ently": 594,
      "ud": 595,
      "Ġfo": 596,
      "Ġcome": 597,
      "ary": 598,
      "--------------------------------": 599,
      "lect": 600,
      "Ġeven": 601,
      "lock": 602,
      "Ġtwo": 603,
      "ited": 604,
      "ne": 605,
      "Ġmade": 606,
      "ĠThen": 607,
      "ordan": 608,
      "pen": 609,
      "irl": 610,
      "that": 611,
      "thing": 612,
      "Ġwhere": 613,
      "pped": 614,
      "Ġbr": 615,
      "ng": 616,
      "Ġvo": 617,
      "Ġmin": 618,
      "Ġmust": 619,
      "ily": 620,
      "ause": 621,
      "Ġturned": 622,
      "ose": 623,
      "anc": 624,
      "Ġseemed": 625,
      "Ġits": 626,
      "Ġfirst": 627,
      "Ġcop": 628,
      "Ġen": 629,
      "Ġevery": 630,
      "ĠAnd": 631,
      "Ġface": 632,
      "Ġthought": 633,
      "Ġonly": 634,
      "co": 635,
      "Ġlast": 636,
      "ĠShe": 637,
      "row": 638,
      "Ġgre": 639,
      "âĢĶâĢĿ": 640,
      "Ġtoward": 641,
      "Ġbegan": 642,
      "ared": 643,
      "ĠWilson": 644,
      "Ġaround": 645,
      "Ġsomething": 646,
      "ms": 647,
      "per": 648,
      "Ġgirl": 649,
      "Ġyear": 650,
      "Ġwhite": 651,
      "ement": 652,
      "Ġgoing": 653,
      "bl": 654,
      "iv": 655,
      "ory": 656,
      "ife": 657,
      "end": 658,
      "Ġapp": 659,
      "Ġla": 660,
      "dden": 661,
      "ten": 662,
      "Ġbec": 663,
      "Ġnever": 664,
      "She": 665,
      "get": 666,
      "was": 667,
      "cept": 668,
      "Ġroom": 669,
      "ations": 670,
      "ious": 671,
      "con": 672,
      "hy": 673,
      "ĠY": 674,
      "Ġsay": 675,
      "Ġhead": 676,
      "alf": 677,
      "ĠJordan": 678,
      "ĠĠĠ": 679,
      "cess": 680,
      "Ġwa": 681,
      "Ġsc": 682,
      "ĠĠĠĠĠĠĠĠĠĠĠĠĠĠĠĠ": 683,
      "Ġnew": 684,
      "Ġcont": 685,
      "We": 686,
      "ired": 687,
      "Ġcl": 688,
      "Ġdark": 689,
      "ĠTime": 690,
      "Ġtook": 691,
      "ild": 692,
      "Ġopen": 693,
      "Ġfound": 694,
      "oved": 695,
      "Ġbo": 696,
      "Ġdist": 697,
      "Ġthan": 698,
      "Ġknew": 699,
      "Ġvoice": 700,
      "Ġthese": 701,
      "ĠIn": 702,
      "ĠU": 703,
      "Ġob": 704,
      "ish": 705,
      "ĠWe": 706,
      "elt": 707,
      "Ġimp": 708,
      "Ġcopy": 709,
      "Ġright": 710,
      "Ġown": 711,
      "ork": 712,
      "Ġdri": 713,
      "ical": 714,
      "What": 715,
      "ex": 716,
      "su": 717,
      "side": 718,
      "und": 719,
      "ph": 720,
      "with": 721,
      "Ġstr": 722,
      "iz": 723,
      "read": 724,
      "Ġmat": 725,
      "ible": 726,
      "ĠYou": 727,
      "Ġwind": 728,
      "ase": 729,
      "Ġbet": 730,
      "Ġstart": 731,
      "mer": 732,
      "Ġour": 733,
      "Ġhalf": 734,
      "Ġbro": 735,
      "Ġcall": 736,
      "llow": 737,
      "aking": 738,
      "Ġcomp": 739,
      "aps": 740,
      "ĠâĢ¦": 741,
      "til": 742,
      "hes": 743,
      "ie": 744,
      "ddenly": 745,
      "ross": 746,
      "ribut": 747,
      "inn": 748,
      "Ġsw": 749,
      "Ġmen": 750,
      "les": 751,
      "Ġdes": 752,
      "ool": 753,
      "Ġsun": 754,
      "achine": 755,
      "Ġhands": 756,
      "ful": 757,
      "Ġter": 758,
      "Ġhow": 759,
      "Ġtold": 760,
      "alk": 761,
      "Ġstill": 762,
      "Ġind": 763,
      "Ġanother": 764,
      "Ġexp": 765,
      "Gatsby": 766,
      "med": 767,
      "noon": 768,
      "ĠR": 769,
      "ertain": 770,
      "Ġfelt": 771,
      "ange": 772,
      "Ġheard": 773,
      "Ġuntil": 774,
      "Ġsat": 775,
      "ens": 776,
      "Ġcou": 777,
      "alked": 778,
      "Ġleft": 779,
      "Ġsport": 780,
      "room": 781,
      "Ġwhile": 782,
      "app": 783,
      "os": 784,
      "ened": 785,
      "Ġgreat": 786,
      "ever": 787,
      "fe": 788,
      "Ġmuch": 789,
      "Ġyoung": 790,
      "led": 791,
      "old": 792,
      "ery": 793,
      "ater": 794,
      "avell": 795,
      "Ġagainst": 796,
      "Ġfollow": 797,
      "body": 798,
      "ched": 799,
      "ee": 800,
      "had": 801,
      "ky": 802,
      "pe": 803,
      "Ġwill": 804,
      "Ġhour": 805,
      "Ġend": 806,
      "Ġasked": 807,
      "Ġworld": 808,
      "Ġalong": 809,
      "ways": 810,
      "most": 811,
      "ĊĠĠĠĠ": 812,
      "Ġke": 813,
      "Ġhapp": 814,
      "Ġad": 815,
      "Ġfull": 816,
      "Ġname": 817,
      "Ġrest": 818,
      "ĠThey": 819,
      "ĠNew": 820,
      "Ġworks": 821,
      "ronic": 822,
      "lectronic": 823,
      "Ġyears": 824,
      "Ġbecause": 825,
      "That": 826,
      "Ġmay": 827,
      "ise": 828,
      "Ġshould": 829,
      "ĠSt": 830,
      "Ġsmall": 831,
      "Ġminute": 832,
      "wh": 833,
      "Ġlau": 834,
      "Ġwithout": 835,
      "ied": 836,
      "Ġwell": 837,
      "ained": 838,
      "Ġsupp": 839,
      "Ġpres": 840,
      "ip": 841,
      "xt": 842,
      "int": 843,
      "imes": 844,
      "Ġlet": 845,
      "gether": 846,
      "my": 847,
      "Ġtell": 848,
      "Ġthree": 849,
      "ows": 850,
      "aker": 851,
      "ail": 852,
      "igh": 853,
      "ves": 854,
      "Ġ1": 855,
      "ars": 856,
      "Ġthings": 857,
      "so": 858,
      "Ġset": 859,
      "Ġsur": 860,
      "Ġint": 861,
      "olf": 862,
      "ale": 863,
      "ek": 864,
      "Ġmight": 865,
      "Ġsil": 866,
      "Ġdr": 867,
      "Ġpol": 868,
      "Ġseen": 869,
      "Ġsuch": 870,
      "Ġsuddenly": 871,
      "orning": 872,
      "Oh": 873,
      "me": 874,
      "you": 875,
      "Ġwom": 876,
      "ath": 877,
      "Ġmar": 878,
      "Ġmake": 879,
      "ense": 880,
      "ĠWest": 881,
      "Ġconf": 882,
      "Ġafternoon": 883,
      "Ġinv": 884,
      "Ġonce": 885,
      "Ġword": 886,
      "az": 887,
      "ren": 888,
      "rest": 889,
      "Ġmet": 890,
      "Ġmost": 891,
      "ither": 892,
      "ished": 893,
      "ĠIf": 894,
      "Ġthough": 895,
      "Ġpass": 896,
      "ĠTr": 897,
      "Ġmyself": 898,
      "ected": 899,
      "ign": 900,
      "Well": 901,
      "sol": 902,
      "up": 903,
      "Ġtable": 904,
      "ates": 905,
      "ĠBaker": 906,
      "Ġalone": 907,
      "ront": 908,
      "lie": 909,
      "haps": 910,
      "not": 911,
      "sit": 912,
      "Ġte": 913,
      "Ġcour": 914,
      "Ġclo": 915,
      "Ġeach": 916,
      "Ġspe": 917,
      "Ġlooking": 918,
      "Ġamong": 919,
      "gr": 920,
      "ual": 921,
      "Ġent": 922,
      "arm": 923,
      "Ġput": 924,
      "Ġlife": 925,
      "Ġwasn": 926,
      "amp": 927,
      "oundation": 928,
      "br": 929,
      "ial": 930,
      "ret": 931,
      "Ġche": 932,
      "Ġcol": 933,
      "Ġpers": 934,
      "Ġear": 935,
      "Ġreal": 936,
      "ellow": 937,
      "Ġslow": 938,
      "ying": 939,
      "iness": 940,
      "Ġmorning": 941,
      "Ġmean": 942,
      "ced": 943,
      "com": 944,
      "ged": 945,
      "iar": 946,
      "light": 947,
      "Ġair": 948,
      "Ġph": 949,
      "Ġstood": 950,
      "ĠThere": 951,
      "Ġnext": 952,
      "ĠFoundation": 953,
      "Ġfeel": 954,
      "pr": 955,
      "ined": 956,
      "rem": 957,
      "Ġcried": 958,
      "Ġever": 959,
      "arden": 960,
      "ĠHis": 961,
      "ously": 962,
      "Ġalways": 963,
      "Ġnothing": 964,
      "Ġagre": 965,
      "There": 966,
      "But": 967,
      "sw": 968,
      "Ġside": 969,
      "aint": 970,
      "ular": 971,
      "Ġremem": 972,
      "Daisy": 973,
      "cur": 974,
      "ded": 975,
      "ually": 976,
      "Ġsound": 977,
      "res": 978,
      "ating": 979,
      "Ġcertain": 980,
      "Ġelectronic": 981,
      "riend": 982,
      "ĠMiss": 983,
      "Ġacross": 984,
      "ably": 985,
      "ĠYork": 986,
      "Ġterms": 987,
      "And": 988,
      "oc": 989,
      "Ġsame": 990,
      "Ġcr": 991,
      "stand": 992,
      "ĠâĢĺ": 993,
      "aveller": 994,
      "full": 995,
      "iem": 996,
      "ling": 997,
      "now": 998,
      "Ġhard": 999,
      "Ġcare": 1000,
      "Ġinter": 1001,
      "Ġinqu": 1002,
      "Ġeff": 1003,
      "imp": 1004,
      "Ġstand": 1005,
      "Ġrather": 1006,
      "ĠAt": 1007,
      "oney": 1008,
      "shiem": 1009,
      "ween": 1010,
      "olfshiem": 1011,
      "lp": 1012,
      "iter": 1013,
      "Ġfam": 1014,
      "ised": 1015,
      "Ġdro": 1016,
      "leep": 1017,
      "ank": 1018,
      "Ġlove": 1019,
      "Ġgone": 1020,
      "Ġem": 1021,
      "ident": 1022,
      "ĠMy": 1023,
      "Ġlawn": 1024,
      "ĊĠĠĠĠĠĠĠ": 1025,
      "No": 1026,
      "man": 1027,
      "where": 1028,
      "Ġfour": 1029,
      "Ġfind": 1030,
      "Ġdress": 1031,
      "Ġgood": 1032,
      "ality": 1033,
      "Ġhimself": 1034,
      "ression": 1035,
      "clud": 1036,
      "ib": 1037,
      "turn": 1038,
      "Ġmove": 1039,
      "Ġbus": 1040,
      "Ġfar": 1041,
      "Ġfew": 1042,
      "ĠTraveller": 1043,
      "ond": 1044,
      "Ġadd": 1045,
      "ream": 1046,
      "Ġhome": 1047,
      "Ġtogether": 1048,
      "aces": 1049,
      "there": 1050,
      "unn": 1051,
      "ushed": 1052,
      "Ġexpl": 1053,
      "ately": 1054,
      "ĠEgg": 1055,
      "Ġbetween": 1056,
      "Ġthose": 1057,
      "Ġstep": 1058,
      "Ġansw": 1059,
      "emand": 1060,
      "raw": 1061,
      "Ġplace": 1062,
      "form": 1063,
      "fully": 1064,
      "from": 1065,
      "Ġmind": 1066,
      "Ġfive": 1067,
      "arge": 1068,
      "Ġhelp": 1069,
      "ĠWolfshiem": 1070,
      "antly": 1071,
      "Ġwanted": 1072,
      "Ġdays": 1073,
      "This": 1074,
      "Ġtake": 1075,
      "Ġsent": 1076,
      "outh": 1077,
      "Ġhas": 1078,
      "Ġbright": 1079,
      "Ġfriend": 1080,
      "ings": 1081,
      "Ġgave": 1082,
      "Ġgarden": 1083,
      "Ġfeet": 1084,
      "ggest": 1085,
      "airs": 1086,
      "Ġdistribut": 1087,
      "aut": 1088,
      "oke": 1089,
      "sc": 1090,
      "tr": 1091,
      "uri": 1092,
      "Ġide": 1093,
      "Ġwat": 1094,
      "erv": 1095,
      "Ġmoney": 1096,
      "ena": 1097,
      "arage": 1098,
      "Ġpar": 1099,
      "Ġbelie": 1100,
      "ayed": 1101,
      "Ġvi": 1102,
      "ures": 1103,
      "Ġdec": 1104,
      "Ġblack": 1105,
      "undred": 1106,
      "ax": 1107,
      "ock": 1108,
      "ps": 1109,
      "tered": 1110,
      "Ġsit": 1111,
      "rew": 1112,
      "Ġdemand": 1113,
      "Ġinc": 1114,
      "ached": 1115,
      "ments": 1116,
      "Ġcalled": 1117,
      "how": 1118,
      "hind": 1119,
      "iet": 1120,
      "ler": 1121,
      "Ġmoved": 1122,
      "Ġfront": 1123,
      "Ġdim": 1124,
      "ane": 1125,
      "Ġgu": 1126,
      "ict": 1127,
      "Ġel": 1128,
      "ĠWhen": 1129,
      "ung": 1130,
      "Ġalmost": 1131,
      "Ġrose": 1132,
      "Ġacc": 1133,
      "locks": 1134,
      "ready": 1135,
      "Ġcourse": 1136,
      "clock": 1137,
      "day": 1138,
      "uct": 1139,
      "Ġ(": 1140,
      "Ġbu": 1141,
      "orm": 1142,
      "Ġpr": 1143,
      "Ġref": 1144,
      "ĠAs": 1145,
      "ĠFor": 1146,
      "Ġflow": 1147,
      "Ġstarted": 1148,
      "Ġinquired": 1149,
      "ix": 1150,
      "vid": 1151,
      "Ġwr": 1152,
      "Ġwalked": 1153,
      "Ġbig": 1154,
      "Ġfell": 1155,
      "Ġinclud": 1156,
      "Ġhear": 1157,
      "vers": 1158,
      "iled": 1159,
      "Ġexc": 1160,
      "uman": 1161,
      "Ġroad": 1162,
      "Ġcomm": 1163,
      "Ġsurpr": 1164,
      "00": 1165,
      "de": 1166,
      "eared": 1167,
      "fect": 1168,
      "ĠV": 1169,
      "Ġed": 1170,
      "Ġbot": 1171,
      "Ġbreat": 1172,
      "Ġcir": 1173,
      "Ġread": 1174,
      "ĠMor": 1175,
      "aph": 1176,
      "ively": 1177,
      "Ġgreen": 1178,
      "Ġlaw": 1179,
      "Ġcopyright": 1180,
      "opped": 1181,
      "she": 1182,
      "Ġri": 1183,
      "Ġsort": 1184,
      "Ġmachine": 1185,
      "ener": 1186,
      "ingly": 1187,
      "Ġinte": 1188,
      "anan": 1189,
      "eside": 1190,
      "Ġanything": 1191,
      "Ġcouldn": 1192,
      "Ġhair": 1193,
      "rupt": 1194,
      "uchanan": 1195,
      "----------------------------------------": 1196,
      "------------------------------------------------------------------------": 1197,
      "Ġenough": 1198,
      "Ġperson": 1199,
      "How": 1200,
      "Why": 1201,
      "land": 1202,
      "Ġtou": 1203,
      "Ġaw": 1204,
      "oun": 1205,
      "ition": 1206,
      "ister": 1207,
      "Ġdif": 1208,
      "leas": 1209,
      "Ġyellow": 1210,
      "Ġred": 1211,
      "illed": 1212,
      "used": 1213,
      "ult": 1214,
      "They": 1215,
      "aught": 1216,
      "ĠCh": 1217,
      "ĊĊĊ": 1218,
      "Ġperhaps": 1219,
      "ĠUn": 1220,
      "Book": 1221,
      "aid": 1222,
      "do": 1223,
      "ken": 1224,
      "vent": 1225,
      "Ġtried": 1226,
      "Ġsing": 1227,
      "Ġsky": 1228,
      "Ġmo": 1229,
      "Ġfaint": 1230,
      "Ġcor": 1231,
      "Ġins": 1232,
      "Ġinst": 1233,
      "Ġlater": 1234,
      "Ġgarage": 1235,
      "icense": 1236,
      "Ġform": 1237,
      "cei": 1238,
      "Ġsub": 1239,
      "Ġsuggest": 1240,
      "cond": 1241,
      "ĠWeena": 1242,
      "medi": 1243,
      "Ġidea": 1244,
      "Don": 1245,
      "ael": 1246,
      "bed": 1247,
      "Ġmur": 1248,
      "Ġmoon": 1249,
      "Ġcrow": 1250,
      "any": 1251,
      "Ġlow": 1252,
      "Ġgive": 1253,
      "Ġuse": 1254,
      "ching": 1255,
      "Ġdog": 1256,
      "ichael": 1257,
      "Ġbroke": 1258,
      "Ġpassed": 1259,
      "Ġeffort": 1260,
      "Ġcirc": 1261,
      "Do": 1262,
      "ey": 1263,
      "rtle": 1264,
      "Ġtalk": 1265,
      "head": 1266,
      "reet": 1267,
      "rent": 1268,
      "Ġhus": 1269,
      "its": 1270,
      "Ġbed": 1271,
      "Ġbook": 1272,
      "Ġbody": 1273,
      "Ġfact": 1274,
      "Ġnod": 1275,
      "ically": 1276,
      "Ġweek": 1277,
      "Ġwhis": 1278,
      "iliar": 1279,
      "Ġru": 1280,
      "Ġshort": 1281,
      "Ġdoes": 1282,
      "Ġkind": 1283,
      "ĠDo": 1284,
      "Ġalready": 1285,
      "ĠNick": 1286,
      "ĠOn": 1287,
      "Ġtowards": 1288,
      "Ġagreement": 1289,
      "In": 1290,
      "got": 1291,
      "pro": 1292,
      "Ġtax": 1293,
      "Ġaut": 1294,
      "Ġmon": 1295,
      "Ġhot": 1296,
      "Ġcle": 1297,
      "orld": 1298,
      "leph": 1299,
      "Ġlay": 1300,
      "Ġgro": 1301,
      "ĠeBook": 1302,
      "ĠThat": 1303,
      "Ġatt": 1304,
      "Ġarri": 1305,
      "Ġblue": 1306,
      "ĠMrs": 1307,
      "anced": 1308,
      "iously": 1309,
      "Ġwoman": 1310,
      "Ġremember": 1311,
      "ĠMorlocks": 1312,
      "Tom": 1313,
      "cul": 1314,
      "ead": 1315,
      "just": 1316,
      "og": 1317,
      "onder": 1318,
      "sy": 1319,
      "ught": 1320,
      "Ġsin": 1321,
      "Ġought": 1322,
      "ene": 1323,
      "Ġprom": 1324,
      "Ġpast": 1325,
      "Ġbehind": 1326,
      "ĠBuchanan": 1327,
      "Ġmany": 1328,
      "Ġquick": 1329,
      "Ġevening": 1330,
      "Ġeverything": 1331,
      "Ġwait": 1332,
      "Ġhappened": 1333,
      "Ġsteps": 1334,
      "Ġdemanded": 1335,
      "ichaelis": 1336,
      "Wh": 1337,
      "When": 1338,
      "fin": 1339,
      "over": 1340,
      "zen": 1341,
      "oud": 1342,
      "Ġhall": 1343,
      "Ġhigh": 1344,
      "enc": 1345,
      "ening": 1346,
      "Ġbeside": 1347,
      "Ġflo": 1348,
      "Ġcuri": 1349,
      "orrow": 1350,
      "ason": 1351,
      "otion": 1352,
      "ific": 1353,
      "ago": 1354,
      "Ġless": 1355,
      "Ġago": 1356,
      "Ġchild": 1357,
      "Ġwhole": 1358,
      "Ġunderstand": 1359,
      "Ġgrey": 1360,
      "Ġcontin": 1361,
      "Ġmatter": 1362,
      "Ġfollowed": 1363,
      "solute": 1364,
      "av": 1365,
      "bo": 1366,
      "low": 1367,
      "look": 1368,
      "oy": 1369,
      "ring": 1370,
      "rch": 1371,
      "Ġaff": 1372,
      "Ġfore": 1373,
      "ĠIs": 1374,
      "Ġdet": 1375,
      "lete": 1376,
      "ention": 1377,
      "ĠGod": 1378,
      "tern": 1379,
      "Ġshad": 1380,
      "ump": 1381,
      "Ġused": 1382,
      "overed": 1383,
      "iterary": 1384,
      "ĠUnited": 1385,
      "Ġmurm": 1386,
      "Mr": 1387,
      "ued": 1388,
      "zy": 1389,
      "Ġact": 1390,
      "rees": 1391,
      "Ġhold": 1392,
      "Ġfut": 1393,
      "Ġfall": 1394,
      "aned": 1395,
      "ĠTh": 1396,
      "ames": 1397,
      "Ġran": 1398,
      "ection": 1399,
      "ĠEast": 1400,
      "ressed": 1401,
      "like": 1402,
      "Ġposs": 1403,
      "ances": 1404,
      "inner": 1405,
      "EN": 1406,
      "II": 1407,
      "inct": 1408,
      "ities": 1409,
      "Ġfire": 1410,
      "ors": 1411,
      "Ġtown": 1412,
      "ash": 1413,
      "Ġdel": 1414,
      "aring": 1415,
      "Ġheart": 1416,
      "adem": 1417,
      "icago": 1418,
      "veral": 1419,
      "Ġreturn": 1420,
      "Ġhadn": 1421,
      "empt": 1422,
      "Ġsum": 1423,
      "Ġsure": 1424,
      "Ġrain": 1425,
      "agr": 1426,
      "ĠSo": 1427,
      "Ġlea": 1428,
      "Ġdisc": 1429,
      "Ġgirls": 1430,
      "Ġopened": 1431,
      "Ġbetter": 1432,
      "Ġkeep": 1433,
      "Ġmarried": 1434,
      "As": 1435,
      "At": 1436,
      "Gutenberg": 1437,
      "ghed": 1438,
      "ĊĠĠĠ": 1439,
      "Ġlarge": 1440,
      "idd": 1441,
      "ĠTH": 1442,
      "Ġitself": 1443,
      "Ġstared": 1444,
      "Ġrep": 1445,
      "ages": 1446,
      "ope": 1447,
      "Ġdeep": 1448,
      "Ġplay": 1449,
      "Ġglass": 1450,
      "Ġcold": 1451,
      "Ġbrought": 1452,
      "cont": 1453,
      "Ġobject": 1454,
      "Ġbusiness": 1455,
      "Ġinterest": 1456,
      "lephone": 1457,
      "rchive": 1458,
      "ademark": 1459,
      "agraph": 1460,
      "king": 1461,
      "oss": 1462,
      "some": 1463,
      "use": 1464,
      "ĠK": 1465,
      "oub": 1466,
      "orge": 1467,
      "Ġhesit": 1468,
      "als": 1469,
      "ĠThis": 1470,
      "Ġstru": 1471,
      "Ġround": 1472,
      "Ġleast": 1473,
      "Ġtrying": 1474,
      "ears": 1475,
      "Ġimmedi": 1476,
      "ized": 1477,
      "Ġwindows": 1478,
      "Ġslowly": 1479,
      "ĠMyrtle": 1480,
      "Ġbelieve": 1481,
      "Yes": 1482,
      "der": 1483,
      "part": 1484,
      "Ġtimes": 1485,
      "inted": 1486,
      "Ġwar": 1487,
      "Ġsn": 1488,
      "Ġsleep": 1489,
      "Ġoc": 1490,
      "ering": 1491,
      "Ġmouth": 1492,
      "Ġhur": 1493,
      "Ġdust": 1494,
      "Ġpale": 1495,
      "owing": 1496,
      "Ġreached": 1497,
      "Ġwhy": 1498,
      "amed": 1499,
      "ĠMan": 1500,
      "ĠMachine": 1501,
      "Ġdozen": 1502,
      "Ġabs": 1503,
      "isted": 1504,
      "Ġanyone": 1505,
      "Ġneed": 1506,
      "Ġarm": 1507,
      "hys": 1508,
      "Ġbreath": 1509,
      "Ġsince": 1510,
      "Look": 1511,
      "cK": 1512,
      "ford": 1513,
      "ned": 1514,
      "ob": 1515,
      "under": 1516,
      "ins": 1517,
      "ining": 1518,
      "Ġwife": 1519,
      "Ġfin": 1520,
      "Ġcreat": 1521,
      "Ġloved": 1522,
      "Ġstop": 1523,
      "irt": 1524,
      "ĠAfter": 1525,
      "Ġlive": 1526,
      "unch": 1527,
      "Ġbutler": 1528,
      "Ġexcept": 1529,
      "umber": 1530,
      "ĠLiterary": 1531,
      "Ġdonations": 1532,
      "Ġquest": 1533,
      "ission": 1534,
      "Ġcoat": 1535,
      "Ġfoot": 1536,
      "Ġdarkness": 1537,
      "Ġdrive": 1538,
      "ĠStates": 1539,
      "Ġclose": 1540,
      "Ġstanding": 1541,
      "Ġanswered": 1542,
      "Ġparagraph": 1543,
      "Ġfuture": 1544,
      "Then": 1545,
      "aim": 1546,
      "che": 1547,
      "found": 1548,
      "ian": 1549,
      "uc": 1550,
      "ze": 1551,
      "Ġwhe": 1552,
      "atur": 1553,
      "atter": 1554,
      "Ġfr": 1555,
      "Ġfree": 1556,
      "Ġcre": 1557,
      "Ġdream": 1558,
      "Ġheld": 1559,
      "utes": 1560,
      "Ġbeing": 1561,
      "Ġbeaut": 1562,
      "Ġforth": 1563,
      "Ġsec": 1564,
      "Ġsecond": 1565,
      "olog": 1566,
      "ager": 1567,
      "Ġtrain": 1568,
      "itely": 1569,
      "lessly": 1570,
      "Ġparty": 1571,
      "cial": 1572,
      "Ġstrange": 1573,
      "Ġfeeling": 1574,
      "Ġsummer": 1575,
      "Come": 1576,
      "My": 1577,
      "after": 1578,
      "tty": 1579,
      "uck": 1580,
      "would": 1581,
      "Ã©": 1582,
      "Ġver": 1583,
      "Ġir": 1584,
      "Ġwarm": 1585,
      "Ġswe": 1586,
      "oured": 1587,
      "Ġbre": 1588,
      "Ġce": 1589,
      "Ġdinner": 1590,
      "utter": 1591,
      "ets": 1592,
      "Ġstory": 1593,
      "Ġstopped": 1594,
      "Ġseveral": 1595,
      "ĠHer": 1596,
      "Ġchair": 1597,
      "Ġarms": 1598,
      "arent": 1599,
      "Ġaccess": 1600,
      "Ġgetting": 1601,
      "anged": 1602,
      "Ġlonger": 1603,
      "Ġwouldn": 1604,
      "claim": 1605,
      "irect": 1606,
      "Ġgrew": 1607,
      "Ġboy": 1608,
      "Ġwindow": 1609,
      "Ġcoup": 1610,
      "Ġcount": 1611,
      "osed": 1612,
      "Ġdrove": 1613,
      "formation": 1614,
      "Project": 1615,
      "dis": 1616,
      "ia": 1617,
      "oing": 1618,
      "uff": 1619,
      "ww": 1620,
      "Ġwall": 1621,
      "erm": 1622,
      "Ġhundred": 1623,
      "itions": 1624,
      "Ġfig": 1625,
      "Ġcool": 1626,
      "ising": 1627,
      "orch": 1628,
      "arly": 1629,
      "Ġpay": 1630,
      "Ġgh": 1631,
      "str": 1632,
      "ster": 1633,
      "stairs": 1634,
      "Ġrequ": 1635,
      "Ġrecei": 1636,
      "ants": 1637,
      "Ġshook": 1638,
      "Ġsoon": 1639,
      "Ġext": 1640,
      "aper": 1641,
      "Ġprot": 1642,
      "Ġprov": 1643,
      "Ġoffice": 1644,
      "were": 1645,
      "Ġtelephone": 1646,
      "Ġclos": 1647,
      "Ġflowers": 1648,
      "Ġdiffe": 1649,
      "leasant": 1650,
      "Ġinsisted": 1651,
      "Ġfloor": 1652,
      "aw": 1653,
      "even": 1654,
      "ny": 1655,
      "night": 1656,
      "vil": 1657,
      "Ġtalked": 1658,
      "Ġwalk": 1659,
      "ons": 1660,
      "Ġcity": 1661,
      "org": 1662,
      "Ġdoub": 1663,
      "Ġinside": 1664,
      "arp": 1665,
      "arr": 1666,
      "Ġpow": 1667,
      "Ġpull": 1668,
      "Ġphys": 1669,
      "Ġlim": 1670,
      "Ġlate": 1671,
      "Ġloc": 1672,
      "Ġheat": 1673,
      "ices": 1674,
      "Ġreg": 1675,
      "uring": 1676,
      "this": 1677,
      "ĠMichaelis": 1678,
      "Ġabove": 1679,
      "Ġcons": 1680,
      "aken": 1681,
      "abor": 1682,
      "Ġdisapp": 1683,
      "Ġpretty": 1684,
      "ivid": 1685,
      "Ġviol": 1686,
      "Ġboth": 1687,
      "Ġlaws": 1688,
      "ĠChicago": 1689,
      "Ġnodded": 1690,
      "ĠIsland": 1691,
      "cKee": 1692,
      "RE": 1693,
      "een": 1694,
      "Ġwonder": 1695,
      "Ġhor": 1696,
      "Ġfre": 1697,
      "Ġfing": 1698,
      "Ġdam": 1699,
      "Ġdraw": 1700,
      "arg": 1701,
      "Ġyet": 1702,
      "rible": 1703,
      "Ġask": 1704,
      "pping": 1705,
      "ards": 1706,
      "Ġrun": 1707,
      "ape": 1708,
      "akes": 1709,
      "Ġcoming": 1710,
      "Ġcompl": 1711,
      "ĠOne": 1712,
      "iles": 1713,
      "Ġcannot": 1714,
      "Ġexpression": 1715,
      "Ġlaughed": 1716,
      "Ġsuppose": 1717,
      "Ġfamily": 1718,
      "Ġsuggested": 1719,
      "Ġquickly": 1720,
      "Ab": 1721,
      "All": 1722,
      "IT": 1723,
      "band": 1724,
      "ches": 1725,
      "little": 1726,
      "mit": 1727,
      "tes": 1728,
      "work": 1729,
      "Ġtrees": 1730,
      "Ġwild": 1731,
      "Ġhill": 1732,
      "eng": 1733,
      "Ġfaces": 1734,
      "Ġcas": 1735,
      "Ġcur": 1736,
      "ased": 1737,
      "Ġpur": 1738,
      "Ġlost": 1739,
      "Ġgener": 1740,
      "add": 1741,
      "aded": 1742,
      "icular": 1743,
      "Ġreally": 1744,
      "ĠWhat": 1745,
      "ĠArchive": 1746,
      "aged": 1747,
      "Ġisn": 1748,
      "Ġtrademark": 1749,
      "Ġgold": 1750,
      "ĠOF": 1751,
      "bled": 1752,
      "Ġwaited": 1753,
      "Ġwomen": 1754,
      "Ġearth": 1755,
      "comp": 1756,
      "ibly": 1757,
      "Ġarrived": 1758,
      "Who": 1759,
      "So": 1760,
      "gro": 1761,
      "world": 1762,
      "Ġsight": 1763,
      "ative": 1764,
      "Ġhuman": 1765,
      "Ġhope": 1766,
      "itor": 1767,
      "Ġcra": 1768,
      "Ġtom": 1769,
      "ashed": 1770,
      "let": 1771,
      "lease": 1772,
      "Ġnumber": 1773,
      "aced": 1774,
      "alt": 1775,
      "Ġwithin": 1776,
      "antic": 1777,
      "Ġsharp": 1778,
      "ĠSome": 1779,
      "Ġoutside": 1780,
      "Ġabsolute": 1781,
      "Ġsoft": 1782,
      "usion": 1783,
      "Ġtran": 1784,
      "Ġground": 1785,
      "Ġgrass": 1786,
      "Ġaccept": 1787,
      "about": 1788,
      "rying": 1789,
      "Ġglanced": 1790,
      "Ġfee": 1791,
      "Ġpock": 1792,
      "Ġminutes": 1793,
      "ancing": 1794,
      "Ġwatch": 1795,
      "Ġdoubt": 1796,
      "col": 1797,
      "eorge": 1798,
      "sum": 1799,
      "xford": 1800,
      "Ġtrem": 1801,
      "Ġwon": 1802,
      "erable": 1803,
      "atory": 1804,
      "Ġmod": 1805,
      "Ġmine": 1806,
      "Ġfool": 1807,
      "Ġcig": 1808,
      "arked": 1809,
      "aning": 1810,
      "lled": 1811,
      "Ġporch": 1812,
      "icem": 1813,
      "Ġeager": 1814,
      "Ġrel": 1815,
      "ird": 1816,
      "irty": 1817,
      "Ġforward": 1818,
      "they": 1819,
      "iful": 1820,
      "Ġdoing": 1821,
      "unt": 1822,
      "Ġtrou": 1823,
      "Ġchange": 1824,
      "Ġsomebody": 1825,
      "ĠNo": 1826,
      "raid": 1827,
      "ĠLong": 1828,
      "Ġparticular": 1829,
      "ciated": 1830,
      "atherine": 1831,
      "bling": 1832,
      "ĠĠĠĠĠĠĠĠĠĠĠĠĠĠĠĠĠĠĠĠĠĠĠĠĠĠĠĠĠĠĠĠ": 1833,
      "Ġbroken": 1834,
      "Ġcomplete": 1835,
      "inning": 1836,
      "Ġkept": 1837,
      "Ġshoulder": 1838,
      "Ġdrink": 1839,
      "Ġwords": 1840,
      "Ġspeak": 1841,
      "Ġcolour": 1842,
      "Ġhusband": 1843,
      "Ġwhisp": 1844,
      "Ġmonth": 1845,
      "Ġdeterm": 1846,
      "Ġmurmur": 1847,
      "Ġimmediately": 1848,
      "Ġtomorrow": 1849,
      "iceman": 1850,
      "CT": 1851,
      "ER": 1852,
      "awn": 1853,
      "gutenberg": 1854,
      "uge": 1855,
      "yond": 1856,
      "Ġsign": 1857,
      "Ġsimp": 1858,
      "ount": 1859,
      "ism": 1860,
      "Ġlad": 1861,
      "stood": 1862,
      "Ġrepe": 1863,
      "ified": 1864,
      "Ġrais": 1865,
      "ĠAll": 1866,
      "Ġleg": 1867,
      "Ġleave": 1868,
      "ousand": 1869,
      "Ġconc": 1870,
      "ĠLicense": 1871,
      "Ġremarked": 1872,
      "rug": 1873,
      "Ġexplained": 1874,
      "Ġsitting": 1875,
      "Ġcrowd": 1876,
      "gotten": 1877,
      "Ġghost": 1878,
      "Did": 1879,
      "Her": 1880,
      "Jordan": 1881,
      "ding": 1882,
      "long": 1883,
      "rough": 1884,
      "wo": 1885,
      "when": 1886,
      "Ġtri": 1887,
      "inc": 1888,
      "Ġsol": 1889,
      "Ġsister": 1890,
      "Ġmed": 1891,
      "Ġmus": 1892,
      "Ġbought": 1893,
      "Ġcorn": 1894,
      "anished": 1895,
      "Ġthick": 1896,
      "Ġpool": 1897,
      "Ġline": 1898,
      "Ġmem": 1899,
      "Ġmeet": 1900,
      "oose": 1901,
      "Ġasso": 1902,
      "ility": 1903,
      "cholog": 1904,
      "ifty": 1905,
      "ĠMon": 1906,
      "ĠMcKee": 1907,
      "Ġsusp": 1908,
      "Ġshow": 1909,
      "ague": 1910,
      "Ġleaned": 1911,
      "Ġlips": 1912,
      "essed": 1913,
      "une": 1914,
      "unk": 1915,
      "Ġvis": 1916,
      "ĠCatherine": 1917,
      "Ġdead": 1918,
      "Ġcars": 1919,
      "Ġremark": 1920,
      "Ġsmiled": 1921,
      "Ġperfect": 1922,
      "Ġinde": 1923,
      "Ġfamiliar": 1924,
      "unning": 1925,
      "icture": 1926,
      "Ġsurprised": 1927,
      "Ġmoving": 1928,
      "Ġdoesn": 1929,
      "sycholog": 1930,
      "Ġcurious": 1931,
      "iddle": 1932,
      "Ġhesitated": 1933,
      "Ġoccur": 1934,
      "Ġquestion": 1935,
      "Ġphysical": 1936,
      "After": 1937,
      "St": 1938,
      "bered": 1939,
      "down": 1940,
      "fl": 1941,
      "face": 1942,
      "ium": 1943,
      "iven": 1944,
      "min": 1945,
      "mission": 1946,
      "ured": 1947,
      "vo": 1948,
      "Ġten": 1949,
      "Ġaf": 1950,
      "Ġser": 1951,
      "Ġsid": 1952,
      "Ġsick": 1953,
      "Ġserv": 1954,
      "eral": 1955,
      "Ġmot": 1956,
      "Ġmist": 1957,
      "inging": 1958,
      "Ġcost": 1959,
      "lem": 1960,
      "Ġeither": 1961,
      "rop": 1962,
      "ghter": 1963,
      "rill": 1964,
      "ĠMed": 1965,
      "pper": 1966,
      "Ġlived": 1967,
      "ush": 1968,
      "inded": 1969,
      "Ġspoke": 1970,
      "ĠEd": 1971,
      "Ġeye": 1972,
      "Ġflat": 1973,
      "issed": 1974,
      "peri": 1975,
      "Ġmatch": 1976,
      "Ġfollowing": 1977,
      "Ġlaughter": 1978,
      "ighb": 1979,
      "Ġincred": 1980,
      "Ġguest": 1981,
      "Ġincluding": 1982,
      "ency": 1983,
      "Ġcontinued": 1984,
      "Ġleaving": 1985,
      "Ġpulled": 1986,
      "Ġfresh": 1987,
      "sychologist": 1988,
      "**": 1989,
      "AR": 1990,
      "ND": 1991,
      "One": 1992,
      "Wilson": 1993,
      "aven": 1994,
      "bs": 1995,
      "ces": 1996,
      "come": 1997,
      "fort": 1998,
      "ier": 1999,
      "oes": 2000,
      "ric": 2001,
      "inx": 2002,
      "ines": 2003,
      "âĢĬ": 2004,
      "Ġsqu": 2005,
      "rect": 2006,
      "ati": 2007,
      "Ġho": 2008,
      "iting": 2009,
      "Ġbar": 2010,
      "asy": 2011,
      "Ġdone": 2012,
      "Ġinn": 2013,
      "Ġlunch": 2014,
      "enty": 2015,
      "Ġmere": 2016,
      "their": 2017,
      "ilight": 2018,
      "ĠGeorge": 2019,
      "els": 2020,
      "Ġvague": 2021,
      "istribut": 2022,
      "Ġknown": 2023,
      "ĠCody": 2024,
      "ĠOxford": 2025,
      "Ġtwilight": 2026,
      "Ġquite": 2027,
      "Ġglad": 2028,
      "Ġpoint": 2029,
      "before": 2030,
      "Ġenorm": 2031,
      "Ġbecame": 2032,
      "Ġcomply": 2033,
      "Ġsilver": 2034,
      "Ġpoliceman": 2035,
      "rence": 2036,
      "brary": 2037,
      "Ġrefund": 2038,
      "versation": 2039,
      "Ġexcited": 2040,
      "Ġshadow": 2041,
      "Ġhurried": 2042,
      "ĠcoupÃ©": 2043,
      "Ġtrouble": 2044,
      "Ġwhispered": 2045,
      "Ġassociated": 2046,
      "Ġafraid": 2047,
      ".âĢĻ": 2048,
      "His": 2049,
      "If": 2050,
      "Where": 2051,
      "du": 2052,
      "gl": 2053,
      "hand": 2054,
      "ox": 2055,
      "time": 2056,
      "Ġ2": 2057,
      "Ġapart": 2058,
      "Ġwire": 2059,
      "Ġwater": 2060,
      "Ġcal": 2061,
      "Ġcaught": 2062,
      "asp": 2063,
      "Ġdirect": 2064,
      "Ġinten": 2065,
      "arce": 2066,
      "Ġpie": 2067,
      "uth": 2068,
      "iment": 2069,
      "vel": 2070,
      "alace": 2071,
      "ays": 2072,
      "ots": 2073,
      "Ġreason": 2074,
      "Ġwhom": 2075,
      "urther": 2076,
      "ctor": 2077,
      "Ġsudden": 2078,
      "Ġrang": 2079,
      "Ġrunning": 2080,
      "ĠWh": 2081,
      "ourn": 2082,
      "Ġsomewhere": 2083,
      "Ġnose": 2084,
      "aret": 2085,
      "Ġothers": 2086,
      "Ġblind": 2087,
      "Ġoffic": 2088,
      "action": 2089,
      "Ġvoices": 2090,
      "Ġsaying": 2091,
      "ext": 2092,
      "rooms": 2093,
      "Ġhappen": 2094,
      "Ġlaugh": 2095,
      "Ġpresently": 2096,
      "upon": 2097,
      "Ġview": 2098,
      "Ġwrong": 2099,
      "Ġsingle": 2100,
      "Ġautom": 2101,
      "Ġwheel": 2102,
      "Ġcountry": 2103,
      "Ġrepeated": 2104,
      "Ġraised": 2105,
      "ĠMedical": 2106,
      "ighbour": 2107,
      "For": 2108,
      "ea": 2109,
      "every": 2110,
      "gan": 2111,
      "ming": 2112,
      "uous": 2113,
      "vol": 2114,
      "Ġ3": 2115,
      "Ġrom": 2116,
      "Ġsle": 2117,
      "Ġodd": 2118,
      "atz": 2119,
      "ature": 2120,
      "Ġmass": 2121,
      "itation": 2122,
      "Ġbad": 2123,
      "Ġcap": 2124,
      "Ġduring": 2125,
      "arra": 2126,
      "Ġpu": 2127,
      "Ġpri": 2128,
      "Ġpaid": 2129,
      "Ġnice": 2130,
      "Ġele": 2131,
      "Ġeight": 2132,
      "Ġbelow": 2133,
      "entr": 2134,
      "ented": 2135,
      "Ġur": 2136,
      "set": 2137,
      "ĠTo": 2138,
      "othes": 2139,
      "Ġstret": 2140,
      "urch": 2141,
      "Ġsea": 2142,
      "Ġliving": 2143,
      "ĠPsychologist": 2144,
      "Ġunf": 2145,
      "Ġjud": 2146,
      "ĠJay": 2147,
      "Ġhaving": 2148,
      "Ġgrave": 2149,
      "omething": 2150,
      "Ġimag": 2151,
      "Ġquality": 2152,
      "Ġquiet": 2153,
      "Ġthinking": 2154,
      "Ġsometimes": 2155,
      "ives": 2156,
      "exp": 2157,
      "which": 2158,
      "Ġpresence": 2159,
      "Ġsilent": 2160,
      "Ġtea": 2161,
      "Ġcheer": 2162,
      "Ġagreed": 2163,
      "Ġremembered": 2164,
      "Ġadded": 2165,
      "vidently": 2166,
      "Ġforever": 2167,
      "Ġcrazy": 2168,
      "lemn": 2169,
      "IS": 2170,
      "OU": 2171,
      "Of": 2172,
      "RA": 2173,
      "SE": 2174,
      "UT": 2175,
      "apped": 2176,
      "bur": 2177,
      "electronic": 2178,
      "fic": 2179,
      "him": 2180,
      "have": 2181,
      "know": 2182,
      "ls": 2183,
      "ogr": 2184,
      "rid": 2185,
      "rase": 2186,
      "ser": 2187,
      "table": 2188,
      "vi": 2189,
      "what": 2190,
      "hered": 2191,
      "Ġwet": 2192,
      "Ġwww": 2193,
      "Ġsix": 2194,
      "Ġopp": 2195,
      "Ġmaking": 2196,
      "Ġhast": 2197,
      "Ġhost": 2198,
      "Ġhuge": 2199,
      "Ġble": 2200,
      "orry": 2201,
      "Ġtow": 2202,
      "aster": 2203,
      "Ġdrew": 2204,
      "ann": 2205,
      "Ġpause": 2206,
      "Ġlit": 2207,
      "Ġnor": 2208,
      "stant": 2209,
      "store": 2210,
      "Ġeat": 2211,
      "imens": 2212,
      "Ġbeyond": 2213,
      "aying": 2214,
      "Ġreco": 2215,
      "Ġasleep": 2216,
      "then": 2217,
      "thought": 2218,
      "together": 2219,
      "anted": 2220,
      "ĠHow": 2221,
      "ĠSu": 2222,
      "Ġlever": 2223,
      "Ġanyhow": 2224,
      "Ġneighbour": 2225,
      "ĠNow": 2226,
      "Ġpoor": 2227,
      "Ġlights": 2228,
      "Ġslight": 2229,
      "meric": 2230,
      "Ġadv": 2231,
      "while": 2232,
      "Ġspec": 2233,
      "unny": 2234,
      "Ġincluded": 2235,
      "Ġtouch": 2236,
      "ĠDoctor": 2237,
      "ĠeBooks": 2238,
      "culiar": 2239,
      "ĠTHE": 2240,
      "arently": 2241,
      "Ġprovide": 2242,
      "Ġlocated": 2243,
      "Ġfingers": 2244,
      "About": 2245,
      "Ġtrembling": 2246,
      "Ġcigaret": 2247,
      "Ġoccurred": 2248,
      "Ġenormous": 2249,
      "AT": 2250,
      "Good": 2251,
      "bing": 2252,
      "bel": 2253,
      "bably": 2254,
      "cle": 2255,
      "could": 2256,
      "eur": 2257,
      "gn": 2258,
      "house": 2259,
      "lain": 2260,
      "sm": 2261,
      "tic": 2262,
      "wind": 2263,
      "Ġ_": 2264,
      "ination": 2265,
      "Ġsk": 2266,
      "nded": 2267,
      "Ġmag": 2268,
      "Ġhar": 2269,
      "Ġburn": 2270,
      "Ġfear": 2271,
      "Ġcut": 2272,
      "arch": 2273,
      "arily": 2274,
      "lege": 2275,
      "ans": 2276,
      "Ġlot": 2277,
      "Ġlist": 2278,
      "Ġgest": 2279,
      "icable": 2280,
      "Ġbeach": 2281,
      "road": 2282,
      "Ġstation": 2283,
      "Ġstate": 2284,
      "irm": 2285,
      "amiliar": 2286,
      "Ġassu": 2287,
      "iling": 2288,
      "ĠGatz": 2289,
      "iff": 2290,
      "ift": 2291,
      "Ġsuit": 2292,
      "ĠWell": 2293,
      "Ġshall": 2294,
      "Ġshirt": 2295,
      "Ġshape": 2296,
      "again": 2297,
      "ĠSound": 2298,
      "ĠSlo": 2299,
      "Ġlie": 2300,
      "Ġlibrary": 2301,
      "ouses": 2302,
      "Ġval": 2303,
      "Ġagree": 2304,
      "Ġconversation": 2305,
      "auff": 2306,
      "Ġrock": 2307,
      "Ġjump": 2308,
      "ĠJust": 2309,
      "Ġhaven": 2310,
      "Ġdispl": 2311,
      "lip": 2312,
      "Ġparties": 2313,
      "cious": 2314,
      "Ġcopies": 2315,
      "Ġappeared": 2316,
      "Ġimpression": 2317,
      "Ġcouch": 2318,
      "Ġphone": 2319,
      "Ġinterrupt": 2320,
      "Ġbuild": 2321,
      "ixed": 2322,
      "Ġfaintly": 2323,
      "eyes": 2324,
      "Ġsecret": 2325,
      "Ġfigure": 2326,
      "Ġdifferent": 2327,
      "Ġaccepted": 2328,
      "coloured": 2329,
      "Ġeagerly": 2330,
      "Ġmemory": 2331,
      "Ġsidew": 2332,
      "Ġmotor": 2333,
      "arraway": 2334,
      "Ġassured": 2335,
      "ĠSloane": 2336,
      "auffeur": 2337,
      ",âĢĻ": 2338,
      "ED": 2339,
      "NT": 2340,
      "Please": 2341,
      "Some": 2342,
      "away": 2343,
      "came": 2344,
      "ef": 2345,
      "ha": 2346,
      "human": 2347,
      "iance": 2348,
      "ipped": 2349,
      "kn": 2350,
      "ks": 2351,
      "lau": 2352,
      "mar": 2353,
      "pres": 2354,
      "val": 2355,
      "Ġtur": 2356,
      "Ġtaken": 2357,
      "Ġwand": 2358,
      "nds": 2359,
      "ern": 2360,
      "ert": 2361,
      "ator": 2362,
      "Ġhung": 2363,
      "itement": 2364,
      "Ġbit": 2365,
      "Ġblo": 2366,
      "Ġincess": 2367,
      "ley": 2368,
      "Ġthirty": 2369,
      "âĢĿâĢĶ": 2370,
      "Ġnatur": 2371,
      "stead": 2372,
      "ote": 2373,
      "otogr": 2374,
      "Ġstars": 2375,
      "Ġstayed": 2376,
      "through": 2377,
      "allery": 2378,
      "ĠWith": 2379,
      "bye": 2380,
      "unte": 2381,
      "Ġsolemn": 2382,
      "astic": 2383,
      "que": 2384,
      "Ġexclaim": 2385,
      "tless": 2386,
      "Ġalso": 2387,
      "umph": 2388,
      "Ġage": 2389,
      "orted": 2390,
      "Ġneck": 2391,
      "Ġsomeone": 2392,
      "Ġwhose": 2393,
      "Ġprovid": 2394,
      "ĊĊĊĊĊ": 2395,
      "ronze": 2396,
      "lection": 2397,
      "Ġstrang": 2398,
      "Ġletter": 2399,
      "azed": 2400,
      "Ġmeans": 2401,
      "Ġphotogr": 2402,
      "Ġanswer": 2403,
      "Ġincre": 2404,
      "Ġelse": 2405,
      "Ġedge": 2406,
      "Ġaware": 2407,
      "Ġcorrect": 2408,
      "Ġlower": 2409,
      "finitely": 2410,
      "looking": 2411,
      "Mrs": 2412,
      "Ġstruck": 2413,
      "aboratory": 2414,
      "Ġabsolutely": 2415,
      "Ġdetermined": 2416,
      "Ġmedium": 2417,
      "ĠEditor": 2418,
      "Ġincredul": 2419,
      "Ġexclaimed": 2420,
      "Any": 2421,
      "ES": 2422,
      "Now": 2423,
      "Not": 2424,
      "Su": 2425,
      "With": 2426,
      "aur": 2427,
      "bit": 2428,
      "barr": 2429,
      "cri": 2430,
      "chen": 2431,
      "cause": 2432,
      "certain": 2433,
      "front": 2434,
      "gre": 2435,
      "going": 2436,
      "line": 2437,
      "oint": 2438,
      "pre": 2439,
      "sion": 2440,
      "zz": 2441,
      "Ġtip": 2442,
      "Ġwood": 2443,
      "Ġsad": 2444,
      "Ġsense": 2445,
      "Ġmother": 2446,
      "Ġhouses": 2447,
      "itality": 2448,
      "itchen": 2449,
      "Ġbal": 2450,
      "Ġbest": 2451,
      "Ġfine": 2452,
      "isf": 2453,
      "Ġtoday": 2454,
      "Ġdied": 2455,
      "Ġpushed": 2456,
      "Ġpaper": 2457,
      "Ġpleasant": 2458,
      "Ġpicture": 2459,
      "uttered": 2460,
      "Ġnames": 2461,
      "Ġnamed": 2462,
      "icked": 2463,
      "iding": 2464,
      "ides": 2465,
      "Ġbeat": 2466,
      "rol": 2467,
      "acy": 2468,
      "Ġstat": 2469,
      "Ġstar": 2470,
      "Ġreach": 2471,
      "Ġrepl": 2472,
      "Ġforgotten": 2473,
      "them": 2474,
      "ilox": 2475,
      "Ġrich": 2476,
      "Ġrail": 2477,
      "ĠAmeric": 2478,
      "Ġkilled": 2479,
      "Ġkitchen": 2480,
      "Ġorder": 2481,
      "Ġvar": 2482,
      "Ġvanished": 2483,
      "Ġexact": 2484,
      "Ġconn": 2485,
      "Ġspace": 2486,
      "Ġnear": 2487,
      "Ġnecess": 2488,
      "Ġcharge": 2489,
      "Ġchurch": 2490,
      "Ġchauffeur": 2491,
      "raight": 2492,
      "rawn": 2493,
      "Ġdef": 2494,
      "ĠOR": 2495,
      "Ġusing": 2496,
      "Ġwants": 2497,
      "Ġdism": 2498,
      "Ġpermission": 2499,
      "cient": 2500,
      "formed": 2501,
      "Ġappro": 2502,
      "ĠYOU": 2503,
      "Ġscarce": 2504,
      "Ġopening": 2505,
      "Ġdrif": 2506,
      "Ġdriving": 2507,
      "merged": 2508,
      "Ġdesp": 2509,
      "who": 2510,
      "Ġpresent": 2511,
      "Ġcheck": 2512,
      "Ġhardly": 2513,
      "Ġlovely": 2514,
      "Ġdistributing": 2515,
      "ocked": 2516,
      "ruptly": 2517,
      "ĊĊĊĠĠĠĠĠĠĠĠĠĠĠĠĠĠĠĠĠĠĠĠĠĠĠĠĠĠĠĠĠĠĠĠ": 2518,
      "Ġtalking": 2519,
      "ĠOnce": 2520,
      "Ġattention": 2521,
      "looked": 2522,
      "oyed": 2523,
      "Ġdiscovered": 2524,
      "Ġclosed": 2525,
      "ville": 2526,
      "Ġreluct": 2527,
      "Ġsimply": 2528,
      "rugstore": 2529,
      "duced": 2530,
      "Ġromantic": 2531,
      "Ġpriv": 2532,
      "Ġunfamiliar": 2533,
      "burg": 2534,
      "barrass": 2535,
      "iloxi": 2536,
      "Is": 2537,
      "af": 2538,
      "car": 2539,
      "did": 2540,
      "duct": 2541,
      "fr": 2542,
      "hor": 2543,
      "iver": 2544,
      "mon": 2545,
      "made": 2546,
      "off": 2547,
      "pri": 2548,
      "ror": 2549,
      "ses": 2550,
      "ug": 2551,
      "wa": 2552,
      "yed": 2553,
      "Ġtill": 2554,
      "inet": 2555,
      "inter": 2556,
      "nding": 2557,
      "atic": 2558,
      "Ġmotion": 2559,
      "Ġhy": 2560,
      "ont": 2561,
      "oned": 2562,
      "Ġbur": 2563,
      "Ġbound": 2564,
      "Ġbronze": 2565,
      "Ġfaded": 2566,
      "Ġcat": 2567,
      "ision": 2568,
      "Ġdep": 2569,
      "Ġinformation": 2570,
      "arn": 2571,
      "Ġpost": 2572,
      "Ġpink": 2573,
      "Ġgas": 2574,
      "Ġgay": 2575,
      "ided": 2576,
      "imate": 2577,
      "rolled": 2578,
      "Ġstir": 2579,
      "ilt": 2580,
      "ilby": 2581,
      "Ġupstairs": 2582,
      "ivered": 2583,
      "Ġtrue": 2584,
      "Ġtravell": 2585,
      "Ġpeculiar": 2586,
      "Ġgrou": 2587,
      "Ġturning": 2588,
      "never": 2589,
      "Ġbrown": 2590,
      "Ġapparently": 2591,
      "ĠYet": 2592,
      "Ġimport": 2593,
      "ize": 2594,
      "ief": 2595,
      "Ġindivid": 2596,
      "Ġsupport": 2597,
      "Ġsilence": 2598,
      "Ġconfusion": 2599,
      "Ġphrase": 2600,
      "Ġcertainly": 2601,
      "iety": 2602,
      "Ġaccident": 2603,
      "Ġtouched": 2604,
      "Ġsubject": 2605,
      "Ġcrowded": 2606,
      "Ġclear": 2607,
      "Ġwaiting": 2608,
      "Ġchildren": 2609,
      "Ġreturned": 2610,
      "Ġbeauty": 2611,
      "Ġbeautiful": 2612,
      "Ġprotected": 2613,
      "mitted": 2614,
      "Ġpurp": 2615,
      "Ġpocket": 2616,
      "Ġguests": 2617,
      "Th": 2618,
      "dro": 2619,
      "dri": 2620,
      "dered": 2621,
      "egro": 2622,
      "first": 2623,
      "hus": 2624,
      "iant": 2625,
      "lf": 2626,
      "men": 2627,
      "went": 2628,
      "well": 2629,
      "word": 2630,
      "Ġident": 2631,
      "Ġtang": 2632,
      "heard": 2633,
      "Ġsens": 2634,
      "ouis": 2635,
      "Ġmad": 2636,
      "Ġmiddle": 2637,
      "itable": 2638,
      "ony": 2639,
      "Ġfun": 2640,
      "Ġfifty": 2641,
      "Ġfunny": 2642,
      "Ġcry": 2643,
      "orce": 2644,
      "Ġoften": 2645,
      "Ġdest": 2646,
      "Ġdiv": 2647,
      "Ġdawn": 2648,
      "lend": 2649,
      "Ġthin": 2650,
      "Ġthrew": 2651,
      "Ġpan": 2652,
      "Ġpain": 2653,
      "Ġgle": 2654,
      "stopped": 2655,
      "iced": 2656,
      "aled": 2657,
      "ries": 2658,
      "Ġanim": 2659,
      "ilar": 2660,
      "Ġsav": 2661,
      "ifted": 2662,
      "olunte": 2663,
      "ĠHot": 2664,
      "agne": 2665,
      "illage": 2666,
      "ĠBe": 2667,
      "umb": 2668,
      "umbled": 2669,
      "ckt": 2670,
      "Ġconce": 2671,
      "Ġtry": 2672,
      "Ġtruth": 2673,
      "Ġchamp": 2674,
      "Ġarr": 2675,
      "Ġart": 2676,
      "inking": 2677,
      "ĠEx": 2678,
      "eping": 2679,
      "Ġcomes": 2680,
      "Ġgrow": 2681,
      "Ġplan": 2682,
      "Ġglance": 2683,
      "Ġbeginning": 2684,
      "Ġunderstood": 2685,
      "anging": 2686,
      "spring": 2687,
      "Ġposit": 2688,
      "because": 2689,
      "Ġeveryone": 2690,
      "Ġappear": 2691,
      "Ġscene": 2692,
      "Ġnewsp": 2693,
      "Ġobv": 2694,
      "Ġmatches": 2695,
      "Ġindic": 2696,
      "Ġexpect": 2697,
      "Ġsatisf": 2698,
      "appeared": 2699,
      "Ġhours": 2700,
      "Ġrestless": 2701,
      "Ġdrunk": 2702,
      "ground": 2703,
      "Ġcheek": 2704,
      "curity": 2705,
      "Ġdropped": 2706,
      "Ġbushes": 2707,
      "Ġaddress": 2708,
      "Ġbelieved": 2709,
      "Ġbuy": 2710,
      "Ġdiffic": 2711,
      "Ġcircum": 2712,
      "Ġtaxi": 2713,
      "eneath": 2714,
      "ashion": 2715,
      "Ġstrugg": 2716,
      "Ġfinally": 2717,
      "afternoon": 2718,
      "Ġwalking": 2719,
      "tesque": 2720,
      "Ġmonths": 2721,
      "Ġlady": 2722,
      "Ġmusic": 2723,
      "Ġcorner": 2724,
      "Ġservants": 2725,
      "Ġrecogn": 2726,
      "Ġexactly": 2727,
      "),": 2728,
      "Be": 2729,
      "EM": 2730,
      "LI": 2731,
      "OR": 2732,
      "RO": 2733,
      "Section": 2734,
      "To": 2735,
      "ccess": 2736,
      "don": 2737,
      "dark": 2738,
      "ev": 2739,
      "either": 2740,
      "gin": 2741,
      "jo": 2742,
      "lit": 2743,
      "pleasant": 2744,
      "tow": 2745,
      "ule": 2746,
      "vin": 2747,
      "will": 2748,
      "Ġve": 2749,
      "Ġtight": 2750,
      "Ġtree": 2751,
      "Ġtired": 2752,
      "Ġtaking": 2753,
      "Ġable": 2754,
      "into": 2755,
      "Ġmis": 2756,
      "Ġbat": 2757,
      "Ġbay": 2758,
      "Ġball": 2759,
      "Ġbare": 2760,
      "Ġblock": 2761,
      "Ġfa": 2762,
      "Ġfright": 2763,
      "Ġfru": 2764,
      "Ġfail": 2765,
      "Ġfellow": 2766,
      "Ġfurther": 2767,
      "Ġcard": 2768,
      "Ġcase": 2769,
      "Ġdance": 2770,
      "Ġdang": 2771,
      "Ġdrawn": 2772,
      "Ġthro": 2773,
      "Ġpat": 2774,
      "Ġpop": 2775,
      "Ġlamp": 2776,
      "Ġlarg": 2777,
      "Ġgiven": 2778,
      "Ġgallery": 2779,
      "ading": 2780,
      "owed": 2781,
      "Ġbelong": 2782,
      "vert": 2783,
      "Ġstiff": 2784,
      "Ġret": 2785,
      "Ġreass": 2786,
      "ament": 2787,
      "alled": 2788,
      "Ġrace": 2789,
      "ĠWorld": 2790,
      "antastic": 2791,
      "Ġabruptly": 2792,
      "ellect": 2793,
      "ours": 2794,
      "ume": 2795,
      "apers": 2796,
      "Ġchanged": 2797,
      "Ġjo": 2798,
      "ĠEng": 2799,
      "Ġbackward": 2800,
      "ĠNO": 2801,
      "selves": 2802,
      "ffee": 2803,
      "Ġprofound": 2804,
      "Ġtwenty": 2805,
      "place": 2806,
      "Ġgrowing": 2807,
      "Ġremoved": 2808,
      "Ġremote": 2809,
      "Ġsmo": 2810,
      "Ġsmile": 2811,
      "spe": 2812,
      "tains": 2813,
      "Ġcoffee": 2814,
      "ude": 2815,
      "Ġeng": 2816,
      "cover": 2817,
      "Ġnews": 2818,
      "Ġdistance": 2819,
      "Ġimpati": 2820,
      "Ġdriver": 2821,
      "Ġstrong": 2822,
      "Ġterrible": 2823,
      "Ġhowever": 2824,
      "Ġ19": 2825,
      "Ġintro": 2826,
      "Ġentered": 2827,
      "Ġfinding": 2828,
      "Ġmovement": 2829,
      "Ġdistribute": 2830,
      "Ġdistribution": 2831,
      "Ġwatched": 2832,
      "Ġexcitement": 2833,
      "ounted": 2834,
      "ceived": 2835,
      "Ġdelight": 2836,
      "Ġinterested": 2837,
      "Ġbreak": 2838,
      "Ġrequest": 2839,
      "Ġrequire": 2840,
      "Ġextra": 2841,
      "Ġviolently": 2842,
      "Ġcasual": 2843,
      "Ġtriumph": 2844,
      "Ġharsh": 2845,
      "Ġjumped": 2846,
      "Ġscarcely": 2847,
      "priet": 2848,
      "Ġindividual": 2849,
      "olunteers": 2850,
      "CH": 2851,
      "IN": 2852,
      "Time": 2853,
      "Very": 2854,
      "aj": 2855,
      "aff": 2856,
      "bro": 2857,
      "ball": 2858,
      "corn": 2859,
      "dy": 2860,
      "fast": 2861,
      "five": 2862,
      "happ": 2863,
      "mist": 2864,
      "ner": 2865,
      "nest": 2866,
      "put": 2867,
      "pol": 2868,
      "sed": 2869,
      "ton": 2870,
      "took": 2871,
      "wl": 2872,
      "Ġ5": 2873,
      "ĠX": 2874,
      "Ġtears": 2875,
      "inary": 2876,
      "Ġwide": 2877,
      "erhaps": 2878,
      "Ġmid": 2879,
      "Ġmile": 2880,
      "Ġmention": 2881,
      "Ġhat": 2882,
      "Ġbath": 2883,
      "Ġbeneath": 2884,
      "Ġfro": 2885,
      "Ġfather": 2886,
      "Ġfilled": 2887,
      "Ġfashion": 2888,
      "Ġfantastic": 2889,
      "Ġcous": 2890,
      "Ġclock": 2891,
      "isible": 2892,
      "Ġdate": 2893,
      "leburg": 2894,
      "Ġthousand": 2895,
      "llars": 2896,
      "Ġlo": 2897,
      "Ġlink": 2898,
      "Ġlying": 2899,
      "Ġlaboratory": 2900,
      "Ġgri": 2901,
      "Ġgate": 2902,
      "Ġgolf": 2903,
      "adually": 2904,
      "Ġnine": 2905,
      "Ġnerv": 2906,
      "ston": 2907,
      "stery": 2908,
      "stances": 2909,
      "Ġelect": 2910,
      "Ġbell": 2911,
      "Ġyach": 2912,
      "acing": 2913,
      "alth": 2914,
      "lds": 2915,
      "Ġsto": 2916,
      "Ġstre": 2917,
      "Ġstates": 2918,
      "Ġstreet": 2919,
      "Ġstraight": 2920,
      "Ġrec": 2921,
      "Ġrese": 2922,
      "Ġmeant": 2923,
      "Ġang": 2924,
      "aming": 2925,
      "Ġashes": 2926,
      "ille": 2927,
      "ĠGre": 2928,
      "iform": 2929,
      "emp": 2930,
      "Ġsuff": 2931,
      "Ġrow": 2932,
      "Ġrare": 2933,
      "antry": 2934,
      "Ġshout": 2935,
      "Ġshaking": 2936,
      "Ġshining": 2937,
      "Ġweren": 2938,
      "ĠDan": 2939,
      "Ġvivid": 2940,
      "ĠBy": 2941,
      "Ġexam": 2942,
      "umn": 2943,
      "umin": 2944,
      "ckleburg": 2945,
      "Ġunre": 2946,
      "Ġoverhead": 2947,
      "atever": 2948,
      "Ġnearly": 2949,
      "ĠFr": 2950,
      "Ġnoon": 2951,
      "ĠCol": 2952,
      "ĠJune": 2953,
      "Ġcarry": 2954,
      "Ġproper": 2955,
      "ĊĊĠ": 2956,
      "Ġgrace": 2957,
      "Ġplayed": 2958,
      "Ġsmoke": 2959,
      "angu": 2960,
      "Ġyourself": 2961,
      "Ġpoin": 2962,
      "Ġpointed": 2963,
      "Ġcond": 2964,
      "Ġcockt": 2965,
      "ivil": 2966,
      "tenegro": 2967,
      "Ġrooms": 2968,
      "ĠĠĠĠĠĠĠĠĠĠĠĠĠĠĠĠĠĠĠĠĠĠĠĠ": 2969,
      "Ġcontact": 2970,
      "ĠInformation": 2971,
      "sub": 2972,
      "sued": 2973,
      "izing": 2974,
      "Ġstartled": 2975,
      "Ġcalling": 2976,
      "ĠâĢ¦âĢĿ": 2977,
      "Ġdescri": 2978,
      "osity": 2979,
      "Ġrested": 2980,
      "ĠStreet": 2981,
      "Ġsupper": 2982,
      "Ġsupposed": 2983,
      "Ġpolice": 2984,
      "Ġpolitely": 2985,
      "Ġinvited": 2986,
      "Ġenthus": 2987,
      "Ġearly": 2988,
      "Ġrealized": 2989,
      "Ġempt": 2990,
      "ondered": 2991,
      "Ġhelped": 2992,
      "Ġpract": 2993,
      "Ġsurprise": 2994,
      "Ġbottle": 2995,
      "Ġefforts": 2996,
      "eyer": 2997,
      "Ġbooks": 2998,
      "Ġweeks": 2999,
      "Ġgrotesque": 3000,
      "Ġpromise": 3001,
      "board": 3002,
      "Ġholding": 3003,
      "Ġdelic": 3004,
      "contin": 3005,
      "Ġsweet": 3006,
      "Ġreceived": 3007,
      "ength": 3008,
      "Ġintense": 3009,
      "ĠWhite": 3010,
      "Ġautomob": 3011,
      "Ġurged": 3012,
      "Ġstretched": 3013,
      "Ġcheerful": 3014,
      "Ġhastily": 3015,
      "Ġslightly": 3016,
      "lipspring": 3017,
      "ouisville": 3018,
      "Ġchampagne": 3019,
      "Ġenthusi": 3020,
      "lipspringer": 3021,
      "!âĢĻ": 3022,
      "Re": 3023,
      "aft": 3024,
      "bre": 3025,
      "back": 3026,
      "cent": 3027,
      "cup": 3028,
      "fer": 3029,
      "flo": 3030,
      "gar": 3031,
      "hundred": 3032,
      "met": 3033,
      "mir": 3034,
      "no": 3035,
      "Ġes": 3036,
      "Ġill": 3037,
      "Ġice": 3038,
      "iny": 3039,
      "Ġwit": 3040,
      "Ġwid": 3041,
      "Ġsal": 3042,
      "eding": 3043,
      "oul": 3044,
      "Ġmain": 3045,
      "Ġmill": 3046,
      "Ġfight": 3047,
      "Ġfast": 3048,
      "Ġtop": 3049,
      "ask": 3050,
      "asm": 3051,
      "asing": 3052,
      "Ġdread": 3053,
      "Ġdamp": 3054,
      "arrow": 3055,
      "anation": 3056,
      "omp": 3057,
      "Ġpit": 3058,
      "Ġport": 3059,
      "Ġpick": 3060,
      "Ġland": 3061,
      "Ġloud": 3062,
      "Ġglo": 3063,
      "Ġwaste": 3064,
      "Ġnone": 3065,
      "Ġninet": 3066,
      "Ġec": 3067,
      "Ġeas": 3068,
      "Ġemerged": 3069,
      "Ġbeating": 3070,
      "Ġste": 3071,
      "Ġstaring": 3072,
      "Ġres": 3073,
      "Ġresp": 3074,
      "Ġresol": 3075,
      "Ġrelie": 3076,
      "Ġwhatever": 3077,
      "Ġforce": 3078,
      "Ġforget": 3079,
      "Ġash": 3080,
      "theless": 3081,
      "cho": 3082,
      "think": 3083,
      "three": 3084,
      "ĠMay": 3085,
      "Ġrushed": 3086,
      "Ġrising": 3087,
      "olate": 3088,
      "ounded": 3089,
      "ational": 3090,
      "Ġkissed": 3091,
      "oped": 3092,
      "Ġvest": 3093,
      "Ġvast": 3094,
      "Ġvig": 3095,
      "ists": 3096,
      "istent": 3097,
      "Ġexpen": 3098,
      "Ġaloud": 3099,
      "Ġnotice": 3100,
      "Ġnoticed": 3101,
      "ellig": 3102,
      "Ġspot": 3103,
      "Ġspring": 3104,
      "Ġunpleasant": 3105,
      "Ġuniform": 3106,
      "Ġneither": 3107,
      "Ġlooks": 3108,
      "Ġtrust": 3109,
      "Ġtrick": 3110,
      "Ġchar": 3111,
      "ĠFilby": 3112,
      "ĠEven": 3113,
      "ĠOf": 3114,
      "ĠOr": 3115,
      "Ġblank": 3116,
      "Ġdoors": 3117,
      "cons": 3118,
      "Ġclothes": 3119,
      "ĠUnder": 3120,
      "Ġobtain": 3121,
      "Ġobsc": 3122,
      "phinx": 3123,
      "Ġbroad": 3124,
      "Ġdeser": 3125,
      "Ġsunlight": 3126,
      "Ġexpected": 3127,
      "Ġtelling": 3128,
      "Ġconfused": 3129,
      "azz": 3130,
      "Ġmetal": 3131,
      "Ġmovements": 3132,
      "Ġfriends": 3133,
      "scri": 3134,
      "Ġwriting": 3135,
      "Ġcommon": 3136,
      "Ġinstinct": 3137,
      "Ġmoonlight": 3138,
      "Ġcircle": 3139,
      "Does": 3140,
      "Ġrub": 3141,
      "Ġclearly": 3142,
      "Ġattempt": 3143,
      "ternal": 3144,
      "Ġshadows": 3145,
      "ENT": 3146,
      "Ġleaves": 3147,
      "Ġkeeping": 3148,
      "Ġcreatures": 3149,
      "Ġdreams": 3150,
      "Ġirre": 3151,
      "Ġdifference": 3152,
      "Ġpower": 3153,
      "Ġdamned": 3154,
      "Ġdrawing": 3155,
      "Ġmistake": 3156,
      "Ġcalm": 3157,
      "Ġpieces": 3158,
      "ournal": 3159,
      "Ġvalley": 3160,
      "Ġinterrupted": 3161,
      "duction": 3162,
      "Ġgroup": 3163,
      "ellectual": 3164,
      "15": 3165,
      "AG": 3166,
      "BER": 3167,
      "Ch": 3168,
      "Even": 3169,
      "ECT": 3170,
      "Go": 3171,
      "Hell": 3172,
      "IL": 3173,
      "JECT": 3174,
      "Michaelis": 3175,
      "NY": 3176,
      "Never": 3177,
      "ON": 3178,
      "On": 3179,
      "book": 3180,
      "bul": 3181,
      "can": 3182,
      "des": 3183,
      "eer": 3184,
      "ees": 3185,
      "fing": 3186,
      "ging": 3187,
      "hour": 3188,
      "hod": 3189,
      "ike": 3190,
      "iving": 3191,
      "new": 3192,
      "par": 3193,
      "pace": 3194,
      "sing": 3195,
      "tried": 3196,
      "tru": 3197,
      "uly": 3198,
      "uously": 3199,
      "vas": 3200,
      "whe": 3201,
      "ys": 3202,
      "Ġ*": 3203,
      "Ġ4": 3204,
      "Ġton": 3205,
      "Ġtent": 3206,
      "Ġwip": 3207,
      "Ġson": 3208,
      "Ġsim": 3209,
      "Ġsong": 3210,
      "Ġsway": 3211,
      "Ġsli": 3212,
      "Ġobl": 3213,
      "eries": 3214,
      "athered": 3215,
      "Ġmil": 3216,
      "Ġmiss": 3217,
      "Ġmiles": 3218,
      "Ġmuttered": 3219,
      "Ġhig": 3220,
      "enn": 3221,
      "Ġfaster": 3222,
      "Ġcent": 3223,
      "Ġcand": 3224,
      "Ġcup": 3225,
      "isc": 3226,
      "ishing": 3227,
      "oration": 3228,
      "ases": 3229,
      "Ġder": 3230,
      "Ġdrugstore": 3231,
      "Ġinev": 3232,
      "Ġpard": 3233,
      "Ġpress": 3234,
      "Ġpair": 3235,
      "Ġpleas": 3236,
      "Ġpressed": 3237,
      "Ġlicense": 3238,
      "Ġgent": 3239,
      "Ġgust": 3240,
      "Ġgathered": 3241,
      "still": 3242,
      "stra": 3243,
      "Ġequ": 3244,
      "acted": 3245,
      "acement": 3246,
      "seem": 3247,
      "Ġonline": 3248,
      "Ġstable": 3249,
      "Ġwebs": 3250,
      "Ġann": 3251,
      "amber": 3252,
      "âĢĶâĢľ": 3253,
      "Ġassum": 3254,
      "these": 3255,
      "ceive": 3256,
      "ĠGUT": 3257,
      "chan": 3258,
      "changed": 3259,
      "though": 3260,
      "iffe": 3261,
      "Ġself": 3262,
      "avender": 3263,
      "ppose": 3264,
      "ĠWAR": 3265,
      "ĠANY": 3266,
      "Ġshock": 3267,
      "Ġshivered": 3268,
      "ĠHaven": 3269,
      "Ġorche": 3270,
      "Ġliked": 3271,
      "Ġworn": 3272,
      "Ġvolunteers": 3273,
      "Ġsold": 3274,
      "isten": 3275,
      "istic": 3276,
      "ĠBiloxi": 3277,
      "Ġaltogether": 3278,
      "elled": 3279,
      "ĠPro": 3280,
      "ĠPRO": 3281,
      "acked": 3282,
      "ortun": 3283,
      "Ġspread": 3284,
      "Ġsplend": 3285,
      "Ġneare": 3286,
      "aked": 3287,
      "Ġtrag": 3288,
      "Ġgoes": 3289,
      "Ġchanging": 3290,
      "Ġarg": 3291,
      "ption": 3292,
      "Ġdownstairs": 3293,
      "ĠFinn": 3294,
      "Ġmanner": 3295,
      "ĠCarraway": 3296,
      "ĠCont": 3297,
      "Ġcomfort": 3298,
      "icker": 3299,
      "ressive": 3300,
      "Ġdeath": 3301,
      "Ġdefect": 3302,
      "shine": 3303,
      "Ġcarried": 3304,
      "Here": 3305,
      "ĠLI": 3306,
      "ability": 3307,
      "Ġremain": 3308,
      "Ġremained": 3309,
      "Ġreminded": 3310,
      "ometimes": 3311,
      "Ġdisclaim": 3312,
      "Ġglare": 3313,
      "rub": 3314,
      "ĠâĢ¢": 3315,
      "sport": 3316,
      "Ġperform": 3317,
      "forget": 3318,
      "tained": 3319,
      "Ġcoll": 3320,
      "things": 3321,
      "Ġbrick": 3322,
      "Ġmint": 3323,
      "Ġbecome": 3324,
      "Ġsays": 3325,
      "Ġcontempt": 3326,
      "Ġcopying": 3327,
      "expl": 3328,
      "Ġstrained": 3329,
      "rossed": 3330,
      "ĠRos": 3331,
      "olding": 3332,
      "white": 3333,
      "Ġintimate": 3334,
      "Ġmarble": 3335,
      "Ġinvest": 3336,
      "nothing": 3337,
      "Ġcoloss": 3338,
      "Ġcollege": 3339,
      "Ġcollection": 3340,
      "Ġcareless": 3341,
      "Ġemotion": 3342,
      "Ġembarrass": 3343,
      "Ġdresses": 3344,
      "Ġgoodbye": 3345,
      "ĠVery": 3346,
      "ounced": 3347,
      "Ġsinging": 3348,
      "Ġformat": 3349,
      "Ġautumn": 3350,
      "ification": 3351,
      "Ġcontinually": 3352,
      "Ġholder": 3353,
      "Ġfallen": 3354,
      "ENBER": 3355,
      "Ġobjected": 3356,
      "ĠKlipspringer": 3357,
      "ucille": 3358,
      "Ġsecure": 3359,
      "Ġverand": 3360,
      "Ġcompliance": 3361,
      "ITY": 3362,
      "Ġcasually": 3363,
      "Ġgolden": 3364,
      "Ġsharply": 3365,
      "Ġpockets": 3366,
      "ĠMontenegro": 3367,
      "Ġsuspic": 3368,
      "perior": 3369,
      "***": 3370,
      "Ġpuzz": 3371,
      "Ġelev": 3372,
      "entral": 3373,
      "expected": 3374,
      "RANT": 3375,
      "Ġblew": 3376,
      "ĠHowever": 3377,
      "Ġgesture": 3378,
      "Ġshirts": 3379,
      "Ġsidewalk": 3380,
      "Ġincessantly": 3381,
      "ĠAmerican": 3382,
      "ĊĊĊĠĠĠĠĠĠĠĠĠĠĠĠĠĠĠĠĠĠĠĠĠĠĠĠĠĠĠĠĠĠĠĠĠ": 3383,
      "didn": 3384,
      "Ġpurpose": 3385,
      "orcelain": 3386,
      "Ġsavage": 3387,
      "Ġposition": 3388,
      "Ġobviously": 3389,
      "Ġcircumstances": 3390,
      "Ġimpatiently": 3391,
      "Ġrequirements": 3392,
      "Ġempty": 3393,
      "true": 3394,
      "Ġpardon": 3395,
      "Ġwebsite": 3396,
      "ĠGUTENBER": 3397,
      "ĠWARRANT": 3398,
      "ĠPROJECT": 3399,
      "Ġcolossal": 3400,
      "ĠGUTENBERG": 3401,
      "Al": 3402,
      "An": 3403,
      "Just": 3404,
      "Let": 3405,
      "Most": 3406,
      "See": 3407,
      "ails": 3408,
      "bow": 3409,
      "bly": 3410,
      "cut": 3411,
      "dr": 3412,
      "del": 3413,
      "eed": 3414,
      "easy": 3415,
      "gu": 3416,
      "hard": 3417,
      "half": 3418,
      "hinx": 3419,
      "ior": 3420,
      "lish": 3421,
      "mp": 3422,
      "more": 3423,
      "oll": 3424,
      "ped": 3425,
      "pie": 3426,
      "poss": 3427,
      "son": 3428,
      "sur": 3429,
      "said": 3430,
      "too": 3431,
      "uss": 3432,
      "xes": 3433,
      "yn": 3434,
      "Ġ6": 3435,
      "Ġavo": 3436,
      "Ġaston": 3437,
      "inst": 3438,
      "Ġwan": 3439,
      "Ġsorry": 3440,
      "Ġori": 3441,
      "edest": 3442,
      "Ġhum": 3443,
      "itten": 3444,
      "Ġbent": 3445,
      "Ġfain": 3446,
      "Ġfirm": 3447,
      "Ġca": 3448,
      "Ġcam": 3449,
      "ories": 3450,
      "asion": 3451,
      "arter": 3452,
      "left": 3453,
      "lly": 3454,
      "omed": 3455,
      "Ġpal": 3456,
      "Ġpath": 3457,
      "Ġpalace": 3458,
      "Ġpedest": 3459,
      "Ġlifted": 3460,
      "Ġheap": 3461,
      "Ġga": 3462,
      "Ġnur": 3463,
      "icke": 3464,
      "idly": 3465,
      "iderable": 3466,
      "roy": 3467,
      "Ġyes": 3468,
      "acc": 3469,
      "acter": 3470,
      "see": 3471,
      "Ġones": 3472,
      "Ġstead": 3473,
      "Ġweather": 3474,
      "Ġmechan": 3475,
      "Ġforty": 3476,
      "ĠGener": 3477,
      "Ġsave": 3478,
      "Ġsear": 3479,
      "ember": 3480,
      "Ġrad": 3481,
      "ĠAl": 3482,
      "Ġshut": 3483,
      "Ġshaft": 3484,
      "ĠSphinx": 3485,
      "owned": 3486,
      "ĠDid": 3487,
      "unted": 3488,
      "ushing": 3489,
      "ument": 3490,
      "Ġconstant": 3491,
      "ĠPl": 3492,
      "ĠPalace": 3493,
      "Ġsphinx": 3494,
      "Ġanywhere": 3495,
      "Ġchin": 3496,
      "assion": 3497,
      "Ġdeal": 3498,
      "Ġknows": 3499,
      "should": 3500,
      "Ġprocess": 3501,
      "abs": 3502,
      "Ġquarter": 3503,
      "Ġbegun": 3504,
      "Ġnights": 3505,
      "Ġprep": 3506,
      "Ġparts": 3507,
      "being": 3508,
      "ires": 3509,
      "udy": 3510,
      "ngth": 3511,
      "Ġenj": 3512,
      "cold": 3513,
      "blic": 3514,
      "Ġheads": 3515,
      "Ġwaved": 3516,
      "Ġscorn": 3517,
      "suit": 3518,
      "phor": 3519,
      "Ġdesolate": 3520,
      "Ġexplo": 3521,
      "people": 3522,
      "Ġended": 3523,
      "Ġshoulders": 3524,
      "ips": 3525,
      "arming": 3526,
      "ials": 3527,
      "Ġeffect": 3528,
      "turned": 3529,
      "Ġdimens": 3530,
      "Ġeduc": 3531,
      "Ġtouching": 3532,
      "door": 3533,
      "Ġsuggestion": 3534,
      "ĠOnly": 3535,
      "finite": 3536,
      "ences": 3537,
      "Ġcuriosity": 3538,
      "Ġaffair": 3539,
      "Ġmurmured": 3540,
      "Ġsnapped": 3541,
      "Ġabsor": 3542,
      "understand": 3543,
      "Ġcreature": 3544,
      "Ġfreely": 3545,
      "Ġfigures": 3546,
      "Ġpaying": 3547,
      "Ġlimited": 3548,
      "aborate": 3549,
      "Ġdisappeared": 3550,
      "Ġgeneral": 3551,
      "Ġghostly": 3552,
      "Ġvisible": 3553,
      "Ġperfectly": 3554,
      "Ġindeed": 3555,
      "Ġapartment": 3556,
      "Ġofficial": 3557,
      "everything": 3558,
      "Ġjudged": 3559,
      "Ġimagine": 3560,
      "Ġcigarette": 3561,
      "Ġmagaz": 3562,
      "known": 3563,
      "Ġwandered": 3564,
      "Ġphotograph": 3565,
      "Ġdrifted": 3566,
      "Ġimportant": 3567,
      "ĠGreen": 3568,
      "Ġresolved": 3569,
      "seemed": 3570,
      "piece": 3571,
      "Ġorigin": 3572,
      "Ġpedestal": 3573,
      "ĠGeneral": 3574,
      "..": 3575,
      "02": 3576,
      "30": 3577,
      "God": 3578,
      "Have": 3579,
      "IV": 3580,
      "Listen": 3581,
      "Your": 3582,
      "aed": 3583,
      "bar": 3584,
      "fre": 3585,
      "hot": 3586,
      "ially": 3587,
      "mo": 3588,
      "might": 3589,
      "moment": 3590,
      "oe": 3591,
      "past": 3592,
      "plo": 3593,
      "sil": 3594,
      "sity": 3595,
      "something": 3596,
      "trees": 3597,
      "vies": 3598,
      "vious": 3599,
      "wife": 3600,
      "years": 3601,
      "Ġ$": 3602,
      "ĠâĢĿ": 3603,
      "Ġest": 3604,
      "Ġtem": 3605,
      "Ġtone": 3606,
      "heaps": 3607,
      "Ġahead": 3608,
      "inte": 3609,
      "Ġwag": 3610,
      "Ġsand": 3611,
      "Ġsnow": 3612,
      "Ġowl": 3613,
      "edding": 3614,
      "atures": 3615,
      "atively": 3616,
      "Ġmir": 3617,
      "Ġhon": 3618,
      "Ġhither": 3619,
      "ench": 3620,
      "only": 3621,
      "onne": 3622,
      "Ġbother": 3623,
      "Ġfurn": 3624,
      "Ġcovered": 3625,
      "Ġcivil": 3626,
      "isp": 3627,
      "isation": 3628,
      "isement": 3629,
      "isively": 3630,
      "orth": 3631,
      "Ġdus": 3632,
      "Ġdign": 3633,
      "Ġdancing": 3634,
      "around": 3635,
      "lea": 3636,
      "lebr": 3637,
      "leman": 3638,
      "another": 3639,
      "lling": 3640,
      "Ġlun": 3641,
      "Ġlap": 3642,
      "Ġloose": 3643,
      "Ġlength": 3644,
      "Ġlavender": 3645,
      "Ġgard": 3646,
      "Ġgorge": 3647,
      "Ġnarrow": 3648,
      "icit": 3649,
      "icism": 3650,
      "Ġease": 3651,
      "Ġevidently": 3652,
      "Ġeternal": 3653,
      "idge": 3654,
      "idence": 3655,
      "immy": 3656,
      "immedi": 3657,
      "imming": 3658,
      "Ġyard": 3659,
      "Ġyards": 3660,
      "acles": 3661,
      "Ġupper": 3662,
      "alter": 3663,
      "always": 3664,
      "ĠTwo": 3665,
      "riage": 3666,
      "Ġstay": 3667,
      "Ġstag": 3668,
      "Ġstuff": 3669,
      "Ġrefe": 3670,
      "irmed": 3671,
      "Ġweak": 3672,
      "Ġhist": 3673,
      "ĠGreat": 3674,
      "Ġsafe": 3675,
      "chair": 3676,
      "change": 3677,
      "thm": 3678,
      "alling": 3679,
      "ĠMeyer": 3680,
      "Ġrum": 3681,
      "Ġride": 3682,
      "Ġrhy": 3683,
      "Ġshot": 3684,
      "Ġshore": 3685,
      "Ġshare": 3686,
      "herself": 3687,
      "ĠSometimes": 3688,
      "outside": 3689,
      "Ġdollars": 3690,
      "Ġkiss": 3691,
      "oph": 3692,
      "opy": 3693,
      "Ġlearn": 3694,
      "elve": 3695,
      "ĠDon": 3696,
      "Ġworried": 3697,
      "istening": 3698,
      "ĠBl": 3699,
      "quest": 3700,
      "ulty": 3701,
      "umerable": 3702,
      "Ġuncertain": 3703,
      "Ġunexpected": 3704,
      "Ġanybody": 3705,
      "verybody": 3706,
      "Ġchance": 3707,
      "Ġarmy": 3708,
      "erson": 3709,
      "ĠEckleburg": 3710,
      "Ġthemselves": 3711,
      "ĠOver": 3712,
      "reath": 3713,
      "shore": 3714,
      "Ġflashed": 3715,
      "Ġproble": 3716,
      "Ġprobably": 3717,
      "Ġproduced": 3718,
      "Ġpropriet": 3719,
      "ĠLouisville": 3720,
      "ĠLucille": 3721,
      "Ġcanvas": 3722,
      "Ġblown": 3723,
      "Ġplaces": 3724,
      "Ġqueer": 3725,
      "Ġglimp": 3726,
      "Ġglowing": 3727,
      "ggs": 3728,
      "irely": 3729,
      "Ġslid": 3730,
      "Ġwhereupon": 3731,
      "Ġench": 3732,
      "perhaps": 3733,
      "ements": 3734,
      "black": 3735,
      "ended": 3736,
      "Ġappl": 3737,
      "conf": 3738,
      "concept": 3739,
      "Ġwaiter": 3740,
      "Ġcontr": 3741,
      "Ġbond": 3742,
      "Ġswift": 3743,
      "Ġsunset": 3744,
      "Ġsunshine": 3745,
      "Ġkeen": 3746,
      "Ġadvert": 3747,
      "Ġrestr": 3748,
      "Ġpreser": 3749,
      "myself": 3750,
      "eker": 3751,
      "Ġpolite": 3752,
      "Ġinvent": 3753,
      "azing": 3754,
      "Ġentirely": 3755,
      "Ġslower": 3756,
      "comfort": 3757,
      "Ġsounded": 3758,
      "resist": 3759,
      "resently": 3760,
      "ocently": 3761,
      "Ġemplo": 3762,
      "Ġaddition": 3763,
      "Ġhelpless": 3764,
      "Ġsentence": 3765,
      "Ġblackness": 3766,
      "Ġguessed": 3767,
      "Ġprinted": 3768,
      "000": 3769,
      "Ġriver": 3770,
      "venteen": 3771,
      "Ġinstant": 3772,
      "eyed": 3773,
      "Ġhusky": 3774,
      "Ġbedroom": 3775,
      "Ġwhisky": 3776,
      "Ġruin": 3777,
      "Ġpromot": 3778,
      "Ġpossessed": 3779,
      "III": 3780,
      "Ġglasses": 3781,
      "Ġimmediate": 3782,
      "Ġabsence": 3783,
      "Ġneeds": 3784,
      "Ġquestions": 3785,
      "iano": 3786,
      "aturday": 3787,
      "Ġirresist": 3788,
      "strange": 3789,
      "Ġreceiver": 3790,
      "Ġregard": 3791,
      "Ġsigns": 3792,
      "Ġconcentr": 3793,
      "Ġseries": 3794,
      "rilling": 3795,
      "Ġsquare": 3796,
      "Ġhollow": 3797,
      "Ġinnumerable": 3798,
      "Ġinnocently": 3799,
      "Ġmerely": 3800,
      "Ġexcitedly": 3801,
      "Ġdirection": 3802,
      "Ġpiece": 3803,
      "imental": 3804,
      "Ġslender": 3805,
      "imension": 3806,
      "ĠSuddenly": 3807,
      "Ġcigarettes": 3808,
      "Ġbuilding": 3809,
      "Ġnatural": 3810,
      "Ġprovided": 3811,
      "Ġstranger": 3812,
      "Ġincreased": 3813,
      "Ġincredulously": 3814,
      "Suddenly": 3815,
      "aurant": 3816,
      "Ġconnection": 3817,
      "Ġnecessary": 3818,
      "Ġapproached": 3819,
      "Ġdespair": 3820,
      "Ġreluctant": 3821,
      "Ġmotionless": 3822,
      "Ġburst": 3823,
      "Ġfuneral": 3824,
      "ĠHotel": 3825,
      "Ġnewspaper": 3826,
      "Ġdifficulty": 3827,
      "vinced": 3828,
      "Ġfailed": 3829,
      "Ġlarger": 3830,
      "Ġengaged": 3831,
      "Ġcousin": 3832,
      "Ġyacht": 3833,
      "Ġstrength": 3834,
      "ĠFrance": 3835,
      "Ġdescribed": 3836,
      "Ġautomobiles": 3837,
      "asket": 3838,
      "Ġnineteen": 3839,
      "Ġecst": 3840,
      "Hello": 3841,
      "whel": 3842,
      "Ġtonight": 3843,
      "Ġoblig": 3844,
      "Ġhigher": 3845,
      "Ġorchestra": 3846,
      "Ġcamphor": 3847,
      "Ġnurse": 3848,
      "Ġdimensions": 3849,
      "aedeker": 3850,
      "Ġdusk": 3851,
      "Ġgardens": 3852,
      "Ġgorgeous": 3853,
      "Ġrhythm": 3854,
      "Ġswiftly": 3855,
      "Ġadvertisement": 3856,
      "AB": 3857,
      "AL": 3858,
      "AM": 3859,
      "Are": 3860,
      "Archive": 3861,
      "CE": 3862,
      "Can": 3863,
      "From": 3864,
      "GRE": 3865,
      "IB": 3866,
      "IES": 3867,
      "LA": 3868,
      "MIT": 3869,
      "New": 3870,
      "TH": 3871,
      "TR": 3872,
      "ait": 3873,
      "bbed": 3874,
      "cher": 3875,
      "dated": 3876,
      "dream": 3877,
      "distribut": 3878,
      "ec": 3879,
      "each": 3880,
      "fo": 3881,
      "free": 3882,
      "felt": 3883,
      "friend": 3884,
      "flow": 3885,
      "gain": 3886,
      "great": 3887,
      "garden": 3888,
      "hall": 3889,
      "ient": 3890,
      "lim": 3891,
      "mas": 3892,
      "much": 3893,
      "mired": 3894,
      "matter": 3895,
      "pu": 3896,
      "pet": 3897,
      "prom": 3898,
      "pret": 3899,
      "rist": 3900,
      "sat": 3901,
      "sign": 3902,
      "taking": 3903,
      "times": 3904,
      "taken": 3905,
      "two": 3906,
      "ub": 3907,
      "vals": 3908,
      "wear": 3909,
      "why": 3910,
      "Ġ-": 3911,
      "ĠQ": 3912,
      "ĠâĢĻ": 3913,
      "Ġiv": 3914,
      "âĢ¦": 3915,
      "âĢĺ": 3916,
      "Ġwest": 3917,
      "Ġwra": 3918,
      "Ġwondered": 3919,
      "rer": 3920,
      "reck": 3921,
      "reement": 3922,
      "reme": 3923,
      "att": 3924,
      "attered": 3925,
      "atching": 3926,
      "Ġmach": 3927,
      "Ġmission": 3928,
      "Ġhate": 3929,
      "Ġharm": 3930,
      "itude": 3931,
      "ones": 3932,
      "Ġbree": 3933,
      "Ġbars": 3934,
      "Ġfan": 3935,
      "Ġfair": 3936,
      "Ġcraw": 3937,
      "Ġcries": 3938,
      "isk": 3939,
      "ises": 3940,
      "oral": 3941,
      "ĠInd": 3942,
      "Ġparent": 3943,
      "Ġpicked": 3944,
      "Ġling": 3945,
      "Ġlangu": 3946,
      "Ġheav": 3947,
      "Ġgame": 3948,
      "ution": 3949,
      "start": 3950,
      "step": 3951,
      "Ġears": 3952,
      "vey": 3953,
      "Ġyawn": 3954,
      "Ġund": 3955,
      "alty": 3956,
      "almost": 3957,
      "sequ": 3958,
      "ĠTell": 3959,
      "vern": 3960,
      "ety": 3961,
      "Ġstone": 3962,
      "cend": 3963,
      "ilities": 3964,
      "than": 3965,
      "allic": 3966,
      "Ġseven": 3967,
      "Ġsecurity": 3968,
      "ĠMost": 3969,
      "avel": 3970,
      "ĠWhy": 3971,
      "ĠAb": 3972,
      "ĠAr": 3973,
      "ĠAGRE": 3974,
      "Ġshone": 3975,
      "Ġshap": 3976,
      "ĠHundred": 3977,
      "agreement": 3978,
      "ĠSee": 3979,
      "ĠSouth": 3980,
      "ĠSpace": 3981,
      "Ġorgan": 3982,
      "Ġleather": 3983,
      "Ġleaning": 3984,
      "Ġliqu": 3985,
      "ĠDIS": 3986,
      "ource": 3987,
      "Ġvitality": 3988,
      "bery": 3989,
      "quaint": 3990,
      "ulation": 3991,
      "ulating": 3992,
      "Ġalive": 3993,
      "Ġalert": 3994,
      "Ġconst": 3995,
      "ĠPorcelain": 3996,
      "orts": 3997,
      "Ġspr": 3998,
      "Ġspent": 3999,
      "Ġuniver": 4000,
      "Ġtrace": 4001,
      "Ġtravel": 4002,
      "ĠHere": 4003,
      "Ġsomehow": 4004,
      "ĠFour": 4005,
      "ĠFOR": 4006,
      "Ġrob": 4007,
      "Ġroy": 4008,
      "Ġjer": 4009,
      "ĠCan": 4010,
      "Ġwhenever": 4011,
      "Ġuser": 4012,
      "Ġusually": 4013,
      "Ġafterward": 4014,
      "Ġhabit": 4015,
      "ĠLet": 4016,
      "Ġgrasp": 4017,
      "Ġgradually": 4018,
      "oft": 4019,
      "Ġthrow": 4020,
      "Ġfees": 4021,
      "Ġdaylight": 4022,
      "anges": 4023,
      "Ġamount": 4024,
      "Ġdoorway": 4025,
      "Ġlighted": 4026,
      "cied": 4027,
      "been": 4028,
      "beaut": 4029,
      "behind": 4030,
      "began": 4031,
      "Ġeverybody": 4032,
      "rows": 4033,
      "ivative": 4034,
      "Ġscr": 4035,
      "Ġcontent": 4036,
      "Ġcontribut": 4037,
      "Ġclim": 4038,
      "Ġbox": 4039,
      "Ġowner": 4040,
      "Ġdrift": 4041,
      "except": 4042,
      "suggest": 4043,
      "Ġstarting": 4044,
      "Ġcomput": 4045,
      "apsed": 4046,
      "Ġswinging": 4047,
      "ĠRE": 4048,
      "apping": 4049,
      "osition": 4050,
      "ĊĠĠĠĠĊĠĠĠ": 4051,
      "Ġadmitted": 4052,
      "ipment": 4053,
      "Ġsurface": 4054,
      "Ġintention": 4055,
      "Ġintellig": 4056,
      "Ġintellectual": 4057,
      "Ġdrank": 4058,
      "Ġmarked": 4059,
      "Ġinvisible": 4060,
      "Ġcourage": 4061,
      "grad": 4062,
      "Ġenter": 4063,
      "Ġentity": 4064,
      "Ġpersistent": 4065,
      "Ġslowed": 4066,
      "Ġsounds": 4067,
      "Ġcrit": 4068,
      "Ġcrim": 4069,
      "Ġexplain": 4070,
      "Ġexplanation": 4071,
      "Ġdistributed": 4072,
      "trademark": 4073,
      "Ġdecided": 4074,
      "Ġguess": 4075,
      "Ġelud": 4076,
      "Ġelaborate": 4077,
      "Ġcommun": 4078,
      "Ġeditions": 4079,
      "Ġbreathing": 4080,
      "aughter": 4081,
      "Ġinstead": 4082,
      "Ġfalling": 4083,
      "Ġpossibly": 4084,
      "ĠTHIS": 4085,
      "Ġinteresting": 4086,
      "Ġcreating": 4087,
      "Ġparagraphs": 4088,
      "Ġfrag": 4089,
      "Ġcreated": 4090,
      "Ġiron": 4091,
      "Ġceased": 4092,
      "disappeared": 4093,
      "Ġpayments": 4094,
      "Ġextreme": 4095,
      "Ġhorrible": 4096,
      "Ġfinger": 4097,
      "works": 4098,
      "engaged": 4099,
      "Ġcurtains": 4100,
      "Ġpursued": 4101,
      "complete": 4102,
      "alties": 4103,
      "Ġparticularly": 4104,
      "Ġcompletely": 4105,
      "Ġsimple": 4106,
      "States": 4107,
      "perience": 4108,
      "Ġcomplying": 4109,
      "hands": 4110,
      "viol": 4111,
      "Ġopportun": 4112,
      "windows": 4113,
      "Ġburning": 4114,
      "against": 4115,
      "Ġdisplaying": 4116,
      "haust": 4117,
      "Ġturf": 4118,
      "Ġnaturally": 4119,
      "Ġproviding": 4120,
      "Ġincredulous": 4121,
      "grey": 4122,
      "Ġstatus": 4123,
      "Ġreplacement": 4124,
      "Ġvarious": 4125,
      "Ġposted": 4126,
      "Ġtravelling": 4127,
      "Ġpanic": 4128,
      "Ġanimal": 4129,
      "donate": 4130,
      "darkness": 4131,
      "towards": 4132,
      "Ġthroat": 4133,
      "Ġpopular": 4134,
      "ĠEnglish": 4135,
      "ĠNOT": 4136,
      "Ġlinks": 4137,
      "Ġnervous": 4138,
      "Ġelectric": 4139,
      "Ġstopping": 4140,
      "Ġshouted": 4141,
      "Ġproperty": 4142,
      "Ġconditions": 4143,
      "Ġstepped": 4144,
      "ĠUnderworld": 4145,
      "ournalist": 4146,
      "ILITY": 4147,
      "Ġswaying": 4148,
      "Ġcentre": 4149,
      "Ġcandles": 4150,
      "Ġderivative": 4151,
      "Ġequipment": 4152,
      "Ġdefective": 4153,
      "Ġpuzzled": 4154,
      "Ġabsorbed": 4155,
      "Ġtemper": 4156,
      "Ġhistory": 4157,
      "opyright": 4158,
      "Ġapplicable": 4159,
      "AMAG": 4160,
      "MITED": 4161,
      "ristmas": 4162,
      "Ġbreeze": 4163,
      "Ġfancied": 4164,
      "steps": 4165,
      "Ġyawned": 4166,
      "beautiful": 4167,
      "ACH": 4168,
      "By": 4169,
      "Carraway": 4170,
      "De": 4171,
      "Has": 4172,
      "Jimmy": 4173,
      "Miss": 4174,
      "Next": 4175,
      "Up": 4176,
      "Yea": 4177,
      "bu": 4178,
      "bet": 4179,
      "cap": 4180,
      "creat": 4181,
      "cise": 4182,
      "cuse": 4183,
      "casion": 4184,
      "fell": 4185,
      "go": 4186,
      "gy": 4187,
      "ges": 4188,
      "gant": 4189,
      "girl": 4190,
      "garage": 4191,
      "gonne": 4192,
      "ho": 4193,
      "hood": 4194,
      "hab": 4195,
      "iber": 4196,
      "iantly": 4197,
      "lor": 4198,
      "last": 4199,
      "must": 4200,
      "moon": 4201,
      "oh": 4202,
      "pock": 4203,
      "picture": 4204,
      "sight": 4205,
      "such": 4206,
      "sens": 4207,
      "slight": 4208,
      "ues": 4209,
      "uro": 4210,
      "uation": 4211,
      "uate": 4212,
      "uish": 4213,
      "uished": 4214,
      "vis": 4215,
      "vanished": 4216,
      "whis": 4217,
      "wonder": 4218,
      "xiously": 4219,
      "Ġ8": 4220,
      "Ġ9": 4221,
      "Ġ[": 4222,
      "Ġer": 4223,
      "Ġutter": 4224,
      "Ġty": 4225,
      "Ġtan": 4226,
      "Ġtong": 4227,
      "Ġtum": 4228,
      "Ġtourn": 4229,
      "hear": 4230,
      "hester": 4231,
      "Ġaunt": 4232,
      "inv": 4233,
      "inity": 4234,
      "Ġwave": 4235,
      "Ġwish": 4236,
      "Ġwings": 4237,
      "Ġwives": 4238,
      "Ġwinter": 4239,
      "Ġsy": 4240,
      "Ġsen": 4241,
      "Ġsouth": 4242,
      "Ġsadd": 4243,
      "Ġscient": 4244,
      "Ġoper": 4245,
      "eded": 4246,
      "edom": 4247,
      "atically": 4248,
      "Ġmixed": 4249,
      "Ġmounted": 4250,
      "Ġhorn": 4251,
      "itted": 4252,
      "itary": 4253,
      "itably": 4254,
      "eness": 4255,
      "enough": 4256,
      "once": 4257,
      "Ġbore": 4258,
      "Ġbased": 4259,
      "Ġfie": 4260,
      "Ġfav": 4261,
      "Ġfixed": 4262,
      "Ġfoul": 4263,
      "Ġcred": 4264,
      "Ġcause": 4265,
      "ashing": 4266,
      "Ġdom": 4267,
      "Ġdull": 4268,
      "Ġinf": 4269,
      "Ġinsp": 4270,
      "lev": 4271,
      "lex": 4272,
      "legg": 4273,
      "lla": 4274,
      "Ġpig": 4275,
      "Ġpear": 4276,
      "Ġproject": 4277,
      "Ġpage": 4278,
      "Ġpiano": 4279,
      "estern": 4280,
      "esides": 4281,
      "Ġlocked": 4282,
      "Ġhell": 4283,
      "Ġgau": 4284,
      "Ġgather": 4285,
      "Ġgives": 4286,
      "ads": 4287,
      "Ġnature": 4288,
      "street": 4289,
      "Ġevent": 4290,
      "Ġeasy": 4291,
      "aching": 4292,
      "sey": 4293,
      "seen": 4294,
      "otlegg": 4295,
      "Ġyouth": 4296,
      "ribly": 4297,
      "Ġstri": 4298,
      "Ġstraw": 4299,
      "Ġstrolled": 4300,
      "Ġreaction": 4301,
      "Ġmelo": 4302,
      "Ġanxiously": 4303,
      "ams": 4304,
      "Ġforgot": 4305,
      "Ġaside": 4306,
      "Ġmyster": 4307,
      "cell": 4308,
      "ĠGa": 4309,
      "ĠGood": 4310,
      "chief": 4311,
      "thick": 4312,
      "those": 4313,
      "thousand": 4314,
      "ify": 4315,
      "ifth": 4316,
      "Ġseat": 4317,
      "Ġsearch": 4318,
      "ĠMiddle": 4319,
      "Ġrust": 4320,
      "Ġrise": 4321,
      "Ġraw": 4322,
      "Ġraced": 4323,
      "Ġsheer": 4324,
      "ĠAven": 4325,
      "Ġshif": 4326,
      "Ġshoes": 4327,
      "agg": 4328,
      "ĠSund": 4329,
      "ĠSomething": 4330,
      "ĠSaturday": 4331,
      "Ġdock": 4332,
      "Ġord": 4333,
      "Ġordered": 4334,
      "Ġabund": 4335,
      "Ġabstr": 4336,
      "ourne": 4337,
      "Ġvic": 4338,
      "Ġvillage": 4339,
      "illing": 4340,
      "isting": 4341,
      "istence": 4342,
      "ĠBroad": 4343,
      "ĠBaedeker": 4344,
      "quiet": 4345,
      "Ġexcl": 4346,
      "ulking": 4347,
      "Ġnote": 4348,
      "loi": 4349,
      "Ġconvinced": 4350,
      "ĠPark": 4351,
      "ĠPerhaps": 4352,
      "apart": 4353,
      "Ġunutter": 4354,
      "Ġunhapp": 4355,
      "Ġtrack": 4356,
      "Ġchatter": 4357,
      "ĠFren": 4358,
      "Ġmansion": 4359,
      "Ġja": 4360,
      "Ġjew": 4361,
      "ĠCome": 4362,
      "ĠNature": 4363,
      "ĠNorth": 4364,
      "icking": 4365,
      "ordinary": 4366,
      "Ġdefinitely": 4367,
      "ĠOggs": 4368,
      "ĠJames": 4369,
      "Ġflushed": 4370,
      "Ġflutter": 4371,
      "Ġprof": 4372,
      "plane": 4373,
      "ĊĊĠĠĠ": 4374,
      "teen": 4375,
      "Ġpeering": 4376,
      "Ġseeing": 4377,
      "Ġblur": 4378,
      "Ġblood": 4379,
      "Ġdiscover": 4380,
      "Ġquart": 4381,
      "Ġglow": 4382,
      "Ġbegin": 4383,
      "Ġthrown": 4384,
      "Ġperman": 4385,
      "Ġperceived": 4386,
      "Ġparted": 4387,
      "cip": 4388,
      "cially": 4389,
      "forward": 4390,
      "lected": 4391,
      "Ġbring": 4392,
      "Ġbrain": 4393,
      "Ġbridge": 4394,
      "Ġminister": 4395,
      "ancy": 4396,
      "ĠYale": 4397,
      "Ġcler": 4398,
      "Ġboat": 4399,
      "Ġdistr": 4400,
      "Ġthanks": 4401,
      "Ġimpassion": 4402,
      "Ġowns": 4403,
      "exc": 4404,
      "success": 4405,
      "Ġstring": 4406,
      "Ġmater": 4407,
      "Ġdesk": 4408,
      "ĠRed": 4409,
      "osite": 4410,
      "everal": 4411,
      "pecially": 4412,
      "Ġkey": 4413,
      "Ġhappy": 4414,
      "Ġwells": 4415,
      "Ġpolo": 4416,
      "young": 4417,
      "Ġconfident": 4418,
      "Ġconfirmed": 4419,
      "Ġinvite": 4420,
      "aza": 4421,
      "Ġpassion": 4422,
      "Ġrealize": 4423,
      "Ġmeaning": 4424,
      "ularly": 4425,
      "Ġinterior": 4426,
      "Ġlawns": 4427,
      "Ġdressing": 4428,
      "Ġgardener": 4429,
      "tracted": 4430,
      "iction": 4431,
      "Ġaccus": 4432,
      "Ġaccord": 4433,
      "Ġaccount": 4434,
      "Ġbuilt": 4435,
      "Ġwritten": 4436,
      "dec": 4437,
      "Ġpersonal": 4438,
      "doors": 4439,
      "Ġmovies": 4440,
      "Ġinstance": 4441,
      "Ġwhisper": 4442,
      "Ġruins": 4443,
      "Ġshortly": 4444,
      "Ġgroc": 4445,
      "Ġgroaning": 4446,
      "Ġoughtn": 4447,
      "Ġpromised": 4448,
      "ificial": 4449,
      "solutely": 4450,
      "Ġforest": 4451,
      "Ġpossible": 4452,
      "Ġrepres": 4453,
      "control": 4454,
      "party": 4455,
      "Ġsnob": 4456,
      "Ġoccup": 4457,
      "Ġfinished": 4458,
      "cheon": 4459,
      "Ġwhether": 4460,
      "Ġcrept": 4461,
      "Ġcreeping": 4462,
      "Myrtle": 4463,
      "wouldn": 4464,
      "Ġbreaking": 4465,
      "Ġcelebr": 4466,
      "Ġboys": 4467,
      "uffled": 4468,
      "Ġprotect": 4469,
      "Ġviolent": 4470,
      "Ġwondering": 4471,
      "Ġdrawer": 4472,
      "Ġcurrent": 4473,
      "Ġgenerations": 4474,
      "addy": 4475,
      "Ġnumbers": 4476,
      "Ġtransit": 4477,
      "Ġtranscri": 4478,
      "summer": 4479,
      "Ġmodel": 4480,
      "Ġlegs": 4481,
      "Ġlegal": 4482,
      "Ġconcern": 4483,
      "Ġghosts": 4484,
      "Ġsolid": 4485,
      "Ġcorners": 4486,
      "oosevel": 4487,
      "ĠMont": 4488,
      "Ġcostume": 4489,
      "Ġeyeb": 4490,
      "Ġvaguely": 4491,
      "Ġintensity": 4492,
      "Ġlaughing": 4493,
      "Ġgravel": 4494,
      "Ġtower": 4495,
      "Ġsideways": 4496,
      "laughed": 4497,
      "married": 4498,
      "present": 4499,
      "Ġphotograp": 4500,
      "Ġcorrected": 4501,
      "Ġtipto": 4502,
      "Ġbalancing": 4503,
      "Ġrailroad": 4504,
      "Ġprivate": 4505,
      "Ġhydro": 4506,
      "Ġtravelled": 4507,
      "words": 4508,
      "Ġsensation": 4509,
      "Ġsatisfaction": 4510,
      "Ġfruit": 4511,
      "Ġdanger": 4512,
      "Ġbreakfast": 4513,
      "ajor": 4514,
      "broken": 4515,
      "corner": 4516,
      "Ġmidnight": 4517,
      "Ġmentioned": 4518,
      "Ġresem": 4519,
      "Ġexamined": 4520,
      "ĠCollege": 4521,
      "Ġpointing": 4522,
      "Ġcocktails": 4523,
      "Really": 4524,
      "floated": 4525,
      "Ġmillion": 4526,
      "Ġgloom": 4527,
      "Ġvigil": 4528,
      "Ġcharacter": 4529,
      "Ġblankly": 4530,
      "Chicago": 4531,
      "Ġwiped": 4532,
      "Ġmilk": 4533,
      "Ġinevitable": 4534,
      "Ġgentleman": 4535,
      "Ġnearer": 4536,
      "Ġtragic": 4537,
      "ĠRosy": 4538,
      "Ġveranda": 4539,
      "Ġgaiety": 4540,
      "ĠPlaza": 4541,
      "Ġenjoyed": 4542,
      "interest": 4543,
      "Ġwagon": 4544,
      "Ġdignified": 4545,
      "Ġluncheon": 4546,
      "question": 4547,
      "Ġglimpse": 4548,
      "Ġenchanted": 4549,
      "Ġemploy": 4550,
      "Ġirresistible": 4551,
      "sequence": 4552,
      "Ġsprang": 4553,
      "iberately": 4554,
      "urope": 4555,
      "Ġtumult": 4556,
      "Ġtournament": 4557,
      "ĠAvenue": 4558,
      "ĠSunday": 4559,
      "Ġabundant": 4560,
      "ourney": 4561,
      "ĠBroadway": 4562,
      "ĠFrench": 4563,
      "ĠOggsford": 4564,
      "Ġimpassioned": 4565,
      "oosevelt": 4566,
      "Ġhydroplane": 4567,
      "?âĢĶ": 4568,
      "Going": 4569,
      "Two": 4570,
      "VI": 4571,
      "aby": 4572,
      "aved": 4573,
      "beside": 4574,
      "cy": 4575,
      "cest": 4576,
      "city": 4577,
      "care": 4578,
      "coun": 4579,
      "den": 4580,
      "dust": 4581,
      "dig": 4582,
      "eal": 4583,
      "gave": 4584,
      "gener": 4585,
      "hib": 4586,
      "kes": 4587,
      "lad": 4588,
      "link": 4589,
      "life": 4590,
      "moved": 4591,
      "nal": 4592,
      "ole": 4593,
      "opp": 4594,
      "ober": 4595,
      "pes": 4596,
      "rich": 4597,
      "rounded": 4598,
      "same": 4599,
      "sus": 4600,
      "soft": 4601,
      "trying": 4602,
      "uit": 4603,
      "uated": 4604,
      "udd": 4605,
      "vive": 4606,
      "wed": 4607,
      "wit": 4608,
      "Ġtall": 4609,
      "Ġtunn": 4610,
      "hem": 4611,
      "Ġaud": 4612,
      "inion": 4613,
      "inally": 4614,
      "Ġwro": 4615,
      "Ġwreck": 4616,
      "Ġsou": 4617,
      "Ġsom": 4618,
      "Ġsch": 4619,
      "Ġsci": 4620,
      "Ġscept": 4621,
      "Ġsalt": 4622,
      "erman": 4623,
      "ergy": 4624,
      "attle": 4625,
      "Ġmakes": 4626,
      "Ġhors": 4627,
      "Ġhilar": 4628,
      "itch": 4629,
      "Ġbir": 4630,
      "Ġband": 4631,
      "Ġfed": 4632,
      "Ġfer": 4633,
      "Ġfat": 4634,
      "Ġfle": 4635,
      "Ġfate": 4636,
      "Ġfaced": 4637,
      "Ġfancy": 4638,
      "Ġcared": 4639,
      "Ġcentral": 4640,
      "asc": 4641,
      "astern": 4642,
      "Ġdear": 4643,
      "Ġdry": 4644,
      "Ġincl": 4645,
      "âĢĻ,": 4646,
      "Ġpot": 4647,
      "Ġpill": 4648,
      "Ġpages": 4649,
      "Ġpush": 4650,
      "Ġpapers": 4651,
      "Ġled": 4652,
      "Ġlur": 4653,
      "Ġheaps": 4654,
      "Ġgently": 4655,
      "Ġgiving": 4656,
      "Ġwash": 4657,
      "Ġwasting": 4658,
      "Ġnon": 4659,
      "sty": 4660,
      "ics": 4661,
      "icited": 4662,
      "Ġet": 4663,
      "rot": 4664,
      "acity": 4665,
      "ĠThing": 4666,
      "oth": 4667,
      "ott": 4668,
      "oted": 4669,
      "othing": 4670,
      "otions": 4671,
      "etrop": 4672,
      "riate": 4673,
      "Ġstout": 4674,
      "Ġstick": 4675,
      "Ġren": 4676,
      "irit": 4677,
      "Ġwealth": 4678,
      "Ġmeat": 4679,
      "Ġmeas": 4680,
      "Ġantic": 4681,
      "Ġancest": 4682,
      "urd": 4683,
      "urs": 4684,
      "ctober": 4685,
      "Ġmystery": 4686,
      "ilation": 4687,
      "ĠĠĠĠĠĠĠ": 4688,
      "Ġhers": 4689,
      "Ġseized": 4690,
      "ĠMetrop": 4691,
      "Ġsuccess": 4692,
      "Ġrap": 4693,
      "Ġrate": 4694,
      "Ġrush": 4695,
      "ĠWhere": 4696,
      "antel": 4697,
      "antage": 4698,
      "Ġshel": 4699,
      "oli": 4700,
      "ĠAn": 4701,
      "ĠAge": 4702,
      "Ġshake": 4703,
      "Ġshows": 4704,
      "Ġshrub": 4705,
      "ounding": 4706,
      "ĠHave": 4707,
      "ĠHill": 4708,
      "agged": 4709,
      "ĠSection": 4710,
      "bles": 4711,
      "oping": 4712,
      "owning": 4713,
      "ession": 4714,
      "uns": 4715,
      "unct": 4716,
      "until": 4717,
      "Ġworse": 4718,
      "Ġvac": 4719,
      "Ġsober": 4720,
      "astward": 4721,
      "usive": 4722,
      "istered": 4723,
      "istinct": 4724,
      "ĠBel": 4725,
      "umps": 4726,
      "elling": 4727,
      "ĠPresently": 4728,
      "Ġknee": 4729,
      "Ġspark": 4730,
      "Ġunless": 4731,
      "Ġunmist": 4732,
      "Ġunknown": 4733,
      "Ġuncomfort": 4734,
      "Ġoverwhel": 4735,
      "Ġnegro": 4736,
      "Ġtrad": 4737,
      "Ġgovern": 4738,
      "Ġcho": 4739,
      "Ġchain": 4740,
      "gered": 4741,
      "ĠFrom": 4742,
      "Ġroof": 4743,
      "inkle": 4744,
      "urely": 4745,
      "ĠCar": 4746,
      "ĠCity": 4747,
      "ĠComp": 4748,
      "earing": 4749,
      "rav": 4750,
      "ĠOur": 4751,
      "ĠOctober": 4752,
      "ĠJournalist": 4753,
      "Ġhail": 4754,
      "Ġhazy": 4755,
      "ship": 4756,
      "Ġprop": 4757,
      "Ġproce": 4758,
      "tended": 4759,
      "ĠLook": 4760,
      "ĠLake": 4761,
      "Ġgranted": 4762,
      "Ġacquaint": 4763,
      "Ġplun": 4764,
      "Ġsmashed": 4765,
      "ryst": 4766,
      "rugg": 4767,
      "Ġprevious": 4768,
      "spitality": 4769,
      "Ġpermitted": 4770,
      "clothes": 4771,
      "ciety": 4772,
      "forgotten": 4773,
      "Ġcover": 4774,
      "Ġbrass": 4775,
      "blance": 4776,
      "ceptible": 4777,
      "conom": 4778,
      "Ġclust": 4779,
      "Ġcloud": 4780,
      "Ġfounded": 4781,
      "Ġdistinct": 4782,
      "ishly": 4783,
      "ishment": 4784,
      "Ġimpro": 4785,
      "without": 4786,
      "izon": 4787,
      "Ġmattered": 4788,
      "Ġstartling": 4789,
      "Ġbrood": 4790,
      "Ġswamp": 4791,
      "Ġterr": 4792,
      "Ġindiffe": 4793,
      "Ġcoun": 4794,
      "Ġsports": 4795,
      "feet": 4796,
      "Ġyounger": 4797,
      "ledge": 4798,
      "Ġadvent": 4799,
      "Ġconfirm": 4800,
      "aze": 4801,
      "rences": 4802,
      "Ġmetallic": 4803,
      "Ġspeaking": 4804,
      "Ġcracked": 4805,
      "Ġcarefully": 4806,
      "Ġdrop": 4807,
      "Ġemotions": 4808,
      "Ġdressed": 4809,
      "turning": 4810,
      "Ġbrighter": 4811,
      "Ġdecay": 4812,
      "Ġcommand": 4813,
      "Ġedd": 4814,
      "Ġreading": 4815,
      "Ġrig": 4816,
      "Ġripp": 4817,
      "Ġripped": 4818,
      "ĠChristmas": 4819,
      "vented": 4820,
      "Ġdogs": 4821,
      "Ġcircular": 4822,
      "Ġnodding": 4823,
      "Ġrules": 4824,
      "provid": 4825,
      "Ġclean": 4826,
      "Ġsinister": 4827,
      "Ġaffection": 4828,
      "Ġactual": 4829,
      "Ġactually": 4830,
      "Ġpossib": 4831,
      "idden": 4832,
      "Ġobjects": 4833,
      "ossible": 4834,
      "Ġhesitation": 4835,
      "Ġabsurd": 4836,
      "Ġsweat": 4837,
      "Ġcease": 4838,
      "irectly": 4839,
      "Ġregular": 4840,
      "Ġregistered": 4841,
      "Ġconscious": 4842,
      "Ġviolence": 4843,
      "Ġhorse": 4844,
      "Ġcigar": 4845,
      "Ġmeeting": 4846,
      "Ġsuspected": 4847,
      "iveness": 4848,
      "Ġserved": 4849,
      "Ġservice": 4850,
      "ropriate": 4851,
      "Ġfreshness": 4852,
      "ierce": 4853,
      "Ġwires": 4854,
      "Ġcalcul": 4855,
      "Ġhasty": 4856,
      "couldn": 4857,
      "Ġskin": 4858,
      "Ġgestures": 4859,
      "Ġdisplayed": 4860,
      "Ġbuildings": 4861,
      "knew": 4862,
      "laugh": 4863,
      "Ġbitter": 4864,
      "Ġbloss": 4865,
      "Ġincessant": 4866,
      "Suppose": 4867,
      "Ġdrifting": 4868,
      "Ġgleaming": 4869,
      "Ġarrang": 4870,
      "Ġartificial": 4871,
      "ĠExcept": 4872,
      "Ġappearance": 4873,
      "Ġballoon": 4874,
      "Ġfrightened": 4875,
      "Ġfruits": 4876,
      "Ġbelonged": 4877,
      "Ġsmoking": 4878,
      "balls": 4879,
      "Ġgrief": 4880,
      "Ġbells": 4881,
      "empor": 4882,
      "Ġgraceful": 4883,
      "Ġrelieved": 4884,
      "Ġdeserted": 4885,
      "Ġcalmly": 4886,
      "Ġsplendid": 4887,
      "Ġinvestig": 4888,
      "ollen": 4889,
      "Ġfainted": 4890,
      "Ġsteadily": 4891,
      "Ġsearched": 4892,
      "shoulder": 4893,
      "Ġstaggered": 4894,
      "Ġproblem": 4895,
      "Ġkeenly": 4896,
      "Ġivory": 4897,
      "Ġparents": 4898,
      "Ġuniverse": 4899,
      "Ġintelligence": 4900,
      "Ġcrimson": 4901,
      "Ġeluded": 4902,
      "pocket": 4903,
      "Ġscientific": 4904,
      "Ġorders": 4905,
      "Ġmaterial": 4906,
      "counter": 4907,
      "susp": 4908,
      "Ġwrote": 4909,
      "Ġscience": 4910,
      "Ġanticip": 4911,
      "Ġunmistak": 4912,
      "Ġconfirmation": 4913,
      "01": 4914,
      "19": 4915,
      "41": 4916,
      "Ah": 4917,
      "BO": 4918,
      "Baker": 4919,
      "Buchanan": 4920,
      "Biloxi": 4921,
      "Cody": 4922,
      "Certain": 4923,
      "CEN": 4924,
      "CII": 4925,
      "Dimension": 4926,
      "Ex": 4927,
      "Get": 4928,
      "Hot": 4929,
      "IRE": 4930,
      "ION": 4931,
      "LE": 4932,
      "LL": 4933,
      "Like": 4934,
      "Machine": 4935,
      "McKee": 4936,
      "OK": 4937,
      "OSE": 4938,
      "Pro": 4939,
      "Plain": 4940,
      "Perhaps": 4941,
      "SS": 4942,
      "SCII": 4943,
      "TAR": 4944,
      "Un": 4945,
      "ULL": 4946,
      "Was": 4947,
      "Want": 4948,
      "Will": 4949,
      "Wolfshiem": 4950,
      "Wait": 4951,
      "York": 4952,
      "bor": 4953,
      "big": 4954,
      "bought": 4955,
      "bru": 4956,
      "case": 4957,
      "copyright": 4958,
      "dom": 4959,
      "dam": 4960,
      "dour": 4961,
      "dress": 4962,
      "drugstore": 4963,
      "ept": 4964,
      "eople": 4965,
      "egg": 4966,
      "fright": 4967,
      "fact": 4968,
      "fifty": 4969,
      "gt": 4970,
      "ger": 4971,
      "hou": 4972,
      "hill": 4973,
      "hast": 4974,
      "ker": 4975,
      "kind": 4976,
      "killed": 4977,
      "lt": 4978,
      "lan": 4979,
      "list": 4980,
      "later": 4981,
      "license": 4982,
      "mber": 4983,
      "machine": 4984,
      "mail": 4985,
      "morning": 4986,
      "mons": 4987,
      "minded": 4988,
      "nce": 4989,
      "number": 4990,
      "oever": 4991,
      "ping": 4992,
      "pain": 4993,
      "ris": 4994,
      "ram": 4995,
      "rain": 4996,
      "say": 4997,
      "tw": 4998,
      "tut": 4999,
      "tons": 5000,
      "vast": 5001,
      "viv": 5002,
      "vail": 5003,
      "village": 5004,
      "wing": 5005,
      "wet": 5006,
      "zed": 5007,
      "ĊĠ": 5008,
      "ĊĠĠĠĠĠĠĠĠĠĠĠĠĠĠĠĠĠĠĠĠĠĠĠĠĠĠĠĠĠĠĠĠ": 5009,
      "Ġ7": 5010,
      "Ġ***": 5011,
      "Ġtest": 5012,
      "Ġtap": 5013,
      "Ġtick": 5014,
      "Ġtreat": 5015,
      "Ġtend": 5016,
      "Ġtense": 5017,
      "Ġtakes": 5018,
      "Ġtapped": 5019,
      "Ġtipped": 5020,
      "Ġap": 5021,
      "Ġale": 5022,
      "Ġavail": 5023,
      "inal": 5024,
      "inate": 5025,
      "inently": 5026,
      "inside": 5027,
      "inery": 5028,
      "inished": 5029,
      "includ": 5030,
      "Ġwing": 5031,
      "Ġwal": 5032,
      "Ġwoke": 5033,
      "Ġwedding": 5034,
      "Ġwreath": 5035,
      "Ġsir": 5036,
      "Ġsill": 5037,
      "Ġsne": 5038,
      "Ġscold": 5039,
      "Ġop": 5040,
      "Ġodour": 5041,
      "ref": 5042,
      "real": 5043,
      "rehen": 5044,
      "erms": 5045,
      "ersey": 5046,
      "ouching": 5047,
      "ata": 5048,
      "atus": 5049,
      "atitude": 5050,
      "Ġmess": 5051,
      "Ġmuffled": 5052,
      "Ġhal": 5053,
      "Ġhol": 5054,
      "Ġhint": 5055,
      "Ġhalt": 5056,
      "Ġhoped": 5057,
      "Ġhips": 5058,
      "itz": 5059,
      "iture": 5060,
      "itting": 5061,
      "onel": 5062,
      "Ġbri": 5063,
      "Ġbul": 5064,
      "Ġbird": 5065,
      "Ġbrill": 5066,
      "Ġbann": 5067,
      "Ġbench": 5068,
      "Ġbasket": 5069,
      "Ġfly": 5070,
      "Ġfac": 5071,
      "Ġfood": 5072,
      "Ġfres": 5073,
      "Ġfix": 5074,
      "Ġfumbled": 5075,
      "Ġfacing": 5076,
      "Ġcow": 5077,
      "Ġcord": 5078,
      "Ġcream": 5079,
      "Ġcyn": 5080,
      "isingly": 5081,
      "orter": 5082,
      "orous": 5083,
      "orough": 5084,
      "orously": 5085,
      "oria": 5086,
      "Ġtoss": 5087,
      "ĠIN": 5088,
      "ĠIND": 5089,
      "Ġden": 5090,
      "Ġdil": 5091,
      "Ġdue": 5092,
      "Ġdances": 5093,
      "Ġinac": 5094,
      "Ġinco": 5095,
      "Ġinfl": 5096,
      "Ġinformed": 5097,
      "arre": 5098,
      "arse": 5099,
      "armed": 5100,
      "arbar": 5101,
      "anill": 5102,
      "Ġthird": 5103,
      "Ġthinning": 5104,
      "Ġthrilling": 5105,
      "oms": 5106,
      "âĢĻ?âĢĿ": 5107,
      "Ġpy": 5108,
      "Ġpet": 5109,
      "Ġpour": 5110,
      "Ġpack": 5111,
      "Ġpark": 5112,
      "Ġpump": 5113,
      "Ġpomp": 5114,
      "Ġlic": 5115,
      "Ġlone": 5116,
      "Ġlatter": 5117,
      "Ġge": 5118,
      "adv": 5119,
      "adow": 5120,
      "Ġner": 5121,
      "Ġnost": 5122,
      "stance": 5123,
      "stained": 5124,
      "icated": 5125,
      "Ġech": 5126,
      "Ġebook": 5127,
      "ider": 5128,
      "imal": 5129,
      "imet": 5130,
      "velled": 5131,
      "Ġbend": 5132,
      "Ġbending": 5133,
      "Ġbeads": 5134,
      "enth": 5135,
      "ents": 5136,
      "across": 5137,
      "along": 5138,
      "alian": 5139,
      "sea": 5140,
      "several": 5141,
      "ĠTO": 5142,
      "ĠTown": 5143,
      "ĠTost": 5144,
      "ĠTaking": 5145,
      "ĠTattle": 5146,
      "ĠTerms": 5147,
      "verse": 5148,
      "aye": 5149,
      "ota": 5150,
      "othed": 5151,
      "eth": 5152,
      "etr": 5153,
      "ette": 5154,
      "rier": 5155,
      "Ġstro": 5156,
      "Ġstoo": 5157,
      "Ġstore": 5158,
      "Ġstairs": 5159,
      "Ġstuck": 5160,
      "Ġrear": 5161,
      "Ġresum": 5162,
      "Ġrevol": 5163,
      "Ġreser": 5164,
      "Ġwel": 5165,
      "Ġweed": 5166,
      "Ġwhit": 5167,
      "ury": 5168,
      "urried": 5169,
      "Ġasp": 5170,
      "Ġasser": 5171,
      "ilent": 5172,
      "ilious": 5173,
      "aining": 5174,
      "ĠĠĠĠĠ": 5175,
      "chid": 5176,
      "child": 5177,
      "ifteen": 5178,
      "Ġsell": 5179,
      "Ġsees": 5180,
      "Ġseated": 5181,
      "Ġsepar": 5182,
      "Ġseventeen": 5183,
      "embarrass": 5184,
      "ĠMu": 5185,
      "told": 5186,
      "Ġsuper": 5187,
      "Ġsuperior": 5188,
      "Ġriding": 5189,
      "ĠWalter": 5190,
      "anta": 5191,
      "anting": 5192,
      "ooked": 5193,
      "olent": 5194,
      "oline": 5195,
      "ĠAired": 5196,
      "ĠASCII": 5197,
      "Ġshop": 5198,
      "Ġshrill": 5199,
      "Ġshoe": 5200,
      "hers": 5201,
      "ĠSc": 5202,
      "ĠSch": 5203,
      "ĠSea": 5204,
      "ĠSeries": 5205,
      "ĠSilent": 5206,
      "ĠSanta": 5207,
      "atsoever": 5208,
      "Ġoranges": 5209,
      "Ġorchid": 5210,
      "Ġaband": 5211,
      "Ġlead": 5212,
      "Ġlevers": 5213,
      "Ġlemons": 5214,
      "ousine": 5215,
      "ĠDAMAG": 5216,
      "ĠDaddy": 5217,
      "untered": 5218,
      "Ġworth": 5219,
      "Ġworked": 5220,
      "Ġvul": 5221,
      "Ġsocial": 5222,
      "astly": 5223,
      "astically": 5224,
      "usual": 5225,
      "istice": 5226,
      "istance": 5227,
      "indeed": 5228,
      "ĠBE": 5229,
      "ĠBRE": 5230,
      "ĠBarbar": 5231,
      "Ġexer": 5232,
      "Ġexempt": 5233,
      "Ġexperience": 5234,
      "ulse": 5235,
      "Ġconven": 5236,
      "Ġconsequence": 5237,
      "ĠPG": 5238,
      "ĠPU": 5239,
      "ĠPar": 5240,
      "ĠPal": 5241,
      "ĠPeople": 5242,
      "Ġspite": 5243,
      "Ġspend": 5244,
      "Ġspee": 5245,
      "Ġuntrue": 5246,
      "Ġuneasy": 5247,
      "Ġunsuccess": 5248,
      "ivet": 5249,
      "Ġtray": 5250,
      "Ġgoin": 5251,
      "Ġchairs": 5252,
      "ĠFer": 5253,
      "ĠFort": 5254,
      "ĠFear": 5255,
      "ĠFirst": 5256,
      "ĠFrid": 5257,
      "ĠFifth": 5258,
      "ĠFULL": 5259,
      "ĠFitz": 5260,
      "Ġrot": 5261,
      "Ġjoy": 5262,
      "Ġjule": 5263,
      "Ġjourney": 5264,
      "Ġnobody": 5265,
      "Ġwholes": 5266,
      "Ġlikely": 5267,
      "ureau": 5268,
      "ĠCl": 5269,
      "ĠChester": 5270,
      "ĠCivet": 5271,
      "ĠEX": 5272,
      "ĠEvidently": 5273,
      "ĠEverybody": 5274,
      "ĠElla": 5275,
      "ĠEurope": 5276,
      "ĠEBO": 5277,
      "Ġhanded": 5278,
      "Ġhandker": 5279,
      "early": 5280,
      "earnest": 5281,
      "ĠNever": 5282,
      "herent": 5283,
      "ickering": 5284,
      "ords": 5285,
      "ordered": 5286,
      "Ġworking": 5287,
      "ressively": 5288,
      "ĠIts": 5289,
      "ĠItalian": 5290,
      "rail": 5291,
      "razy": 5292,
      "Ġdev": 5293,
      "ĠOh": 5294,
      "ĠJew": 5295,
      "ĠJuly": 5296,
      "ĠJersey": 5297,
      "Ġhaunted": 5298,
      "shoes": 5299,
      "shadow": 5300,
      "Ġfluct": 5301,
      "Ġflann": 5302,
      "Ġflipped": 5303,
      "Ġflicker": 5304,
      "Ġtwelve": 5305,
      "plic": 5306,
      "telephone": 5307,
      "Ġdonate": 5308,
      "Ġgrown": 5309,
      "Ġgrate": 5310,
      "Ġgruff": 5311,
      "Ġblow": 5312,
      "Ġgets": 5313,
      "Ġplain": 5314,
      "Ġplants": 5315,
      "often": 5316,
      "Ġways": 5317,
      "Ġsmiling": 5318,
      "Ġthrowing": 5319,
      "Ġfeatures": 5320,
      "Ġunderground": 5321,
      "Ġmomentary": 5322,
      "Ġmomentarily": 5323,
      "Ġthinks": 5324,
      "Ġlongest": 5325,
      "Ġamazing": 5326,
      "Ġperceptible": 5327,
      "Ġlightly": 5328,
      "ciously": 5329,
      "force": 5330,
      "taining": 5331,
      "beg": 5332,
      "beyond": 5333,
      "Ġslope": 5334,
      "Ġfolds": 5335,
      "necess": 5336,
      "Ġcopied": 5337,
      "rowing": 5338,
      "blue": 5339,
      "Ġappar": 5340,
      "Ġappears": 5341,
      "conce": 5342,
      "contain": 5343,
      "Ġscared": 5344,
      "Ġcontrol": 5345,
      "Weena": 5346,
      "Ġclut": 5347,
      "Ġbored": 5348,
      "Ġboots": 5349,
      "Ġbonds": 5350,
      "Ġdisting": 5351,
      "ĠInstead": 5352,
      "ĠUse": 5353,
      "Ġobs": 5354,
      "Ġobser": 5355,
      "Ġimperson": 5356,
      "Ġimpossible": 5357,
      "ization": 5358,
      "izarre": 5359,
      "Ġhalfway": 5360,
      "Ġbrother": 5361,
      "Ġcompany": 5362,
      "Ġcompelled": 5363,
      "ieve": 5364,
      "ribute": 5365,
      "Ġswall": 5366,
      "Ġswung": 5367,
      "Ġswimming": 5368,
      "Ġterror": 5369,
      "alking": 5370,
      "Ġindign": 5371,
      "Ġexpress": 5372,
      "ĠRoy": 5373,
      "ĠRoosevelt": 5374,
      "appro": 5375,
      "aternal": 5376,
      "Ġalongshore": 5377,
      "ĊĠĠĠĠĊ": 5378,
      "Ġadap": 5379,
      "Ġadjust": 5380,
      "Ġadmir": 5381,
      "Ġfully": 5382,
      "Ġresting": 5383,
      "Ġrestaurant": 5384,
      "ĠStation": 5385,
      "Ġ15": 5386,
      "Ġintently": 5387,
      "Ġsilhou": 5388,
      "Ġconfess": 5389,
      "Ġpassing": 5390,
      "Ġtables": 5391,
      "Ġteeth": 5392,
      "Ġspecial": 5393,
      "Ġentertain": 5394,
      "brown": 5395,
      "Ġearnest": 5396,
      "coming": 5397,
      "lights": 5398,
      "Ġelectronically": 5399,
      "Ġcrushed": 5400,
      "Ġintermit": 5401,
      "Ġfamous": 5402,
      "Nobody": 5403,
      "Ġaddressed": 5404,
      "Ġsentimental": 5405,
      "train": 5406,
      "travell": 5407,
      "Ġideas": 5408,
      "Ġwatching": 5409,
      "Ġparad": 5410,
      "Ġdecade": 5411,
      "Ġdecisively": 5412,
      "Ġsituation": 5413,
      "aneously": 5414,
      "ictions": 5415,
      "Ġelbow": 5416,
      "Ġpride": 5417,
      "Ġflower": 5418,
      "Ġcommut": 5419,
      "Ġcommitted": 5420,
      "Ġsurprising": 5421,
      "Ġsurprisingly": 5422,
      "dev": 5423,
      "Ġready": 5424,
      "Ġriot": 5425,
      "Ġintended": 5426,
      "However": 5427,
      "Ġawed": 5428,
      "Ġawful": 5429,
      "itional": 5430,
      "Ġredistribut": 5431,
      "ulture": 5432,
      "ultaneously": 5433,
      "Ġcorro": 5434,
      "anything": 5435,
      "proach": 5436,
      "Ġauthor": 5437,
      "lephoned": 5438,
      "Ġarrival": 5439,
      "orrowed": 5440,
      "ificance": 5441,
      "boat": 5442,
      "boxes": 5443,
      "Ġaffect": 5444,
      "Ġaffected": 5445,
      "Ġaffairs": 5446,
      "ĠThus": 5447,
      "Ġdiscreet": 5448,
      "Ġdiscuss": 5449,
      "ĠTHAT": 5450,
      "Ġreports": 5451,
      "Ġdeeper": 5452,
      "Ġplayer": 5453,
      "ĠKaye": 5454,
      "Ġwarn": 5455,
      "Ġwarned": 5456,
      "Ġsnap": 5457,
      "Ġsleeping": 5458,
      "Ġabsently": 5459,
      "Ġbreathless": 5460,
      "Ġbreathlessly": 5461,
      "Ġtrains": 5462,
      "Ġverge": 5463,
      "Ġswept": 5464,
      "Ġbreeding": 5465,
      "Ġcouple": 5466,
      "www": 5467,
      "Ġwalls": 5468,
      "Ġghastly": 5469,
      "strained": 5470,
      "Ġreceipt": 5471,
      "Ġprotest": 5472,
      "Ġclosing": 5473,
      "array": 5474,
      "Ġpowdered": 5475,
      "Ġphysically": 5476,
      "Ġlimitation": 5477,
      "Ġconscient": 5478,
      "Ġconsiderable": 5479,
      "Ġdisappro": 5480,
      "Ġdamn": 5481,
      "Ġcomplained": 5482,
      "Absolutely": 5483,
      "Ġgeneration": 5484,
      "Ġtransp": 5485,
      "Ġdoubtfully": 5486,
      "Ġfoolish": 5487,
      "untarily": 5488,
      "ĠNobody": 5489,
      "Ġdetermine": 5490,
      "incre": 5491,
      "Ġsolicit": 5492,
      "Ġsuspect": 5493,
      "Ġshowed": 5494,
      "Ġvisit": 5495,
      "Ġremarks": 5496,
      "Ġindefinite": 5497,
      "minable": 5498,
      "minute": 5499,
      "voice": 5500,
      "Ġcosts": 5501,
      "Ġflattered": 5502,
      "istributing": 5503,
      "Ġ202": 5504,
      "asping": 5505,
      "ĠWhile": 5506,
      "Ġofficer": 5507,
      "Ġofficers": 5508,
      "Ġautomatically": 5509,
      "Ġslept": 5510,
      "Ġpublic": 5511,
      "Ġjudg": 5512,
      "Ġsixty": 5513,
      "Ġopposite": 5514,
      "Ġtowel": 5515,
      "Ġnorth": 5516,
      "ĠSuperior": 5517,
      "Ġspecified": 5518,
      "Ġspecimens": 5519,
      "ATION": 5520,
      "Ġlisten": 5521,
      "Ġlistening": 5522,
      "Ġbloomed": 5523,
      "tlessly": 5524,
      "Ġincreasing": 5525,
      "Anything": 5526,
      "green": 5527,
      "ointment": 5528,
      "Ġbalance": 5529,
      "Ġstatement": 5530,
      "Ġnecessity": 5531,
      "whole": 5532,
      "Ġreluctance": 5533,
      "Ġprivile": 5534,
      "office": 5535,
      "Ġdepart": 5536,
      "Ġaccidental": 5537,
      "drive": 5538,
      "Ġtangible": 5539,
      "Ġdestiny": 5540,
      "Ġgleam": 5541,
      "Ġconceal": 5542,
      "Ġconcealed": 5543,
      "Ġarrange": 5544,
      "Ġnewspapers": 5545,
      "Ġdifficult": 5546,
      "Ġstruggle": 5547,
      "Before": 5548,
      "EMENT": 5549,
      "LIAB": 5550,
      "toward": 5551,
      "Ġfaith": 5552,
      "Ġfault": 5553,
      "Ġpopulation": 5554,
      "Ġjoin": 5555,
      "ĠEngland": 5556,
      "speak": 5557,
      "Ġ1919": 5558,
      "Ġintroduction": 5559,
      "Ġextraordinary": 5560,
      "ING": 5561,
      "Ġloves": 5562,
      "Ġresearch": 5563,
      "Ġunreal": 5564,
      "Ġcocktail": 5565,
      "Ġdelicate": 5566,
      "Ġenthusiasm": 5567,
      "Ġenthusiastically": 5568,
      "hundreds": 5569,
      "Ġespecially": 5570,
      "Ġwitness": 5571,
      "Ġwidest": 5572,
      "Ġeasily": 5573,
      "ĠMaybe": 5574,
      "Ġexpenses": 5575,
      "Ġobtaining": 5576,
      "Ġobscene": 5577,
      "Doesn": 5578,
      "Ġirreg": 5579,
      "finger": 5580,
      "fingers": 5581,
      "Ġslipped": 5582,
      "Ġpressure": 5583,
      "Ġstables": 5584,
      "Ġannounced": 5585,
      "Ġassumed": 5586,
      "Ġargument": 5587,
      "ĠFinnish": 5588,
      "ĠLIMITED": 5589,
      "ĠLICEN": 5590,
      "Ġdisclaimer": 5591,
      "Ġperforming": 5592,
      "Ġembarrassed": 5593,
      "Ġembarrassment": 5594,
      "Ġelevated": 5595,
      "Ġelevator": 5596,
      "ĠWARRANTY": 5597,
      "ĠWARRANTIES": 5598,
      "Almost": 5599,
      "Ġmechanism": 5600,
      "Ġradiant": 5601,
      "Ġprepare": 5602,
      "understanding": 5603,
      "Ġmagazine": 5604,
      "Ġoriginal": 5605,
      "IVE": 5606,
      "Ġestab": 5607,
      "Ġmirror": 5608,
      "Ġhonest": 5609,
      "Ġfurniture": 5610,
      "leaving": 5611,
      "immediately": 5612,
      "Ġreferences": 5613,
      "Ġrumours": 5614,
      "ĠDonations": 5615,
      "ĠOverworld": 5616,
      "Ġproprietary": 5617,
      "confused": 5618,
      "Ġrestrictions": 5619,
      "Ġpromoting": 5620,
      "Ġregarded": 5621,
      "Ġecstatic": 5622,
      "IBUT": 5623,
      "TRIBUT": 5624,
      "freely": 5625,
      "prominently": 5626,
      "ĠAbout": 5627,
      "ĠAGREE": 5628,
      "Ġliquor": 5629,
      "ĠDISTRIBUT": 5630,
      "Ġroyalties": 5631,
      "Ġjerk": 5632,
      "suggestion": 5633,
      "Ġcomputer": 5634,
      "graduate": 5635,
      "Ġopportunity": 5636,
      "Defect": 5637,
      "Yeah": 5638,
      "habit": 5639,
      "Ġ90": 5640,
      "Ġerr": 5641,
      "Ġutterly": 5642,
      "Ġtongue": 5643,
      "Ġsymp": 5644,
      "Ġsaddle": 5645,
      "Ġhorns": 5646,
      "Ġfields": 5647,
      "Ġdomain": 5648,
      "Ġpearls": 5649,
      "Ġgathering": 5650,
      "otlegger": 5651,
      "Ġvicinity": 5652,
      "Ġunutterable": 5653,
      "Ġblurred": 5654,
      "Ġclerks": 5655,
      "Ġconcerning": 5656,
      "Ġeyebrows": 5657,
      "Ġresemblance": 5658,
      "Ġschool": 5659,
      "Ġfederal": 5660,
      "ĠMetropole": 5661,
      "Ġshrubbery": 5662,
      "Certainly": 5663,
      "IRECT": 5664,
      "TART": 5665,
      "gtion": 5666,
      "Ġavailable": 5667,
      "including": 5668,
      "Ġwallet": 5669,
      "Ġscolding": 5670,
      "oneliness": 5671,
      "Ġincoherent": 5672,
      "anilla": 5673,
      "Ġlonely": 5674,
      "Ġnostri": 5675,
      "imetable": 5676,
      "ĠTostoff": 5677,
      "Ġresumed": 5678,
      "Ġasserted": 5679,
      "ĠAiredale": 5680,
      "ĠDAMAGES": 5681,
      "ĠBREACH": 5682,
      "ĠBarbara": 5683,
      "Ġspeech": 5684,
      "ĠFriday": 5685,
      "Ġjulep": 5686,
      "ĠEBOOK": 5687,
      "Ġhandkerchief": 5688,
      "ĠNevertheless": 5689,
      "Ġindignantly": 5690,
      "ĠRoyalty": 5691,
      "Ġintermitt": 5692,
      "ĠLICENSE": 5693,
      ".âĢĶ": 5694,
      "22": 5695,
      "Cl": 5696,
      "Every": 5697,
      "Evidently": 5698,
      "Eloi": 5699,
      "IM": 5700,
      "Little": 5701,
      "Pl": 5702,
      "Right": 5703,
      "Would": 5704,
      "aus": 5705,
      "aused": 5706,
      "bew": 5707,
      "bbing": 5708,
      "bbles": 5709,
      "cing": 5710,
      "cor": 5711,
      "cour": 5712,
      "clo": 5713,
      "cles": 5714,
      "covered": 5715,
      "det": 5716,
      "die": 5717,
      "dressed": 5718,
      "dinner": 5719,
      "diffe": 5720,
      "eg": 5721,
      "eight": 5722,
      "fit": 5723,
      "fig": 5724,
      "faint": 5725,
      "funny": 5726,
      "gust": 5727,
      "gone": 5728,
      "give": 5729,
      "gree": 5730,
      "has": 5731,
      "high": 5732,
      "hilar": 5733,
      "holding": 5734,
      "iod": 5735,
      "ipe": 5736,
      "ivers": 5737,
      "iative": 5738,
      "iency": 5739,
      "jug": 5740,
      "laboratory": 5741,
      "making": 5742,
      "near": 5743,
      "ointed": 5744,
      "pur": 5745,
      "post": 5746,
      "pers": 5747,
      "pass": 5748,
      "pair": 5749,
      "pushed": 5750,
      "point": 5751,
      "ral": 5752,
      "rane": 5753,
      "sa": 5754,
      "sim": 5755,
      "sun": 5756,
      "slow": 5757,
      "saw": 5758,
      "tom": 5759,
      "tri": 5760,
      "tight": 5761,
      "tun": 5762,
      "tically": 5763,
      "ux": 5764,
      "uence": 5765,
      "van": 5766,
      "vill": 5767,
      "won": 5768,
      "wondered": 5769,
      "your": 5770,
      "year": 5771,
      "Ã¦": 5772,
      "Ġid": 5773,
      "Ġtext": 5774,
      "help": 5775,
      "inth": 5776,
      "Ġwore": 5777,
      "Ġsize": 5778,
      "Ġsoul": 5779,
      "Ġsource": 5780,
      "Ġtheory": 5781,
      "reg": 5782,
      "reason": 5783,
      "revol": 5784,
      "represent": 5785,
      "erned": 5786,
      "athe": 5787,
      "atch": 5788,
      "Ġming": 5789,
      "Ġmuse": 5790,
      "Ġmantel": 5791,
      "Ġham": 5792,
      "Ġhated": 5793,
      "Ġhidden": 5794,
      "itself": 5795,
      "itiative": 5796,
      "Ġbon": 5797,
      "Ġban": 5798,
      "Ġbow": 5799,
      "Ġbesides": 5800,
      "Ġfur": 5801,
      "Ġfem": 5802,
      "Ġfasc": 5803,
      "Ġfierce": 5804,
      "Ġfifteen": 5805,
      "Ġcem": 5806,
      "Ġcast": 5807,
      "Ġcod": 5808,
      "Ġcross": 5809,
      "Ġcaut": 5810,
      "isto": 5811,
      "isher": 5812,
      "isions": 5813,
      "Ġdi": 5814,
      "Ġdew": 5815,
      "Ġdining": 5816,
      "Ġdirty": 5817,
      "Ġdumb": 5818,
      "Ġinher": 5819,
      "Ġinex": 5820,
      "Ġinhuman": 5821,
      "Ġinfinitely": 5822,
      "Ġinitiative": 5823,
      "Ġthread": 5824,
      "Ġthunder": 5825,
      "omes": 5826,
      "Ġpen": 5827,
      "Ġplease": 5828,
      "Ġpaused": 5829,
      "Ġpipe": 5830,
      "Ġlapsed": 5831,
      "Ġhed": 5832,
      "Ġgap": 5833,
      "Ġgird": 5834,
      "uted": 5835,
      "strugg": 5836,
      "imon": 5837,
      "imag": 5838,
      "immed": 5839,
      "verent": 5840,
      "veyed": 5841,
      "Ġbeard": 5842,
      "ential": 5843,
      "roit": 5844,
      "accept": 5845,
      "ĠTw": 5846,
      "otted": 5847,
      "eter": 5848,
      "rived": 5849,
      "Ġstare": 5850,
      "Ġstud": 5851,
      "Ġstup": 5852,
      "Ġreced": 5853,
      "iring": 5854,
      "iration": 5855,
      "Ġwear": 5856,
      "Ġwhist": 5857,
      "Ġforms": 5858,
      "cended": 5859,
      "ĠGr": 5860,
      "ĠGold": 5861,
      "tering": 5862,
      "Ġherself": 5863,
      "char": 5864,
      "ths": 5865,
      "sses": 5866,
      "Ġseason": 5867,
      "Ġsends": 5868,
      "ĠMond": 5869,
      "ĠTheir": 5870,
      "Ġring": 5871,
      "Ġram": 5872,
      "Ġrough": 5873,
      "Ġrude": 5874,
      "Ġsheep": 5875,
      "ols": 5876,
      "olated": 5877,
      "ĠAny": 5878,
      "Ġsharing": 5879,
      "Ġshifted": 5880,
      "ĠHad": 5881,
      "ĠSitting": 5882,
      "ĠSimon": 5883,
      "opened": 5884,
      "Ġlear": 5885,
      "Ġlevel": 5886,
      "ousers": 5887,
      "ĠDark": 5888,
      "Ġvan": 5889,
      "Ġvir": 5890,
      "astered": 5891,
      "using": 5892,
      "inds": 5893,
      "Ġexistence": 5894,
      "ulated": 5895,
      "Ġnotes": 5896,
      "umble": 5897,
      "umsy": 5898,
      "cks": 5899,
      "log": 5900,
      "locity": 5901,
      "Ġconcept": 5902,
      "Ġconside": 5903,
      "Ġconsol": 5904,
      "Ġcontained": 5905,
      "Ġconvey": 5906,
      "Ġknock": 5907,
      "Ġknees": 5908,
      "Ġspl": 5909,
      "Ġspect": 5910,
      "Ġspirit": 5911,
      "Ġisland": 5912,
      "These": 5913,
      "Ġunpro": 5914,
      "Ġunlike": 5915,
      "Ġunbroken": 5916,
      "Ġunivers": 5917,
      "Ġovertaking": 5918,
      "Ġchill": 5919,
      "ĠFe": 5920,
      "ĠFurther": 5921,
      "inked": 5922,
      "Ġnoise": 5923,
      "ĠCon": 5924,
      "ĠCom": 5925,
      "ĠEight": 5926,
      "ĠNot": 5927,
      "Ġdecl": 5928,
      "Ġdevil": 5929,
      "Ġknowledge": 5930,
      "iless": 5931,
      "wards": 5932,
      "Ġhaw": 5933,
      "short": 5934,
      "Ġflight": 5935,
      "Ġflame": 5936,
      "Ġflung": 5937,
      "Ġflicke": 5938,
      "Ġcarpet": 5939,
      "plied": 5940,
      "playing": 5941,
      "tend": 5942,
      "reek": 5943,
      "Ġpeered": 5944,
      "absolute": 5945,
      "Ġplaus": 5946,
      "Ġimplied": 5947,
      "Ġglazed": 5948,
      "Ġfever": 5949,
      "actions": 5950,
      "spread": 5951,
      "Ġamid": 5952,
      "Ġperiod": 5953,
      "cling": 5954,
      "civil": 5955,
      "become": 5956,
      "Ġfolly": 5957,
      "lecting": 5958,
      "next": 5959,
      "Ġenergy": 5960,
      "Ġeverywhere": 5961,
      "coat": 5962,
      "covery": 5963,
      "Ġlasted": 5964,
      "Ġappropriate": 5965,
      "conv": 5966,
      "ĠYes": 5967,
      "Ġwaving": 5968,
      "Ġwaves": 5969,
      "Ġsched": 5970,
      "Ġscattered": 5971,
      "Ġclam": 5972,
      "Ġclamber": 5973,
      "Ġdistur": 5974,
      "ĠUp": 5975,
      "ĠUpper": 5976,
      "Ġobst": 5977,
      "Ġobli": 5978,
      "Ġimpulse": 5979,
      "mering": 5980,
      "Ġswell": 5981,
      "Ġswollen": 5982,
      "Ġdesper": 5983,
      "Ġdesired": 5984,
      "Ġindistinct": 5985,
      "Ġindirectly": 5986,
      "ension": 5987,
      "Ġwilling": 5988,
      "Ġendure": 5989,
      "Ġhappens": 5990,
      "Ġadmired": 5991,
      "mystery": 5992,
      "Ġsurvive": 5993,
      "Ġintent": 5994,
      "Ġdrain": 5995,
      "Ġdrag": 5996,
      "Ġdrowned": 5997,
      "Ġconfidence": 5998,
      "Ġinvol": 5999,
      "Ġmethod": 6000,
      "ignant": 6001,
      "sitting": 6002,
      "Ġspeed": 6003,
      "Ġspecul": 6004,
      "gradually": 6005,
      "Ġpersp": 6006,
      "Ġpersu": 6007,
      "remember": 6008,
      "curtains": 6009,
      "Ġcareer": 6010,
      "Ġcareful": 6011,
      "many": 6012,
      "Ġbusy": 6013,
      "Ġfarther": 6014,
      "Ġfriendly": 6015,
      "tract": 6016,
      "urious": 6017,
      "Ġdecad": 6018,
      "Ġdecision": 6019,
      "Ġdimly": 6020,
      "days": 6021,
      "Ġprin": 6022,
      "versed": 6023,
      "Ġawoke": 6024,
      "aughty": 6025,
      "does": 6026,
      "vention": 6027,
      "Ġsingularly": 6028,
      "Ġcorp": 6029,
      "Ġcorrug": 6030,
      "Ġcorrid": 6031,
      "Ġsubtle": 6032,
      "Ġhush": 6033,
      "Ġkindly": 6034,
      "propriet": 6035,
      "Ġtaxes": 6036,
      "Ġattach": 6037,
      "Ġattached": 6038,
      "culent": 6039,
      "While": 6040,
      "encies": 6041,
      "Ġfloated": 6042,
      "avo": 6043,
      "box": 6044,
      "Ġdetach": 6045,
      "Ġdetail": 6046,
      "inction": 6047,
      "Ġreturning": 6048,
      "Ġreported": 6049,
      "Ġplaying": 6050,
      "ossibly": 6051,
      "deri": 6052,
      "Ġhurt": 6053,
      "Ġdusty": 6054,
      "Ġneeded": 6055,
      "Ġfootball": 6056,
      "Ġfootsteps": 6057,
      "aturally": 6058,
      "attering": 6059,
      "Ġfrank": 6060,
      "ology": 6061,
      "Ġcerem": 6062,
      "Ġhundreds": 6063,
      "Ġcloser": 6064,
      "evening": 6065,
      "Ġwalks": 6066,
      "Ġpowers": 6067,
      "Ġpowder": 6068,
      "Ġdisappointment": 6069,
      "Ġwonderful": 6070,
      "Ġhorizon": 6071,
      "arges": 6072,
      "Ġruns": 6073,
      "Ġwildly": 6074,
      "Ġhillside": 6075,
      "Ġhillock": 6076,
      "Ġhumanity": 6077,
      "Ġcolourless": 6078,
      "Ġlegally": 6079,
      "Ġconcerned": 6080,
      "Ġsolitary": 6081,
      "Ġvisibly": 6082,
      "Ġsides": 6083,
      "Ġincredible": 6084,
      "Ġhospitality": 6085,
      "duce": 6086,
      "Ġapartments": 6087,
      "Ġdirectly": 6088,
      "Ġreasonable": 6089,
      "Ġmasses": 6090,
      "Ġcapable": 6091,
      "Ġcapacity": 6092,
      "Ġeighteen": 6093,
      "Ġstretch": 6094,
      "Ġimagination": 6095,
      "Ġquietly": 6096,
      "stantial": 6097,
      "imensions": 6098,
      "Ġadvantage": 6099,
      "belief": 6100,
      "smile": 6101,
      "smiled": 6102,
      "haired": 6103,
      "marriage": 6104,
      "Ġsolemnly": 6105,
      "Ġstrangest": 6106,
      "Ġletters": 6107,
      "Ġreplaced": 6108,
      "Ġdismayed": 6109,
      "Ġdismissed": 6110,
      "Ġcattle": 6111,
      "Through": 6112,
      "Ġtangle": 6113,
      "Ġtangled": 6114,
      "Ġdestroy": 6115,
      "Ġpanels": 6116,
      "Ġpainting": 6117,
      "Ġplanet": 6118,
      "Ġindicate": 6119,
      "Ġindicating": 6120,
      "Ġcheeks": 6121,
      "Ġstruggles": 6122,
      "joined": 6123,
      "Ġmiserable": 6124,
      "Ġbathing": 6125,
      "Ġblocked": 6126,
      "Ġlargest": 6127,
      "Ġreassure": 6128,
      "Ġprofoundly": 6129,
      "Ġdelighted": 6130,
      "Ġthousands": 6131,
      "Ġnervously": 6132,
      "Ġstored": 6133,
      "Ġangry": 6134,
      "uminated": 6135,
      "anguage": 6136,
      "Ġpractical": 6137,
      "Ġdelicately": 6138,
      "continently": 6139,
      "ferred": 6140,
      "floor": 6141,
      "Ġesc": 6142,
      "Ġmillions": 6143,
      "Ġeasier": 6144,
      "Ġresult": 6145,
      "Ġrespect": 6146,
      "Ġrelief": 6147,
      "Ġexpense": 6148,
      "considerable": 6149,
      "Ġpowerful": 6150,
      "Ġsimplic": 6151,
      "Ġpressing": 6152,
      "Ġsplendour": 6153,
      "Ġremains": 6154,
      "Ġpurposeless": 6155,
      "deliberately": 6156,
      "Ġavoided": 6157,
      "Ġastonishment": 6158,
      "Ġfirmly": 6159,
      "Ġpalaces": 6160,
      "Ġeducated": 6161,
      "Ġmagazines": 6162,
      "freedom": 6163,
      "Ġhitherto": 6164,
      "conception": 6165,
      "dreams": 6166,
      "ĠQu": 6167,
      "Ġwestward": 6168,
      "Ġwrapped": 6169,
      "Ġmachinery": 6170,
      "ĠIndeed": 6171,
      "Ġlinger": 6172,
      "Ġheavily": 6173,
      "Ġshapes": 6174,
      "ĠFourth": 6175,
      "Ġgrasped": 6176,
      "Ġcritical": 6177,
      "Ġfragment": 6178,
      "better": 6179,
      "Ġfavour": 6180,
      "Ġcredit": 6181,
      "Ġmysterious": 6182,
      "Ġpassionate": 6183,
      "Ġoccupied": 6184,
      "Ġtranscription": 6185,
      "hibition": 6186,
      "Ġsombre": 6187,
      "Ġscepticism": 6188,
      "Ġhorses": 6189,
      "Ġbirth": 6190,
      "Ġflesh": 6191,
      "Ġinclined": 6192,
      "Ġpillars": 6193,
      "ĠThings": 6194,
      "ursday": 6195,
      "ĠCarlo": 6196,
      "ĠCompany": 6197,
      "Ġacquaintance": 6198,
      "Ġplunged": 6199,
      "Ġindifferent": 6200,
      "suspected": 6201,
      "Ġunmistakable": 6202,
      "Ġtendency": 6203,
      "Ġgeomet": 6204,
      "Ġstroke": 6205,
      "Ġwelcome": 6206,
      "children": 6207,
      "Ġabandoned": 6208,
      "Ġconvenient": 6209,
      "Ġobscurity": 6210,
      "Ġsilhouette": 6211,
      "Ġparadox": 6212,
      "increasing": 6213,
      "Ġintermittent": 6214,
      "bewild": 6215,
      "course": 6216,
      "ranean": 6217,
      "Ġmuseum": 6218,
      "Ġcemet": 6219,
      "accepted": 6220,
      "ĠGolden": 6221,
      "Ġconsidered": 6222,
      "Ġflickered": 6223,
      "Ġcorrugated": 6224,
      "Ġcorridor": 6225,
      "Ġsimplicity": 6226,
      ".)": 6227,
      ".âĢĶâĢĿ": 6228,
      "?âĢĻ": 6229,
      "BY": 6230,
      "Back": 6231,
      "Cross": 6232,
      "Crazy": 6233,
      "Dan": 6234,
      "East": 6235,
      "Egg": 6236,
      "Eckleburg": 6237,
      "Everybody": 6238,
      "Five": 6239,
      "Filby": 6240,
      "Gr": 6241,
      "George": 6242,
      "James": 6243,
      "Jazz": 6244,
      "Le": 6245,
      "Lake": 6246,
      "Louisville": 6247,
      "Meyer": 6248,
      "Neither": 6249,
      "Or": 6250,
      "Our": 6251,
      "Open": 6252,
      "Oxford": 6253,
      "ONT": 6254,
      "Sh": 6255,
      "Sit": 6256,
      "Sound": 6257,
      "Sel": 6258,
      "Sure": 6259,
      "Something": 6260,
      "Sorry": 6261,
      "Shall": 6262,
      "Several": 6263,
      "SBY": 6264,
      "Tw": 6265,
      "Turn": 6266,
      "Taking": 6267,
      "Under": 6268,
      "West": 6269,
      "aust": 6270,
      "aires": 6271,
      "bon": 6272,
      "ban": 6273,
      "bid": 6274,
      "bac": 6275,
      "bust": 6276,
      "bus": 6277,
      "bach": 6278,
      "bright": 6279,
      "breat": 6280,
      "buck": 6281,
      "basket": 6282,
      "bishly": 6283,
      "bureau": 6284,
      "cir": 6285,
      "count": 6286,
      "crossed": 6287,
      "calling": 6288,
      "cilious": 6289,
      "dly": 6290,
      "dim": 6291,
      "dest": 6292,
      "dious": 6293,
      "demand": 6294,
      "drew": 6295,
      "direct": 6296,
      "daughter": 6297,
      "eas": 6298,
      "eke": 6299,
      "eep": 6300,
      "eff": 6301,
      "ecess": 6302,
      "ease": 6303,
      "eorg": 6304,
      "elev": 6305,
      "eastward": 6306,
      "fa": 6307,
      "fs": 6308,
      "fut": 6309,
      "fall": 6310,
      "fess": 6311,
      "find": 6312,
      "fide": 6313,
      "father": 6314,
      "fire": 6315,
      "gs": 6316,
      "gent": 6317,
      "gold": 6318,
      "grew": 6319,
      "geral": 6320,
      "gency": 6321,
      "hs": 6322,
      "har": 6323,
      "hol": 6324,
      "hung": 6325,
      "hav": 6326,
      "haven": 6327,
      "hurried": 6328,
      "ik": 6329,
      "io": 6330,
      "iest": 6331,
      "iour": 6332,
      "ige": 6333,
      "iers": 6334,
      "iably": 6335,
      "jam": 6336,
      "lished": 6337,
      "lunch": 6338,
      "lushing": 6339,
      "loneliness": 6340,
      "lvan": 6341,
      "mis": 6342,
      "mid": 6343,
      "may": 6344,
      "mag": 6345,
      "mel": 6346,
      "mod": 6347,
      "mers": 6348,
      "mach": 6349,
      "mare": 6350,
      "make": 6351,
      "maid": 6352,
      "motion": 6353,
      "nis": 6354,
      "nic": 6355,
      "nant": 6356,
      "name": 6357,
      "nown": 6358,
      "nell": 6359,
      "nod": 6360,
      "nice": 6361,
      "nerv": 6362,
      "nosed": 6363,
      "ocious": 6364,
      "po": 6365,
      "phe": 6366,
      "pau": 6367,
      "pull": 6368,
      "pread": 6369,
      "pool": 6370,
      "phys": 6371,
      "posed": 6372,
      "porch": 6373,
      "person": 6374,
      "ran": 6375,
      "ration": 6376,
      "rust": 6377,
      "rais": 6378,
      "rases": 6379,
      "ragged": 6380,
      "sen": 6381,
      "sent": 6382,
      "sive": 6383,
      "sure": 6384,
      "sick": 6385,
      "sli": 6386,
      "sky": 6387,
      "simp": 6388,
      "sank": 6389,
      "sorry": 6390,
      "tt": 6391,
      "tur": 6392,
      "town": 6393,
      "tell": 6394,
      "ture": 6395,
      "tress": 6396,
      "tree": 6397,
      "take": 6398,
      "talked": 6399,
      "uol": 6400,
      "uating": 6401,
      "uits": 6402,
      "vion": 6403,
      "vading": 6404,
      "wr": 6405,
      "want": 6406,
      "west": 6407,
      "wich": 6408,
      "ware": 6409,
      "walked": 6410,
      "wanted": 6411,
      "watching": 6412,
      "walking": 6413,
      "xim": 6414,
      "xoph": 6415,
      "ym": 6416,
      "yes": 6417,
      "yellow": 6418,
      "Ġuttered": 6419,
      "Ġtide": 6420,
      "Ġtough": 6421,
      "Ġtig": 6422,
      "Ġtact": 6423,
      "Ġtale": 6424,
      "Ġtune": 6425,
      "Ġtumbled": 6426,
      "Ġtiny": 6427,
      "Ġtribute": 6428,
      "Ġtimetable": 6429,
      "hest": 6430,
      "heart": 6431,
      "Ġaby": 6432,
      "inen": 6433,
      "inent": 6434,
      "inated": 6435,
      "inized": 6436,
      "incial": 6437,
      "informed": 6438,
      "Ġwin": 6439,
      "Ġwist": 6440,
      "Ġwine": 6441,
      "Ġwake": 6442,
      "Ġwides": 6443,
      "Ġwicker": 6444,
      "Ġwisp": 6445,
      "Ġwinked": 6446,
      "Ġsought": 6447,
      "Ġsang": 6448,
      "Ġsank": 6449,
      "Ġslip": 6450,
      "Ġtheat": 6451,
      "Ġoil": 6452,
      "Ġowe": 6453,
      "rel": 6454,
      "rep": 6455,
      "rehe": 6456,
      "reated": 6457,
      "reci": 6458,
      "received": 6459,
      "receive": 6460,
      "ndo": 6461,
      "ndered": 6462,
      "educ": 6463,
      "editions": 6464,
      "erred": 6465,
      "erous": 6466,
      "erity": 6467,
      "erment": 6468,
      "erably": 6469,
      "atest": 6470,
      "atched": 6471,
      "atform": 6472,
      "Ġmor": 6473,
      "Ġmut": 6474,
      "Ġmal": 6475,
      "Ġmace": 6476,
      "Ġmaid": 6477,
      "Ġmissed": 6478,
      "Ġmaster": 6479,
      "Ġmumbled": 6480,
      "Ġmajor": 6481,
      "Ġmastered": 6482,
      "Ġhats": 6483,
      "Ġhoney": 6484,
      "Ġhushed": 6485,
      "Ġhover": 6486,
      "Ġhovered": 6487,
      "Ġhunted": 6488,
      "Ġhulking": 6489,
      "itated": 6490,
      "itatively": 6491,
      "enes": 6492,
      "enry": 6493,
      "enched": 6494,
      "enced": 6495,
      "enially": 6496,
      "onic": 6497,
      "onest": 6498,
      "Ġbag": 6499,
      "Ġbill": 6500,
      "Ġbum": 6501,
      "Ġborn": 6502,
      "Ġbened": 6503,
      "Ġbank": 6504,
      "Ġboun": 6505,
      "Ġbunch": 6506,
      "Ġbisc": 6507,
      "Ġbaby": 6508,
      "Ġbizarre": 6509,
      "Ġborrowed": 6510,
      "Ġfare": 6511,
      "Ġfren": 6512,
      "Ġfarm": 6513,
      "Ġfoli": 6514,
      "Ġfrail": 6515,
      "Ġcro": 6516,
      "Ġcell": 6517,
      "Ġcli": 6518,
      "Ġcute": 6519,
      "Ġcrest": 6520,
      "Ġcakes": 6521,
      "Ġcrying": 6522,
      "Ġcrossed": 6523,
      "Ġcooked": 6524,
      "orid": 6525,
      "orus": 6526,
      "orily": 6527,
      "orations": 6528,
      "orious": 6529,
      "Ġtot": 6530,
      "Ġtoil": 6531,
      "Ġtoler": 6532,
      "Ġtobac": 6533,
      "ĠII": 6534,
      "ĠIV": 6535,
      "ĠIX": 6536,
      "ĠIII": 6537,
      "asms": 6538,
      "Ġdin": 6539,
      "Ġdart": 6540,
      "Ġdie": 6541,
      "Ġdying": 6542,
      "Ġduck": 6543,
      "Ġdials": 6544,
      "Ġditch": 6545,
      "Ġdata": 6546,
      "Ġinky": 6547,
      "Ġinexpl": 6548,
      "Ġincomplete": 6549,
      "arl": 6550,
      "arrived": 6551,
      "ariably": 6552,
      "leaned": 6553,
      "learly": 6554,
      "leaning": 6555,
      "leaf": 6556,
      "âĢľâĢĶ": 6557,
      "anim": 6558,
      "anations": 6559,
      "anned": 6560,
      "anitor": 6561,
      "Ġthud": 6562,
      "Ġthither": 6563,
      "Ġthorough": 6564,
      "omen": 6565,
      "omas": 6566,
      "âĢĻ?": 6567,
      "Ġpic": 6568,
      "Ġpace": 6569,
      "Ġpity": 6570,
      "Ġpile": 6571,
      "Ġpip": 6572,
      "Ġpairs": 6573,
      "Ġpati": 6574,
      "Ġpantry": 6575,
      "Ġpenn": 6576,
      "Ġpaternal": 6577,
      "eser": 6578,
      "esota": 6579,
      "Ġlam": 6580,
      "Ġlif": 6581,
      "Ġlust": 6582,
      "Ġlather": 6583,
      "Ġlined": 6584,
      "Ġlimp": 6585,
      "Ġliter": 6586,
      "Ġluck": 6587,
      "Ġlumin": 6588,
      "Ġlinen": 6589,
      "Ġlatest": 6590,
      "Ġhen": 6591,
      "Ġheel": 6592,
      "Ġgy": 6593,
      "Ġgar": 6594,
      "Ġgown": 6595,
      "Ġgul": 6596,
      "Ġgross": 6597,
      "Ġgazed": 6598,
      "uther": 6599,
      "utinized": 6600,
      "ada": 6601,
      "adame": 6602,
      "adour": 6603,
      "added": 6604,
      "adays": 6605,
      "admired": 6606,
      "stay": 6607,
      "state": 6608,
      "straight": 6609,
      "storia": 6610,
      "icher": 6611,
      "icide": 6612,
      "icabs": 6613,
      "icient": 6614,
      "iday": 6615,
      "imony": 6616,
      "Ġbear": 6617,
      "Ġbearing": 6618,
      "Ġbeamed": 6619,
      "ental": 6620,
      "entous": 6621,
      "roll": 6622,
      "rored": 6623,
      "roduction": 6624,
      "rogant": 6625,
      "Ġult": 6626,
      "alto": 6627,
      "alone": 6628,
      "alons": 6629,
      "seas": 6630,
      "seven": 6631,
      "second": 6632,
      "season": 6633,
      "seventeen": 6634,
      "ĠTow": 6635,
      "ĠTuol": 6636,
      "vering": 6637,
      "aylor": 6638,
      "ldoon": 6639,
      "eturn": 6640,
      "etroit": 6641,
      "rigg": 6642,
      "riages": 6643,
      "rigu": 6644,
      "Ġstur": 6645,
      "Ġstove": 6646,
      "Ġstream": 6647,
      "Ġstaying": 6648,
      "Ġrent": 6649,
      "Ġrevel": 6650,
      "Ġreappeared": 6651,
      "Ġreaching": 6652,
      "Ġreproach": 6653,
      "Ġweb": 6654,
      "Ġweight": 6655,
      "Ġweap": 6656,
      "Ġweary": 6657,
      "Ġwearing": 6658,
      "Ġweeke": 6659,
      "Ġmelan": 6660,
      "Ġwhim": 6661,
      "Ġwhirl": 6662,
      "Ġanch": 6663,
      "ampt": 6664,
      "urance": 6665,
      "andal": 6666,
      "Ġate": 6667,
      "Ġattain": 6668,
      "Ġatmo": 6669,
      "Ġformer": 6670,
      "Ġforced": 6671,
      "oolly": 6672,
      "ĠâĢľâĢĶ": 6673,
      "Ġashen": 6674,
      "ceiling": 6675,
      "ilty": 6676,
      "ĠGad": 6677,
      "ĠGoing": 6678,
      "ĠGRE": 6679,
      "ĠGAT": 6680,
      "ĠGerman": 6681,
      "ĠGreek": 6682,
      "aine": 6683,
      "ĠĠĠĠĠĠ": 6684,
      "terday": 6685,
      "Ġsail": 6686,
      "Ġsauntered": 6687,
      "Ġsaxoph": 6688,
      "charming": 6689,
      "ighted": 6690,
      "thorn": 6691,
      "thank": 6692,
      "third": 6693,
      "thrilling": 6694,
      "ssip": 6695,
      "omee": 6696,
      "Ġsend": 6697,
      "Ġseats": 6698,
      "Ġsecur": 6699,
      "Ġselling": 6700,
      "ĠMc": 6701,
      "ĠMinn": 6702,
      "ĠMcK": 6703,
      "pparently": 6704,
      "Ġsuc": 6705,
      "Ġsuite": 6706,
      "Ġsuits": 6707,
      "Ġupward": 6708,
      "Ġray": 6709,
      "Ġracy": 6710,
      "Ġrhod": 6711,
      "Ġrisk": 6712,
      "Ġricher": 6713,
      "ĠWar": 6714,
      "ĠWestern": 6715,
      "Ġsheets": 6716,
      "Ġshelf": 6717,
      "olit": 6718,
      "olic": 6719,
      "ĠAug": 6720,
      "orest": 6721,
      "Ġshr": 6722,
      "Ġshy": 6723,
      "Ġshame": 6724,
      "Ġshown": 6725,
      "Ġshade": 6726,
      "Ġshared": 6727,
      "ecting": 6728,
      "ective": 6729,
      "ĠHor": 6730,
      "ĠHist": 6731,
      "ĠHuman": 6732,
      "ĠHenry": 6733,
      "ags": 6734,
      "agree": 6735,
      "ĠSh": 6736,
      "ĠSave": 6737,
      "ĠSpe": 6738,
      "ĠSeveral": 6739,
      "ĠSept": 6740,
      "ĠSnell": 6741,
      "atspau": 6742,
      "Ġkilling": 6743,
      "Ġoutdoors": 6744,
      "Ġorange": 6745,
      "Ġabort": 6746,
      "open": 6747,
      "opes": 6748,
      "Ġleis": 6749,
      "Ġlege": 6750,
      "Ġleaking": 6751,
      "Ġlemon": 6752,
      "Ġleading": 6753,
      "Ġleaked": 6754,
      "ewashed": 6755,
      "Ġlied": 6756,
      "Ġliable": 6757,
      "Ġlives": 6758,
      "eling": 6759,
      "eline": 6760,
      "ĠDa": 6761,
      "ĠDe": 6762,
      "ĠDu": 6763,
      "ĠDoc": 6764,
      "ĠDetroit": 6765,
      "essions": 6766,
      "essential": 6767,
      "unf": 6768,
      "unless": 6769,
      "unting": 6770,
      "unty": 6771,
      "unusual": 6772,
      "Ġbutton": 6773,
      "Ġbuttons": 6774,
      "Ġvent": 6775,
      "Ġvill": 6776,
      "Ġvict": 6777,
      "Ġvines": 6778,
      "Ġsob": 6779,
      "Ġsogg": 6780,
      "Ġsoothing": 6781,
      "Ġsociety": 6782,
      "Ġsofa": 6783,
      "aste": 6784,
      "asting": 6785,
      "usually": 6786,
      "bert": 6787,
      "quin": 6788,
      "Ġexting": 6789,
      "Ġexper": 6790,
      "Ġexcess": 6791,
      "Ġexchanged": 6792,
      "ulate": 6793,
      "ulity": 6794,
      "ulting": 6795,
      "Ġalter": 6796,
      "Ġalumin": 6797,
      "Ġnotion": 6798,
      "ums": 6799,
      "umed": 6800,
      "umbling": 6801,
      "Ġagg": 6802,
      "ellery": 6803,
      "loved": 6804,
      "Ġconting": 6805,
      "Ġconcl": 6806,
      "ĠPh": 6807,
      "ĠPoint": 6808,
      "ĠPeter": 6809,
      "ĠPossibly": 6810,
      "Ġknuck": 6811,
      "Ġknocked": 6812,
      "acks": 6813,
      "acket": 6814,
      "apse": 6815,
      "Ġspo": 6816,
      "Ġsped": 6817,
      "Ġspree": 6818,
      "Ġspaces": 6819,
      "Ġspraw": 6820,
      "Ġspasm": 6821,
      "Ġissued": 6822,
      "Their": 6823,
      "Ġunable": 6824,
      "Ġunrest": 6825,
      "Ġunsol": 6826,
      "Ġunrolled": 6827,
      "Ġunwill": 6828,
      "Ġunusually": 6829,
      "Ġoverlooked": 6830,
      "Ġoverflow": 6831,
      "Ġoverseas": 6832,
      "aterer": 6833,
      "Ġnephe": 6834,
      "odend": 6835,
      "oddly": 6836,
      "auk": 6837,
      "Ġtra": 6838,
      "Ġtrail": 6839,
      "Ġtruly": 6840,
      "ĠTomorrow": 6841,
      "Ġgossip": 6842,
      "Ġchick": 6843,
      "Ġchoose": 6844,
      "Ġchief": 6845,
      "Ġcharming": 6846,
      "Ġchords": 6847,
      "Ġchorus": 6848,
      "Ġarise": 6849,
      "Ġarrogant": 6850,
      "ptuous": 6851,
      "nderness": 6852,
      "ĠFather": 6853,
      "ĠFifty": 6854,
      "ĠFift": 6855,
      "ĠFinally": 6856,
      "ĠFlushing": 6857,
      "Ġroared": 6858,
      "Ġrosy": 6859,
      "ersail": 6860,
      "venir": 6861,
      "Ġju": 6862,
      "Ġjut": 6863,
      "Ġjail": 6864,
      "Ġjazz": 6865,
      "Ġjanitor": 6866,
      "utenant": 6867,
      "ĠCo": 6868,
      "ĠCast": 6869,
      "ĠCath": 6870,
      "ĠConey": 6871,
      "ĠClau": 6872,
      "ĠCalled": 6873,
      "ĠEl": 6874,
      "ĠEach": 6875,
      "ĠEastern": 6876,
      "Ġhandle": 6877,
      "Ġbacks": 6878,
      "ĠNight": 6879,
      "ĠNord": 6880,
      "ĠNove": 6881,
      "ĠNext": 6882,
      "ressions": 6883,
      "Ġdeck": 6884,
      "Ġdeft": 6885,
      "Ġdevel": 6886,
      "ĠOwl": 6887,
      "reating": 6888,
      "shook": 6889,
      "shop": 6890,
      "shirt": 6891,
      "shaved": 6892,
      "Ġflav": 6893,
      "Ġflames": 6894,
      "Ġflinging": 6895,
      "Ġflashing": 6896,
      "Ġflickering": 6897,
      "Ġflorid": 6898,
      "Ġcarved": 6899,
      "Ġcarrying": 6900,
      "Ġproved": 6901,
      "Ġprolong": 6902,
      "ulls": 6903,
      "Ġtwink": 6904,
      "Ġtwisting": 6905,
      "plum": 6906,
      "ĊĊĠĠĠĠĠĠĠĠĠĠĠĠĠĠĠĠĠĠĠĠĠĠĠĠ": 6907,
      "tee": 6908,
      "Ġpebbles": 6909,
      "ĠLem": 6910,
      "ĠLond": 6911,
      "ĠLeg": 6912,
      "ĠLuther": 6913,
      "Ġacute": 6914,
      "Ġseeking": 6915,
      "Ġaren": 6916,
      "Ġblows": 6917,
      "Ġblazing": 6918,
      "butler": 6919,
      "Ġplate": 6920,
      "Ġplaid": 6921,
      "Ġplatform": 6922,
      "Ġimpen": 6923,
      "Ġimper": 6924,
      "Ġsmeared": 6925,
      "Ġdisk": 6926,
      "Ġdissol": 6927,
      "Ġdiscontin": 6928,
      "Ġdisquiet": 6929,
      "Ġglaring": 6930,
      "Ġglancing": 6931,
      "Ġglowed": 6932,
      "Ġglistening": 6933,
      "adequ": 6934,
      "Ġbegged": 6935,
      "Ġbegins": 6936,
      "Ġoffered": 6937,
      "lessed": 6938,
      "lessness": 6939,
      "Ġthrust": 6940,
      "Ġolder": 6941,
      "Ġfender": 6942,
      "Ġunderne": 6943,
      "Ġunderwear": 6944,
      "Ġundergraduate": 6945,
      "Ġmoments": 6946,
      "Ġnightmare": 6947,
      "angs": 6948,
      "angle": 6949,
      "Ġprem": 6950,
      "Ġpreoc": 6951,
      "Ġprevent": 6952,
      "active": 6953,
      "actory": 6954,
      "actical": 6955,
      "sphere": 6956,
      "spaper": 6957,
      "splend": 6958,
      "sperous": 6959,
      "week": 6960,
      "Ġamb": 6961,
      "Ġamuse": 6962,
      "Ġambit": 6963,
      "Ġperceive": 6964,
      "clan": 6965,
      "clam": 6966,
      "cloud": 6967,
      "Ġseems": 6968,
      "beat": 6969,
      "Ġcoinc": 6970,
      "ueens": 6971,
      "uendo": 6972,
      "Ġslapping": 6973,
      "Ġfoss": 6974,
      "Ġbrave": 6975,
      "Ġbrushed": 6976,
      "Ġbrakes": 6977,
      "Ġbrisk": 6978,
      "ngry": 6979,
      "Ġmusty": 6980,
      "ancis": 6981,
      "ancies": 6982,
      "ivity": 6983,
      "ivably": 6984,
      "ending": 6985,
      "endous": 6986,
      "Ġlaid": 6987,
      "wasn": 6988,
      "convey": 6989,
      "Ġheadlong": 6990,
      "Ġheadlights": 6991,
      "Ġwail": 6992,
      "Ġscream": 6993,
      "Ġscenes": 6994,
      "Ġscandal": 6995,
      "ĠĠĠĠĠĠĠĠĠĠĠĠĠĠĠĠĠĠĠĠĠĠĠ": 6996,
      "Ġcontri": 6997,
      "Ġclad": 6998,
      "Ġclass": 6999,
      "Ġclicked": 7000,
      "Ġclumsy": 7001,
      "Ġdarker": 7002,
      "ildings": 7003,
      "Ġbob": 7004,
      "Ġboom": 7005,
      "Ġboard": 7006,
      "Ġdistorted": 7007,
      "Ġdistaste": 7008,
      "Ġimpressive": 7009,
      "Ġowned": 7010,
      "Ġdriven": 7011,
      "Ġdrizz": 7012,
      "exam": 7013,
      "suous": 7014,
      "suff": 7015,
      "suddenly": 7016,
      "phrase": 7017,
      "izes": 7018,
      "izable": 7019,
      "Ġmattress": 7020,
      "ĠYoung": 7021,
      "Ġstarts": 7022,
      "Ġourselves": 7023,
      "Ġcompan": 7024,
      "ield": 7025,
      "innings": 7026,
      "Ġswit": 7027,
      "Ġswing": 7028,
      "Ġswim": 7029,
      "Ġswam": 7030,
      "Ġswore": 7031,
      "Ġswoon": 7032,
      "Ġsworn": 7033,
      "Ġdesire": 7034,
      "Ġdesign": 7035,
      "Ġdescend": 7036,
      "Ġsunken": 7037,
      "Ġhandsome": 7038,
      "fulness": 7039,
      "ĠRise": 7040,
      "ĠReturn": 7041,
      "Ġgreatly": 7042,
      "eezed": 7043,
      "peculiar": 7044,
      "Ġends": 7045,
      "Ġalongside": 7046,
      "Ġhappiness": 7047,
      "Ġadmit": 7048,
      "Ġadmission": 7049,
      "ĠStar": 7050,
      "ĠStand": 7051,
      "ĠStill": 7052,
      "ĠStudy": 7053,
      "whose": 7054,
      "Ġpresum": 7055,
      "Ġpresident": 7056,
      "ints": 7057,
      "intellig": 7058,
      "intellectual": 7059,
      "arshes": 7060,
      "soever": 7061,
      "Ġsetting": 7062,
      "Ġsettee": 7063,
      "Ġintim": 7064,
      "Ġsilk": 7065,
      "mere": 7066,
      "meet": 7067,
      "Ġmarrying": 7068,
      "Ġconfid": 7069,
      "Ġafternoons": 7070,
      "Ġinvitation": 7071,
      "Ġinvariably": 7072,
      "restaurant": 7073,
      "ignor": 7074,
      "Ġtelephoned": 7075,
      "Ġtenderness": 7076,
      "Ġcourtes": 7077,
      "armistice": 7078,
      "Ġputting": 7079,
      "brace": 7080,
      "Ġcheap": 7081,
      "Ġrealised": 7082,
      "Ġrealizing": 7083,
      "compl": 7084,
      "common": 7085,
      "Ġphase": 7086,
      "practical": 7087,
      "rempt": 7088,
      "remark": 7089,
      "Ġcrick": 7090,
      "Ġcrisp": 7091,
      "Ġcrouching": 7092,
      "lingered": 7093,
      "Ġinterval": 7094,
      "Ġinterpret": 7095,
      "Ġinquest": 7096,
      "impression": 7097,
      "Ġstands": 7098,
      "Ġstandard": 7099,
      "Ġdrops": 7100,
      "whereupon": 7101,
      "Ġadding": 7102,
      "Ġexplanations": 7103,
      "Ġanswering": 7104,
      "formality": 7105,
      "Ġhelplessly": 7106,
      "Ġsentences": 7107,
      "Ġbrightly": 7108,
      "scene": 7109,
      "scarce": 7110,
      "trans": 7111,
      "Ġwatcher": 7112,
      "rewer": 7113,
      "Ġincident": 7114,
      "Ġdiminished": 7115,
      "Ġguilty": 7116,
      "Ġaccoun": 7117,
      "Ġaccused": 7118,
      "ormal": 7119,
      "Ġprac": 7120,
      "Ġprint": 7121,
      "Ġproud": 7122,
      "Ġrefused": 7123,
      "Ġrefuge": 7124,
      "Ġreflection": 7125,
      "Ġfella": 7126,
      "Ġfellas": 7127,
      "Ġhearse": 7128,
      "version": 7129,
      "Ġexciting": 7130,
      "Ġroadster": 7131,
      "Ġroadhouse": 7132,
      "deep": 7133,
      "deferred": 7134,
      "ĠVI": 7135,
      "ĠVII": 7136,
      "ĠVIII": 7137,
      "Ġcircling": 7138,
      "ĠMorlock": 7139,
      "Ġintending": 7140,
      "Ġpersonality": 7141,
      "leash": 7142,
      "Ġredolent": 7143,
      "aughtily": 7144,
      "ĠChryst": 7145,
      "ĊĊĊĠĠĠĠĠĠĠĠĠĠĠĠĠĠĠĠĠĠĠĠĠĠĠĠ": 7146,
      "dollars": 7147,
      "Ġfaintest": 7148,
      "Ġformats": 7149,
      "Ġsubter": 7150,
      "Ġsubway": 7151,
      "condes": 7152,
      "anybody": 7153,
      "Ġcircles": 7154,
      "Ġbedrooms": 7155,
      "Ġrule": 7156,
      "Ġshortcut": 7157,
      "Ġkinds": 7158,
      "profound": 7159,
      "Ġtaxicabs": 7160,
      "Ġauthen": 7161,
      "Ġmonstr": 7162,
      "Ġhotter": 7163,
      "Ġhotel": 7164,
      "Ġclever": 7165,
      "Ġgroaned": 7166,
      "Ġgroped": 7167,
      "Ġgroping": 7168,
      "Ġarrive": 7169,
      "Ġarrivals": 7170,
      "Ġremembering": 7171,
      "sylvan": 7172,
      "Ġpromising": 7173,
      "ĠBuchanans": 7174,
      "Wha": 7175,
      "Whenever": 7176,
      "finable": 7177,
      "finally": 7178,
      "Ġhalls": 7179,
      "Ġhighballs": 7180,
      "Ġfloating": 7181,
      "Ġcuriously": 7182,
      "Ġunderstandingly": 7183,
      "Ġmatters": 7184,
      "bootlegger": 7185,
      "Ġforehead": 7186,
      "umping": 7187,
      "Ġaction": 7188,
      "Ġactive": 7189,
      "ĠThames": 7190,
      "ĠThrowing": 7191,
      "ĠThursday": 7192,
      "ĠThomas": 7193,
      "inctively": 7194,
      "Ġtowns": 7195,
      "Ġsurer": 7196,
      "Ġraining": 7197,
      "Ġdiscord": 7198,
      "Ġreply": 7199,
      "Ġrepair": 7200,
      "Ġreporter": 7201,
      "Ġcoldly": 7202,
      "ĠKatspau": 7203,
      "deranged": 7204,
      "Ġhurry": 7205,
      "Ġhurrying": 7206,
      "Ġduster": 7207,
      "undering": 7208,
      "Ġfinal": 7209,
      "ucer": 7210,
      "Ġwheat": 7211,
      "Ġfrowning": 7212,
      "Ã©s": 7213,
      "Ġwarmth": 7214,
      "Ġsweep": 7215,
      "uttering": 7216,
      "Ġcouples": 7217,
      "Ġextent": 7218,
      "Ġextinction": 7219,
      "Ġprovincial": 7220,
      "Ġclosest": 7221,
      "Ġlimit": 7222,
      "Ġlimousine": 7223,
      "Ġlocal": 7224,
      "Ġdisappointed": 7225,
      "Ġhorror": 7226,
      "Ġhorribly": 7227,
      "Ġdamaged": 7228,
      "argument": 7229,
      "Ġcompliment": 7230,
      "Ġcurved": 7231,
      "address": 7232,
      "compan": 7233,
      "lets": 7234,
      "ĠSomeone": 7235,
      "ĠSomebody": 7236,
      "Ġtrans": 7237,
      "colour": 7238,
      "Ġmodest": 7239,
      "Ġmodification": 7240,
      "Ġeagerness": 7241,
      "unts": 7242,
      "untily": 7243,
      "Ġtroubled": 7244,
      "Ġdrinking": 7245,
      "Ġwhispers": 7246,
      "Ġmurmurous": 7247,
      "Ġladen": 7248,
      "Ġladies": 7249,
      "Ġrepeat": 7250,
      "Ġraising": 7251,
      "Ġtrip": 7252,
      "Ġtries": 7253,
      "incred": 7254,
      "Ġmuscle": 7255,
      "Ġmemories": 7256,
      "ĠMonte": 7257,
      "unknown": 7258,
      "Ġremarkable": 7259,
      "Still": 7260,
      "minent": 7261,
      "voices": 7262,
      "Ġtenor": 7263,
      "Ġtennis": 7264,
      "Ġmoths": 7265,
      "Ġmistress": 7266,
      "ĠEdgar": 7267,
      "avens": 7268,
      "Ġsque": 7269,
      "Ġsqueezed": 7270,
      "Ġbarrier": 7271,
      "glistening": 7272,
      "Ġ200": 7273,
      "asped": 7274,
      "Ġdirector": 7275,
      "Ġblindness": 7276,
      "Ġviewed": 7277,
      "Ġ30": 7278,
      "Ġoddly": 7279,
      "Ġmassed": 7280,
      "Ġeleven": 7281,
      "Ġeighty": 7282,
      "Ġgravely": 7283,
      "Ġquieter": 7284,
      "expression": 7285,
      "Ġcheerfully": 7286,
      "knowing": 7287,
      "ridge": 7288,
      "view": 7289,
      "Ġoppressive": 7290,
      "Ġhostile": 7291,
      "Ġtowels": 7292,
      "annoyed": 7293,
      "Ġrecover": 7294,
      "Ġadvice": 7295,
      "Ġadvised": 7296,
      "Ġspecies": 7297,
      "Goodbye": 7298,
      "believe": 7299,
      "small": 7300,
      "window": 7301,
      "Ġskull": 7302,
      "Ġmagic": 7303,
      "Ġburnt": 7304,
      "Ġcutting": 7305,
      "iffon": 7306,
      "Ġshirtwa": 7307,
      "Ġlieutenant": 7308,
      "Ġdisplay": 7309,
      "Ġmotorcy": 7310,
      "Someone": 7311,
      "Ġturbul": 7312,
      "Ġblond": 7313,
      "steady": 7314,
      "Ġcorrection": 7315,
      "Anyhow": 7316,
      "bitch": 7317,
      "preced": 7318,
      "Ġsadness": 7319,
      "Ġbalanced": 7320,
      "ĠAmerica": 7321,
      "Ġvariety": 7322,
      "Ġconnected": 7323,
      "Ġdefiant": 7324,
      "Ġdefiantly": 7325,
      "Ġchecks": 7326,
      "afing": 7327,
      "carrying": 7328,
      "frowned": 7329,
      "month": 7330,
      "uga": 7331,
      "Ġhyper": 7332,
      "Ġburden": 7333,
      "arnished": 7334,
      "Ġgasoline": 7335,
      "Ġpeculiarly": 7336,
      "Ġgroups": 7337,
      "Three": 7338,
      "drove": 7339,
      "Ġidentical": 7340,
      "Ġidentified": 7341,
      "Ġmadame": 7342,
      "Ġdivorce": 7343,
      "Ġanimals": 7344,
      "ĠBeck": 7345,
      "ĠExcuse": 7346,
      "Ġobvious": 7347,
      "Ġindicated": 7348,
      "Ġexpectantly": 7349,
      "Ġsatisfy": 7350,
      "Ġrecognised": 7351,
      "Ġrecognized": 7352,
      "Ġrecognizable": 7353,
      "vincial": 7354,
      "Ġveiled": 7355,
      "Ġvelocity": 7356,
      "Ġmiserably": 7357,
      "Ġbattle": 7358,
      "Ġballroom": 7359,
      "Ġcardboard": 7360,
      "Ġpatent": 7361,
      "Ġpatron": 7362,
      "Ġpattern": 7363,
      "Ġretreated": 7364,
      "Ġreassured": 7365,
      "Ġremotely": 7366,
      "Ġnewsstand": 7367,
      "Ġintroduced": 7368,
      "Ġtriumphantly": 7369,
      "brother": 7370,
      "happened": 7371,
      "polo": 7372,
      "policeman": 7373,
      "Ġmidsummer": 7374,
      "Ġbaths": 7375,
      "Ġfashionable": 7376,
      "Ġfashionably": 7377,
      "Ġcousins": 7378,
      "Ġloafing": 7379,
      "Ġyachting": 7380,
      "Ġstreets": 7381,
      "Ġrecord": 7382,
      "Ġvividly": 7383,
      "Ġexamining": 7384,
      "Ġunreason": 7385,
      "ĠFrancis": 7386,
      "Ġpointlessly": 7387,
      "Ġpractice": 7388,
      "Ġpractically": 7389,
      "continued": 7390,
      "Ġautomobile": 7391,
      "breast": 7392,
      "Ġilluminated": 7393,
      "Ġsaloon": 7394,
      "Ġdreaded": 7395,
      "Ġportentous": 7396,
      "Ġrespons": 7397,
      "choly": 7398,
      "ĠMayor": 7399,
      "Ġvestib": 7400,
      "Ġvestige": 7401,
      "Ġunpleasantness": 7402,
      "Ġobscurely": 7403,
      "Ġrubies": 7404,
      "Ġrubbing": 7405,
      "Nevertheless": 7406,
      "books": 7407,
      "newspaper": 7408,
      "Ġtentatively": 7409,
      "Ġwiping": 7410,
      "Ġsimultaneously": 7411,
      "Ġslipping": 7412,
      "Ġmissing": 7413,
      "ennsylvan": 7414,
      "Ġcups": 7415,
      "Ġdrugstores": 7416,
      "Ġinevitably": 7417,
      "Ġpleasure": 7418,
      "Ġpleasantly": 7419,
      "Ġannoy": 7420,
      "isticated": 7421,
      "ĠProbably": 7422,
      "Ġnearest": 7423,
      "Ġtragically": 7424,
      "Ġcomfortable": 7425,
      "Ġcollar": 7426,
      "Ġcollapsed": 7427,
      "Ġcollapse": 7428,
      "Ġcontemptuous": 7429,
      "Ġcontemptuously": 7430,
      "Ġverandas": 7431,
      "Ġsuspicions": 7432,
      "Ġsuspicious": 7433,
      "Ġsuspiciously": 7434,
      "Ġsidewalks": 7435,
      "Ġsavagely": 7436,
      "Already": 7437,
      "bowls": 7438,
      "guessed": 7439,
      "possession": 7440,
      "surpr": 7441,
      "Ġavoid": 7442,
      "instance": 7443,
      "Ġcausing": 7444,
      "ickel": 7445,
      "accident": 7446,
      "Ġsearching": 7447,
      "ĠAlmost": 7448,
      "ĠDidn": 7449,
      "Ġprocession": 7450,
      "absor": 7451,
      "Ġscornful": 7452,
      "Ġexploded": 7453,
      "Ġeducational": 7454,
      "silver": 7455,
      "Ġmirrored": 7456,
      "Ġhonour": 7457,
      "Ġbothering": 7458,
      "Ġcivilisation": 7459,
      "Ġcivilization": 7460,
      "leaves": 7461,
      "Ġnarrowed": 7462,
      "immediate": 7463,
      "Ġreference": 7464,
      "Ġweakness": 7465,
      "Ġkissing": 7466,
      "ophisticated": 7467,
      "ĠBlack": 7468,
      "Ġproprietor": 7469,
      "Ġcontralto": 7470,
      "Ġpreserve": 7471,
      "Ġpreserved": 7472,
      "Ġinventions": 7473,
      "Ġruinous": 7474,
      "Ġregarding": 7475,
      "Ġconcentration": 7476,
      "Ġconcentrated": 7477,
      "Ġhollowly": 7478,
      "Ġbursts": 7479,
      "Ġobliged": 7480,
      "dreamed": 7481,
      "ecil": 7482,
      "friends": 7483,
      "pretty": 7484,
      "significance": 7485,
      "ĠQueens": 7486,
      "Ġwrapping": 7487,
      "Ġmachines": 7488,
      "Ġcrawling": 7489,
      "Ġheavy": 7490,
      "ĠArgonne": 7491,
      "Ġshaped": 7492,
      "ĠSouthampt": 7493,
      "Ġalertly": 7494,
      "Ġconstit": 7495,
      "Ġscrutinized": 7496,
      "Ġcontributed": 7497,
      "Ġclimbing": 7498,
      "Ġcommunic": 7499,
      "haustible": 7500,
      "Ġtemperament": 7501,
      "buildings": 7502,
      "creatures": 7503,
      "cisely": 7504,
      "casionally": 7505,
      "gonnegtion": 7506,
      "ohn": 7507,
      "slightly": 7508,
      "whisky": 7509,
      "Ġtanned": 7510,
      "invisible": 7511,
      "Ġwavered": 7512,
      "Ġoperations": 7513,
      "Ġinfantry": 7514,
      "Ġpigsty": 7515,
      "Ġhello": 7516,
      "Ġgaud": 7517,
      "Ġevents": 7518,
      "Ġstrike": 7519,
      "Ġmelody": 7520,
      "Ġmelodious": 7521,
      "cellence": 7522,
      "Ġshifting": 7523,
      "Ġshiftless": 7524,
      "Ġabstracted": 7525,
      "apartment": 7526,
      "Ġunhappy": 7527,
      "Ġunhappily": 7528,
      "Ġjaunty": 7529,
      "Ġjauntily": 7530,
      "Ġjewels": 7531,
      "Ġjewellery": 7532,
      "Ġfluttering": 7533,
      "Ġpermanent": 7534,
      "excitement": 7535,
      "Ġaccusations": 7536,
      "Ġaccusingly": 7537,
      "Ġaccording": 7538,
      "Ġgrocer": 7539,
      "Ġrepresented": 7540,
      "Ġsnobbishly": 7541,
      "Ġcelebrated": 7542,
      "ĠMontauk": 7543,
      "Ġphotographers": 7544,
      "Ġtiptoed": 7545,
      "Ġtiptoes": 7546,
      "Ġgloomily": 7547,
      "Ġtumultuous": 7548,
      "careful": 7549,
      "ealous": 7550,
      "ladmir": 7551,
      "Ġtunnel": 7552,
      "Ġaudible": 7553,
      "Ġhilarity": 7554,
      "Ġfatig": 7555,
      "Ġlurking": 7556,
      "Ġetc": 7557,
      "Ġrented": 7558,
      "Ġwealthy": 7559,
      "Ġancestors": 7560,
      "Ġsparkling": 7561,
      "Ġuncomfortably": 7562,
      "Ġtradition": 7563,
      "Ġgovernment": 7564,
      "Ġchoked": 7565,
      "Ġroofs": 7566,
      "Ġproport": 7567,
      "Ġproceeded": 7568,
      "Ġclustered": 7569,
      "Ġclouds": 7570,
      "Ġimproving": 7571,
      "Ġstartlingly": 7572,
      "Ġswamps": 7573,
      "Ġcounter": 7574,
      "Ġcommanded": 7575,
      "Ġeddying": 7576,
      "Ġrigidly": 7577,
      "provided": 7578,
      "Ġpossibilities": 7579,
      "Ġceaselessly": 7580,
      "Ġconsciousness": 7581,
      "Ġcalculated": 7582,
      "Ġarrangement": 7583,
      "Ġinvestigation": 7584,
      "Excuse": 7585,
      "bruary": 7586,
      "drugstores": 7587,
      "hastily": 7588,
      "listened": 7589,
      "mindedness": 7590,
      "ĊĠĠĠĠĠĠĠĠĠĠĠĠĠĠĠĠĠĠĠĠĠĠĠĠĠĠĠĠĠĠĠĠĠ": 7591,
      "Ġtestimony": 7592,
      "Ġtapest": 7593,
      "Ġticket": 7594,
      "Ġapology": 7595,
      "Ġsilly": 7596,
      "Ġopinion": 7597,
      "rehens": 7598,
      "Ġmessage": 7599,
      "Ġholiday": 7600,
      "Ġbrief": 7601,
      "Ġbrilliant": 7602,
      "Ġbanners": 7603,
      "Ġcoward": 7604,
      "Ġcordial": 7605,
      "Ġcynical": 7606,
      "Ġtossed": 7607,
      "Ġdenied": 7608,
      "Ġdilatory": 7609,
      "Ġinfluence": 7610,
      "Ġpyjam": 7611,
      "Ġpouring": 7612,
      "Ġpompadour": 7613,
      "Ġwhitewashed": 7614,
      "Ġseparated": 7615,
      "embarrassment": 7616,
      "ĠMuldoon": 7617,
      "ĠScott": 7618,
      "Ġorchids": 7619,
      "Ġvulgar": 7620,
      "Ġexercise": 7621,
      "ĠParke": 7622,
      "Ġunsuccessfully": 7623,
      "ĠFerret": 7624,
      "ĠForty": 7625,
      "ĠFitzgeral": 7626,
      "Ġrotten": 7627,
      "Ġwholesome": 7628,
      "Ġflannel": 7629,
      "beginning": 7630,
      "concealed": 7631,
      "Ġclutching": 7632,
      "Ġdistinguished": 7633,
      "Ġimpersonal": 7634,
      "Ġswallowed": 7635,
      "approach": 7636,
      "Ġadjustment": 7637,
      "Ġadmiration": 7638,
      "Ġearnestly": 7639,
      "Ġcommuting": 7640,
      "Ġcorrobor": 7641,
      "Ġdiscreetly": 7642,
      "Ġconscientious": 7643,
      "Ġjudgements": 7644,
      "Ġprivilege": 7645,
      "Ġirregular": 7646,
      "Ġestablished": 7647,
      "Ġerrors": 7648,
      "Ġnostrils": 7649,
      "triumph": 7650,
      "helplessly": 7651,
      "representations": 7652,
      "Ġbona": 7653,
      "Ġcrossly": 7654,
      "Ġinherited": 7655,
      "Ġinexhaustible": 7656,
      "Ġhedge": 7657,
      "Ġgirders": 7658,
      "ĠTwenty": 7659,
      "Ġstudies": 7660,
      "Ġstupid": 7661,
      "Ġconsoling": 7662,
      "Ġspectacles": 7663,
      "Ġuniversal": 7664,
      "ĠFebruary": 7665,
      "Ġhawthorn": 7666,
      "Ġplausible": 7667,
      "Ġschedule": 7668,
      "Ġoblivion": 7669,
      "Ġdragging": 7670,
      "Ġinvoluntarily": 7671,
      "avoid": 7672,
      "Ġfrankly": 7673,
      "Ġgeometry": 7674,
      "Ġcemetery": 7675,
      "Self": 7676,
      "Twelve": 7677,
      "business": 7678,
      "breathing": 7679,
      "country": 7680,
      "demanded": 7681,
      "direction": 7682,
      "elevator": 7683,
      "fessor": 7684,
      "haviour": 7685,
      "moder": 7686,
      "nervous": 7687,
      "pulled": 7688,
      "raised": 7689,
      "ximity": 7690,
      "Ġwidespread": 7691,
      "Ġmorbid": 7692,
      "Ġhovering": 7693,
      "Ġbenediction": 7694,
      "Ġbounce": 7695,
      "Ġbiscuits": 7696,
      "Ġfrenzy": 7697,
      "Ġfoliage": 7698,
      "Ġcellar": 7699,
      "Ġtobacco": 7700,
      "Ġinexplicable": 7701,
      "Ġpenniless": 7702,
      "Ġliterally": 7703,
      "ĠTuolomee": 7704,
      "riggling": 7705,
      "riguing": 7706,
      "Ġsturdy": 7707,
      "Ġweekends": 7708,
      "Ġmelancholy": 7709,
      "Ġanchor": 7710,
      "Ġatmosphere": 7711,
      "ĠGREAT": 7712,
      "ĠGATSBY": 7713,
      "Ġsaxophones": 7714,
      "Ġsecurities": 7715,
      "ĠMinnesota": 7716,
      "ĠMcKees": 7717,
      "Ġrhododend": 7718,
      "ĠAugust": 7719,
      "ĠHistory": 7720,
      "ĠSpecial": 7721,
      "ĠSeptember": 7722,
      "Ġabortive": 7723,
      "Ġvillages": 7724,
      "Ġsoggy": 7725,
      "Ġextinguished": 7726,
      "Ġaluminium": 7727,
      "Ġunwillingly": 7728,
      "Ġnephew": 7729,
      "Ġchicken": 7730,
      "Ġchiefly": 7731,
      "ersailles": 7732,
      "ĠCatholic": 7733,
      "ĠClaud": 7734,
      "ĠNovember": 7735,
      "Ġprolonged": 7736,
      "ĠLondon": 7737,
      "ĠLegion": 7738,
      "ĠLutheran": 7739,
      "Ġdisquieting": 7740,
      "Ġunderneath": 7741,
      "Ġpreoccup": 7742,
      "splendid": 7743,
      "weeks": 7744,
      "Ġambitious": 7745,
      "Ġcoincidence": 7746,
      "Ġdrizzle": 7747,
      "Ġdesigns": 7748,
      "Ġcourtesy": 7749,
      "Ġaccounting": 7750,
      "Ġmonstrous": 7751,
      "ĠKatspaugh": 7752,
      "Ġshirtwaist": 7753,
      "Ġmotorcycle": 7754,
      "ennsylvania": 7755,
      "ĠSouthampton": 7756,
      "ĠFitzgerald": 7757,
      "Ġrhododendron": 7758,
      "!)": 7759,
      "!âĢĶ": 7760,
      "($": 7761,
      ")(": 7762,
      "09": 7763,
      "16": 7764,
      "18": 7765,
      "501": 7766,
      "622": 7767,
      "87": 7768,
      "801": 7769,
      "96": 7770,
      "AD": 7771,
      "AS": 7772,
      "AV": 7773,
      "Auth": 7774,
      "ASE": 7775,
      "Americ": 7776,
      "ANT": 7777,
      "Again": 7778,
      "CI": 7779,
      "CL": 7780,
      "CLA": 7781,
      "CEMENT": 7782,
      "Clearly": 7783,
      "Creating": 7784,
      "DED": 7785,
      "DEM": 7786,
      "DENT": 7787,
      "DON": 7788,
      "DAMAG": 7789,
      "DING": 7790,
      "EG": 7791,
      "Either": 7792,
      "FO": 7793,
      "FU": 7794,
      "Fine": 7795,
      "Foundation": 7796,
      "GH": 7797,
      "GEN": 7798,
      "German": 7799,
      "ICT": 7800,
      "IND": 7801,
      "IAL": 7802,
      "ICE": 7803,
      "IGH": 7804,
      "License": 7805,
      "Literary": 7806,
      "Language": 7807,
      "MP": 7808,
      "Mor": 7809,
      "NIT": 7810,
      "NER": 7811,
      "NES": 7812,
      "NITY": 7813,
      "Over": 7814,
      "OTH": 7815,
      "OSS": 7816,
      "PH": 7817,
      "PT": 7818,
      "Ph": 7819,
      "PRE": 7820,
      "Psychologist": 7821,
      "PRO": 7822,
      "Presently": 7823,
      "PLA": 7824,
      "PLE": 7825,
      "POSE": 7826,
      "QU": 7827,
      "RS": 7828,
      "Rem": 7829,
      "Reven": 7830,
      "RPOSE": 7831,
      "Say": 7832,
      "Sect": 7833,
      "Spe": 7834,
      "Salt": 7835,
      "START": 7836,
      "Tit": 7837,
      "Tell": 7838,
      "TRA": 7839,
      "UCH": 7840,
      "UAL": 7841,
      "UDING": 7842,
      "VEN": 7843,
      "Volunteers": 7844,
      "Vanilla": 7845,
      "WNER": 7846,
      "_,": 7847,
      "aly": 7848,
      "aving": 7849,
      "aily": 7850,
      "bous": 7851,
      "bell": 7852,
      "bare": 7853,
      "cr": 7854,
      "cer": 7855,
      "cal": 7856,
      "cop": 7857,
      "caught": 7858,
      "cryst": 7859,
      "done": 7860,
      "dist": 7861,
      "dull": 7862,
      "dery": 7863,
      "draw": 7864,
      "dazz": 7865,
      "dimensions": 7866,
      "ele": 7867,
      "eves": 7868,
      "eBook": 7869,
      "far": 7870,
      "fac": 7871,
      "fied": 7872,
      "flight": 7873,
      "further": 7874,
      "foli": 7875,
      "gence": 7876,
      "glow": 7877,
      "given": 7878,
      "gallery": 7879,
      "grav": 7880,
      "hist": 7881,
      "hold": 7882,
      "hoped": 7883,
      "ipp": 7884,
      "iation": 7885,
      "iated": 7886,
      "ipping": 7887,
      "jac": 7888,
      "jud": 7889,
      "kward": 7890,
      "law": 7891,
      "lacement": 7892,
      "laughter": 7893,
      "mat": 7894,
      "mous": 7895,
      "mun": 7896,
      "move": 7897,
      "mater": 7898,
      "mingly": 7899,
      "missed": 7900,
      "mounted": 7901,
      "net": 7902,
      "nib": 7903,
      "nify": 7904,
      "naturally": 7905,
      "oking": 7906,
      "pite": 7907,
      "passion": 7908,
      "rap": 7909,
      "rical": 7910,
      "ritable": 7911,
      "rinth": 7912,
      "sle": 7913,
      "sand": 7914,
      "swe": 7915,
      "sue": 7916,
      "sleep": 7917,
      "sively": 7918,
      "suring": 7919,
      "tly": 7920,
      "tical": 7921,
      "tled": 7922,
      "tected": 7923,
      "trem": 7924,
      "uv": 7925,
      "ube": 7926,
      "uary": 7927,
      "vag": 7928,
      "vance": 7929,
      "viously": 7930,
      "wide": 7931,
      "worn": 7932,
      "wise": 7933,
      "warr": 7934,
      "watch": 7935,
      "zily": 7936,
      "§ade": 7937,
      "Ã§ade": 7938,
      "Åĵ": 7939,
      "ĊĠĠ": 7940,
      "ĊĠĠĠĠĠĠĠĠ": 7941,
      "Ġ#": 7942,
      "Ġ.": 7943,
      "Ġing": 7944,
      "Ġignor": 7945,
      "Ġtin": 7946,
      "Ġtor": 7947,
      "Ġtied": 7948,
      "Ġtint": 7949,
      "Ġtempt": 7950,
      "Ġtrop": 7951,
      "Ġtension": 7952,
      "ina": 7953,
      "inf": 7954,
      "inting": 7955,
      "inten": 7956,
      "instead": 7957,
      "Ġwise": 7958,
      "Ġwane": 7959,
      "Ġwriggling": 7960,
      "Ġsore": 7961,
      "Ġsorrow": 7962,
      "Ġsyn": 7963,
      "Ġtheories": 7964,
      "Ġoct": 7965,
      "Ġoce": 7966,
      "Ġowed": 7967,
      "requ": 7968,
      "really": 7969,
      "resh": 7970,
      "rete": 7971,
      "resp": 7972,
      "repe": 7973,
      "educt": 7974,
      "edition": 7975,
      "ouch": 7976,
      "athed": 7977,
      "athy": 7978,
      "atical": 7979,
      "attracted": 7980,
      "Ġmark": 7981,
      "Ġmale": 7982,
      "Ġmax": 7983,
      "Ġmoral": 7984,
      "Ġmental": 7985,
      "Ġhide": 7986,
      "Ġhiding": 7987,
      "ital": 7988,
      "itive": 7989,
      "itute": 7990,
      "itations": 7991,
      "itating": 7992,
      "enforce": 7993,
      "Ġblocks": 7994,
      "Ġbinary": 7995,
      "Ġfile": 7996,
      "Ġfab": 7997,
      "Ġfence": 7998,
      "Ġfish": 7999,
      "Ġferv": 8000,
      "Ġfears": 8001,
      "Ġfiles": 8002,
      "Ġfists": 8003,
      "Ġfuss": 8004,
      "Ġcab": 8005,
      "Ġcru": 8006,
      "Ġcott": 8007,
      "Ġcube": 8008,
      "ison": 8009,
      "isite": 8010,
      "isms": 8011,
      "Ġtore": 8012,
      "ĠIF": 8013,
      "ĠIMP": 8014,
      "ĠIRS": 8015,
      "ashes": 8016,
      "Ġdem": 8017,
      "Ġdare": 8018,
      "Ġdried": 8019,
      "Ġdined": 8020,
      "Ġdanced": 8021,
      "Ġdashed": 8022,
      "Ġdotted": 8023,
      "Ġdaily": 8024,
      "Ġdeduct": 8025,
      "Ġink": 8026,
      "Ġincomp": 8027,
      "Ġincontinently": 8028,
      "Ġinadequ": 8029,
      "aration": 8030,
      "arms": 8031,
      "lel": 8032,
      "lest": 8033,
      "legr": 8034,
      "anes": 8035,
      "anse": 8036,
      "anite": 8037,
      "ancial": 8038,
      "Ġthudd": 8039,
      "Ġthresh": 8040,
      "âĢĿ),": 8041,
      "llen": 8042,
      "omin": 8043,
      "oman": 8044,
      "omable": 8045,
      "Ġpall": 8046,
      "Ġpul": 8047,
      "Ġpict": 8048,
      "Ġpiled": 8049,
      "Ġpoured": 8050,
      "Ġpaw": 8051,
      "Ġpushing": 8052,
      "Ġpunct": 8053,
      "Ġpanting": 8054,
      "Ġpattering": 8055,
      "escri": 8056,
      "espite": 8057,
      "Ġlack": 8058,
      "Ġlab": 8059,
      "Ġliterary": 8060,
      "Ġloss": 8061,
      "Ġlux": 8062,
      "Ġhealth": 8063,
      "Ġheavens": 8064,
      "Ġgn": 8065,
      "Ġgra": 8066,
      "Ġgates": 8067,
      "Ġgib": 8068,
      "Ġgutter": 8069,
      "Ġgift": 8070,
      "Ġguns": 8071,
      "uters": 8072,
      "utions": 8073,
      "Ġnet": 8074,
      "Ġnoun": 8075,
      "Ġnickel": 8076,
      "stat": 8077,
      "stir": 8078,
      "stone": 8079,
      "storm": 8080,
      "study": 8081,
      "status": 8082,
      "stitute": 8083,
      "icitation": 8084,
      "ghost": 8085,
      "Ġeast": 8086,
      "Ġemer": 8087,
      "Ġevid": 8088,
      "Ġegot": 8089,
      "Ġecho": 8090,
      "Ġeastward": 8091,
      "Ġeconom": 8092,
      "idal": 8093,
      "idity": 8094,
      "idious": 8095,
      "imen": 8096,
      "imly": 8097,
      "imum": 8098,
      "Ġbeast": 8099,
      "Ġbehaviour": 8100,
      "rose": 8101,
      "Ġyield": 8102,
      "acre": 8103,
      "access": 8104,
      "acency": 8105,
      "allel": 8106,
      "alidity": 8107,
      "sec": 8108,
      "ĠTri": 8109,
      "verted": 8110,
      "otten": 8111,
      "ldly": 8112,
      "ett": 8113,
      "etite": 8114,
      "ripp": 8115,
      "Ġstem": 8116,
      "Ġstage": 8117,
      "Ġstalked": 8118,
      "Ġstorm": 8119,
      "Ġstaff": 8120,
      "Ġstories": 8121,
      "Ġstumble": 8122,
      "Ġredd": 8123,
      "Ġrenew": 8124,
      "Ġreceive": 8125,
      "Ġreverse": 8126,
      "irk": 8127,
      "iry": 8128,
      "Ġweird": 8129,
      "Ġwhips": 8130,
      "Ġwhatsoever": 8131,
      "amble": 8132,
      "urity": 8133,
      "urable": 8134,
      "urry": 8135,
      "Ġattained": 8136,
      "Ġattracted": 8137,
      "Ġattend": 8138,
      "Ġattract": 8139,
      "âĢĶâĢĶ": 8140,
      "Ġforb": 8141,
      "Ġforgive": 8142,
      "Ġasking": 8143,
      "ction": 8144,
      "cture": 8145,
      "ctions": 8146,
      "celer": 8147,
      "cending": 8148,
      "redistributing": 8149,
      "ĠGIVE": 8150,
      "Ġsafer": 8151,
      "key": 8152,
      "kept": 8153,
      "chin": 8154,
      "thy": 8155,
      "thin": 8156,
      "thunder": 8157,
      "ifies": 8158,
      "Ġsem": 8159,
      "Ġsending": 8160,
      "Ġsexes": 8161,
      "empl": 8162,
      "emnify": 8163,
      "ĠMil": 8164,
      "ĠMore": 8165,
      "ĠMex": 8166,
      "ĠMank": 8167,
      "ĠMany": 8168,
      "ĠMichael": 8169,
      "ĠMER": 8170,
      "ĠMarch": 8171,
      "ĠThese": 8172,
      "ppers": 8173,
      "ppled": 8174,
      "Ġsul": 8175,
      "Ġsuck": 8176,
      "Ġsustained": 8177,
      "Ġsuicide": 8178,
      "Ġsullen": 8179,
      "Ġupdated": 8180,
      "Ġris": 8181,
      "Ġrid": 8182,
      "Ġringing": 8183,
      "Ġrasp": 8184,
      "Ġragged": 8185,
      "ĠWill": 8186,
      "ĠWork": 8187,
      "ĠWIT": 8188,
      "ĠWOR": 8189,
      "ĠWIL": 8190,
      "anties": 8191,
      "antically": 8192,
      "ooks": 8193,
      "Ġsheet": 8194,
      "ola": 8195,
      "olas": 8196,
      "olation": 8197,
      "olars": 8198,
      "ĠAm": 8199,
      "ĠAdd": 8200,
      "ĠACT": 8201,
      "ĠAND": 8202,
      "ĠAgain": 8203,
      "ĠApparently": 8204,
      "Ġshiver": 8205,
      "ĠHa": 8206,
      "ĠHart": 8207,
      "ĠHAV": 8208,
      "ĠSuch": 8209,
      "ĠServ": 8210,
      "ĠSlow": 8211,
      "ĠSEN": 8212,
      "ĠSeven": 8213,
      "ĠSTR": 8214,
      "ĠSTART": 8215,
      "ĠSUCH": 8216,
      "Ġdoll": 8217,
      "Ġallow": 8218,
      "Ġkill": 8219,
      "Ġkicking": 8220,
      "Ġoutl": 8221,
      "Ġoutlet": 8222,
      "Ġoutcome": 8223,
      "Ġoutdated": 8224,
      "Ġabn": 8225,
      "Ġabide": 8226,
      "Ġabomin": 8227,
      "opinion": 8228,
      "Ġleap": 8229,
      "Ġleash": 8230,
      "Ġlies": 8231,
      "Ġliver": 8232,
      "Ġliability": 8233,
      "elashes": 8234,
      "ĠDoub": 8235,
      "ĠDimension": 8236,
      "ĠDIRECT": 8237,
      "ĠDespite": 8238,
      "unp": 8239,
      "unenforce": 8240,
      "oury": 8241,
      "Ġvain": 8242,
      "Ġvist": 8243,
      "Ġvap": 8244,
      "astrop": 8245,
      "ushes": 8246,
      "usively": 8247,
      "istently": 8248,
      "ĠBet": 8249,
      "ĠBUT": 8250,
      "ĠBesides": 8251,
      "quent": 8252,
      "quil": 8253,
      "quisite": 8254,
      "Ġintoler": 8255,
      "Ġexten": 8256,
      "Ġexhilar": 8257,
      "Ġexquisite": 8258,
      "ulous": 8259,
      "Ġaltered": 8260,
      "Ġaltern": 8261,
      "Ġalarming": 8262,
      "Ġalarmed": 8263,
      "Ġnoted": 8264,
      "Ġnotifies": 8265,
      "Ġagon": 8266,
      "Ġagent": 8267,
      "Ġagric": 8268,
      "love": 8269,
      "loading": 8270,
      "artz": 8271,
      "Ġconclud": 8272,
      "Ġconvert": 8273,
      "Ġcontaining": 8274,
      "Ġconveyed": 8275,
      "ĠPAR": 8276,
      "ĠPOSS": 8277,
      "Ġknelt": 8278,
      "apolog": 8279,
      "orting": 8280,
      "Ġspun": 8281,
      "Ġspots": 8282,
      "Ġsplit": 8283,
      "Ġbye": 8284,
      "Ġtherewith": 8285,
      "ideas": 8286,
      "Ġunsc": 8287,
      "Ġunfin": 8288,
      "Ġunlink": 8289,
      "Ġuncivil": 8290,
      "Ġoverp": 8291,
      "verything": 8292,
      "akers": 8293,
      "Ġtraces": 8294,
      "Ġtraced": 8295,
      "Ġtraff": 8296,
      "Ġtrousers": 8297,
      "Ġchilled": 8298,
      "Ġchanced": 8299,
      "Ġchamber": 8300,
      "Ġchanges": 8301,
      "Ġcharges": 8302,
      "Ġarch": 8303,
      "Ġarched": 8304,
      "Ġartic": 8305,
      "Ġaristo": 8306,
      "Ġsomewhat": 8307,
      "Ġdownward": 8308,
      "Ġdownloading": 8309,
      "ĠFull": 8310,
      "ĠFIT": 8311,
      "ĠFOU": 8312,
      "Ġmanager": 8313,
      "Ġmankind": 8314,
      "Ġrolled": 8315,
      "Ġrolling": 8316,
      "igs": 8317,
      "iges": 8318,
      "Ġjar": 8319,
      "Ġjoint": 8320,
      "Ġjealous": 8321,
      "Ġnoises": 8322,
      "ĠCON": 8323,
      "ĠCentral": 8324,
      "ĠCopyright": 8325,
      "ĠCONT": 8326,
      "ĠEND": 8327,
      "ĠEIN": 8328,
      "ĠEloi": 8329,
      "ĠEmail": 8330,
      "ĠEVEN": 8331,
      "ĠEverything": 8332,
      "eplacement": 8333,
      "ĠNearly": 8334,
      "ĠNecess": 8335,
      "ĠNEG": 8336,
      "Ġcommer": 8337,
      "ordance": 8338,
      "rait": 8339,
      "assert": 8340,
      "assistance": 8341,
      "Ġdelet": 8342,
      "Ġdegree": 8343,
      "ĠOc": 8344,
      "ĠOWNER": 8345,
      "Ġknowing": 8346,
      "Ġeyelashes": 8347,
      "Ġhaze": 8348,
      "Ġflood": 8349,
      "Ġflash": 8350,
      "Ġflaring": 8351,
      "Ġflirt": 8352,
      "Ġflakes": 8353,
      "Ġflaming": 8354,
      "Ġcarriage": 8355,
      "Ġproof": 8356,
      "Ġprodig": 8357,
      "Ġproduce": 8358,
      "Ġprohibition": 8359,
      "Ġtwice": 8360,
      "Ġtwisted": 8361,
      "Ġtwinkle": 8362,
      "Ġtwigs": 8363,
      "pliance": 8364,
      "ĊĊĊĊ": 8365,
      "ĊĊĊĠĠĠĠĊ": 8366,
      "text": 8367,
      "ĠLike": 8368,
      "Ġdonation": 8369,
      "Ġdonors": 8370,
      "Ġgrad": 8371,
      "Ġgrind": 8372,
      "Ġgratitude": 8373,
      "Ġgranite": 8374,
      "Ġblinking": 8375,
      "Ġremove": 8376,
      "Ġplane": 8377,
      "Ġpluck": 8378,
      "Ġsmould": 8379,
      "Ġsmell": 8380,
      "Ġsmiles": 8381,
      "Ġdisordered": 8382,
      "Ġdisgust": 8383,
      "Ġdiscovery": 8384,
      "Ġdisease": 8385,
      "Ġquiver": 8386,
      "Ġgliding": 8387,
      "Ġbegotten": 8388,
      "Ġoffers": 8389,
      "lived": 8390,
      "lips": 8391,
      "liances": 8392,
      "liability": 8393,
      "Ġprejud": 8394,
      "Ġpreviously": 8395,
      "Ġtheirs": 8396,
      "spect": 8397,
      "space": 8398,
      "weather": 8399,
      "Ġamused": 8400,
      "Ġamazed": 8401,
      "Ġperf": 8402,
      "Ġperpet": 8403,
      "âĦ¢,": 8404,
      "âĦ¢.": 8405,
      "âĦ¢âĢĻ": 8406,
      "Ġpoignant": 8407,
      "Ġparting": 8408,
      "Ġpartake": 8409,
      "Ġpartially": 8410,
      "clad": 8411,
      "clim": 8412,
      "cline": 8413,
      "issipp": 8414,
      "forth": 8415,
      "ntil": 8416,
      "beach": 8417,
      "Ġslam": 8418,
      "Ġslum": 8419,
      "Ġsloping": 8420,
      "Ġslopes": 8421,
      "Ġfond": 8422,
      "neg": 8423,
      "pened": 8424,
      "Ġbrow": 8425,
      "Ġbrittle": 8426,
      "Ġbranc": 8427,
      "Ġvoid": 8428,
      "Ġenem": 8429,
      "Ġencounter": 8430,
      "Ġensuring": 8431,
      "perform": 8432,
      "perfect": 8433,
      "performed": 8434,
      "blood": 8435,
      "blundering": 8436,
      "ends": 8437,
      "Ġapple": 8438,
      "Ġapply": 8439,
      "Ġappalled": 8440,
      "Ġappalling": 8441,
      "Ġappliances": 8442,
      "Ġlazily": 8443,
      "Ġbecomes": 8444,
      "gets": 8445,
      "conversation": 8446,
      "concer": 8447,
      "cessible": 8448,
      "Ġscore": 8449,
      "Ġscrub": 8450,
      "Ġclick": 8451,
      "Ġclue": 8452,
      "Ġclung": 8453,
      "Ġdarkling": 8454,
      "Ġboldly": 8455,
      "Ġdistant": 8456,
      "Ġdistress": 8457,
      "ĠInst": 8458,
      "ĠInto": 8459,
      "ĠInternal": 8460,
      "ĠUT": 8461,
      "ĠUND": 8462,
      "ĠUSE": 8463,
      "Ġobso": 8464,
      "ishness": 8465,
      "Ġimpet": 8466,
      "Ġimposed": 8467,
      "exact": 8468,
      "exists": 8469,
      "existence": 8470,
      "suing": 8471,
      "Ġstrain": 8472,
      "izont": 8473,
      "readth": 8474,
      "readable": 8475,
      "Ġmathem": 8476,
      "llowed": 8477,
      "Ġcomposed": 8478,
      "Ġcomplex": 8479,
      "Ġcompilation": 8480,
      "Ġcomprehe": 8481,
      "hesitated": 8482,
      "ributions": 8483,
      "Ġswitch": 8484,
      "Ġdescent": 8485,
      "Ġdesires": 8486,
      "Ġdescended": 8487,
      "Ġindemnify": 8488,
      "Ġexpost": 8489,
      "Ġexpend": 8490,
      "Ġexpanse": 8491,
      "Ġexporting": 8492,
      "ĠRight": 8493,
      "ĠRich": 8494,
      "ĠRef": 8495,
      "ĠREM": 8496,
      "ĠRIGH": 8497,
      "ĠReplacement": 8498,
      "ensed": 8499,
      "osing": 8500,
      "Ġgreatest": 8501,
      "fees": 8502,
      "Ġfollows": 8503,
      "ĠState": 8504,
      "Ġsmaller": 8505,
      "whom": 8506,
      "whatsoever": 8507,
      "Ġsurvi": 8508,
      "Ġsurrounded": 8509,
      "Ġintric": 8510,
      "Ġsilently": 8511,
      "meaning": 8512,
      "athomable": 8513,
      "Ġinvalidity": 8514,
      "itherto": 8515,
      "Ġpassage": 8516,
      "lieu": 8517,
      "note": 8518,
      "Ġtelegr": 8519,
      "Ġcourses": 8520,
      "gratitude": 8521,
      "Ġentry": 8522,
      "amps": 8523,
      "amped": 8524,
      "bringing": 8525,
      "brushes": 8526,
      "retched": 8527,
      "Ġreality": 8528,
      "Ġphant": 8529,
      "remain": 8530,
      "remained": 8531,
      "remaining": 8532,
      "curate": 8533,
      "current": 8534,
      "ĠMission": 8535,
      "ĠMississipp": 8536,
      "standing": 8537,
      "Ġinterpre": 8538,
      "Ġintervals": 8539,
      "Ġinterminable": 8540,
      "Ġintermarriage": 8541,
      "Ġinquiry": 8542,
      "Ġeffected": 8543,
      "import": 8544,
      "Ġemail": 8545,
      "Ġfourth": 8546,
      "ibility": 8547,
      "unned": 8548,
      "Ġsentiment": 8549,
      "Ġfriendship": 8550,
      "scape": 8551,
      "Ġparap": 8552,
      "Ġparallel": 8553,
      "rewed": 8554,
      "ieth": 8555,
      "Ġdimness": 8556,
      "aneous": 8557,
      "Ġ(âĢľ": 8558,
      "Ġprice": 8559,
      "Ġrefined": 8560,
      "Ġreflected": 8561,
      "Ġflowed": 8562,
      "Ġbigger": 8563,
      "Ġinclude": 8564,
      "Ġincludes": 8565,
      "Ġexcuse": 8566,
      "dead": 8567,
      "defect": 8568,
      "ĠVanilla": 8569,
      "Ġbottom": 8570,
      "Ġbreathe": 8571,
      "Ġreadable": 8572,
      "shell": 8573,
      "Ġripe": 8574,
      "Ġsorts": 8575,
      "Ġawfully": 8576,
      "Ġawkward": 8577,
      "ultation": 8578,
      "ĠUnless": 8579,
      "Ġmoss": 8580,
      "Ġcorrupt": 8581,
      "Ġinsens": 8582,
      "Ġinsidious": 8583,
      "Ġinstit": 8584,
      "Ġsubtly": 8585,
      "Ġmoonlit": 8586,
      "Ġcrowbar": 8587,
      "Ġlowered": 8588,
      "Ġcircuit": 8589,
      "Ġhusk": 8590,
      "Intern": 8591,
      "Information": 8592,
      "production": 8593,
      "profit": 8594,
      "Ġmonkey": 8595,
      "symp": 8596,
      "Ġpromotion": 8597,
      "overwhel": 8598,
      "Ġhighly": 8599,
      "ifications": 8600,
      "Ġchildish": 8601,
      "avages": 8602,
      "ringement": 8603,
      "umped": 8604,
      "Ġmurmuring": 8605,
      "Ġfuturity": 8606,
      "ĠThough": 8607,
      "ĠThose": 8608,
      "ĠThousand": 8609,
      "Ġpossession": 8610,
      "Ġfireplace": 8611,
      "Ġdeliberately": 8612,
      "Ġreturns": 8613,
      "Ġsummit": 8614,
      "Ġlargely": 8615,
      "idding": 8616,
      "ĠTHOSE": 8617,
      "Ġrepu": 8618,
      "Ġdeeply": 8619,
      "contact": 8620,
      "controlled": 8621,
      "ĠKIND": 8622,
      "Ġstructure": 8623,
      "Ġsnatched": 8624,
      "Ġabsent": 8625,
      "obtain": 8626,
      "underground": 8627,
      "Ġfinancial": 8628,
      "Ġcreative": 8629,
      "cheer": 8630,
      "check": 8631,
      "Ġframed": 8632,
      "Ġfrantic": 8633,
      "Ġcreation": 8634,
      "Ġcreak": 8635,
      "afterwards": 8636,
      "Ġverification": 8637,
      "Ġsweeping": 8638,
      "Ġbreed": 8639,
      "Ġceiling": 8640,
      "Ġaccessed": 8641,
      "Ġaccessible": 8642,
      "Ġcountries": 8643,
      "displaying": 8644,
      "uffling": 8645,
      "Ġcooling": 8646,
      "sterical": 8647,
      "Ġrequired": 8648,
      "Ġreceiving": 8649,
      "Ġprovision": 8650,
      "Ġprovisions": 8651,
      "Ġdoubted": 8652,
      "Ġpowdery": 8653,
      "Ġlimits": 8654,
      "Ġlimbs": 8655,
      "Ġlocations": 8656,
      "Ġregulating": 8657,
      "Ġconsented": 8658,
      "Ġconsider": 8659,
      "Ġfreedom": 8660,
      "Ġdamage": 8661,
      "Ġdamages": 8662,
      "Abruptly": 8663,
      "Ġhills": 8664,
      "Ġcases": 8665,
      "Ġcurve": 8666,
      "Ġgenerally": 8667,
      "additions": 8668,
      "additional": 8669,
      "comply": 8670,
      "compressed": 8671,
      "computers": 8672,
      "Ġhopeless": 8673,
      "Ġcrab": 8674,
      "letter": 8675,
      "Ġtranquil": 8676,
      "Ġaccepting": 8677,
      "Ġtrembled": 8678,
      "Ġmodified": 8679,
      "Ġrelated": 8680,
      "Ġsigning": 8681,
      "Ġladder": 8682,
      "Ġconcrete": 8683,
      "incident": 8684,
      "Ġsolicitation": 8685,
      "Ġshower": 8686,
      "Ġvisitor": 8687,
      "Ġindefinable": 8688,
      "Ġserious": 8689,
      "Ġseriously": 8690,
      "Ġeyeballs": 8691,
      "Ġfreshly": 8692,
      "ARK": 8693,
      "NDATION": 8694,
      "Ġhopping": 8695,
      "istribution": 8696,
      "Ġenormously": 8697,
      "Ġhurriedly": 8698,
      "glass": 8699,
      "Ġ20": 8700,
      "Ġblinding": 8701,
      "Ġviewing": 8702,
      "Ġautomatic": 8703,
      "volunte": 8704,
      "Ġsleeves": 8705,
      "Ġmassive": 8706,
      "Ġelement": 8707,
      "Ġjudge": 8708,
      "Ġimagined": 8709,
      "RACT": 8710,
      "RAPH": 8711,
      "SEQU": 8712,
      "burst": 8713,
      "ficiency": 8714,
      "Ġbleeding": 8715,
      "ĠSuppose": 8716,
      "Ġneighbourhood": 8717,
      "Ġspecimen": 8718,
      "below": 8719,
      "smoking": 8720,
      "Ġskirt": 8721,
      "Ġmagn": 8722,
      "Ġstationary": 8723,
      "Ġlieu": 8724,
      "Ġvalue": 8725,
      "Ġrocks": 8726,
      "Ġjumping": 8727,
      "EDIES": 8728,
      "having": 8729,
      "humanity": 8730,
      "presently": 8731,
      "Ġwander": 8732,
      "Ġwandering": 8733,
      "Ġincrease": 8734,
      "aurus": 8735,
      "aurants": 8736,
      "prevented": 8737,
      "Ġpaperwork": 8738,
      "Ġstatements": 8739,
      "Ġstarlight": 8740,
      "Ġreplace": 8741,
      "Ġdismal": 8742,
      "Ġapproaching": 8743,
      "frame": 8744,
      "horrible": 8745,
      "waiting": 8746,
      "interrupt": 8747,
      "interminable": 8748,
      "Ġhysterical": 8749,
      "Ġdepends": 8750,
      "Ġpinkish": 8751,
      "Ġstirred": 8752,
      "Ġstirring": 8753,
      "Ġpurple": 8754,
      "Ġidentification": 8755,
      "Ġidentify": 8756,
      "Ġsensations": 8757,
      "onymous": 8758,
      "Ġpainful": 8759,
      "Ġanimated": 8760,
      "ĠBefore": 8761,
      "ĠExpl": 8762,
      "Ġappearing": 8763,
      "Ġrestlessness": 8764,
      "Ġaddresses": 8765,
      "Ġstruggled": 8766,
      "EMNITY": 8767,
      "LIED": 8768,
      "LIMITED": 8769,
      "LIGEN": 8770,
      "Ġbarely": 8771,
      "ĠfaÃ§ade": 8772,
      "Ġfailure": 8773,
      "Ġdangers": 8774,
      "Ġretreat": 8775,
      "Ġretorted": 8776,
      "amental": 8777,
      "Ġjoined": 8778,
      "Ġsmoked": 8779,
      "Ġsmoky": 8780,
      "Ġengag": 8781,
      "Ġnewsletter": 8782,
      "Ġimpatient": 8783,
      "Ġextravag": 8784,
      "Ġharshly": 8785,
      "CHANT": 8786,
      "INCI": 8787,
      "fastly": 8788,
      "Ġ50": 8789,
      "Ġ596": 8790,
      "Ġlinked": 8791,
      "Ġgrie": 8792,
      "Ġgripped": 8793,
      "stones": 8794,
      "Ġstreak": 8795,
      "Ġrecently": 8796,
      "Ġrecovered": 8797,
      "Ġangle": 8798,
      "Ġsuffer": 8799,
      "Ġsuffered": 8800,
      "Ġsuffoc": 8801,
      "Ġsuffering": 8802,
      "Ġrarely": 8803,
      "Ġgracefully": 8804,
      "Ġconduct": 8805,
      "subscri": 8806,
      "substantial": 8807,
      "Ġdescribe": 8808,
      "Release": 8809,
      "breaking": 8810,
      "method": 8811,
      "Ġwidening": 8812,
      "Ġmaintaining": 8813,
      "Ġdreadful": 8814,
      "Ġpitch": 8815,
      "Ġportrait": 8816,
      "Ġlandscape": 8817,
      "Ġresorted": 8818,
      "Ġashamed": 8819,
      "Ġvestiges": 8820,
      "Ġvigour": 8821,
      "Ġtrusting": 8822,
      "Ġtricks": 8823,
      "Ġcharitable": 8824,
      "Ġobscure": 8825,
      "Ġinstinctive": 8826,
      "ENTIAL": 8827,
      "Ġirreverent": 8828,
      "1541": 8829,
      "AGRAPH": 8830,
      "Once": 8831,
      "cannot": 8832,
      "paragraph": 8833,
      "Ġswayed": 8834,
      "Ġderive": 8835,
      "Ġgusts": 8836,
      "Ġassume": 8837,
      "Ġassumption": 8838,
      "ĠANYTH": 8839,
      "ĠProvincial": 8840,
      "ortunity": 8841,
      "Ġargue": 8842,
      "Ġargued": 8843,
      "ĠContact": 8844,
      "ĠContributions": 8845,
      "Ġdisclaimers": 8846,
      "Ġperformances": 8847,
      "explained": 8848,
      "drinking": 8849,
      "hardly": 8850,
      "possibly": 8851,
      "surface": 8852,
      "Ġ60": 8853,
      "Ġ64": 8854,
      "Ġastonished": 8855,
      "Ġastonishing": 8856,
      "instinctively": 8857,
      "Ġfainter": 8858,
      "Ġheaped": 8859,
      "royalties": 8860,
      "Ġyesterday": 8861,
      "accordance": 8862,
      "Ġmechanical": 8863,
      "Ġshafts": 8864,
      "ĠPlat": 8865,
      "Ġprocessing": 8866,
      "Ġenjoy": 8867,
      "Ġoriginator": 8868,
      "moving": 8869,
      "silence": 8870,
      "Ġfurnish": 8871,
      "Ġstagnant": 8872,
      "Ġuncertainly": 8873,
      "Ġproblems": 8874,
      "Ġcontrast": 8875,
      "Ġadditional": 8876,
      "ABILITY": 8877,
      "CEPT": 8878,
      "IBILITY": 8879,
      "LAF": 8880,
      "THE": 8881,
      "distributed": 8882,
      "distributing": 8883,
      "distribution": 8884,
      "followed": 8885,
      "limitation": 8886,
      "public": 8887,
      "Ġharmless": 8888,
      "Ġcrawled": 8889,
      "Ġlanguage": 8890,
      "started": 8891,
      "ĠAbove": 8892,
      "ĠAGREEMENT": 8893,
      "Ġorganized": 8894,
      "ĠDISCLA": 8895,
      "Ġrobes": 8896,
      "Ġroyalty": 8897,
      "Ġcontributions": 8898,
      "Ġclimbed": 8899,
      "suggested": 8900,
      "Ġcomputers": 8901,
      "ĠREAD": 8902,
      "ĠREFU": 8903,
      "ĠREPLA": 8904,
      "Ġextremely": 8905,
      "Ġsimplest": 8906,
      "violates": 8907,
      "Ġopportunities": 8908,
      "hausted": 8909,
      "ĠNOTICE": 8910,
      "Upon": 8911,
      "Updated": 8912,
      "between": 8913,
      "goals": 8914,
      "visit": 8915,
      "Ġ841": 8916,
      "Ġ809": 8917,
      "Ġtype": 8918,
      "Ġtypes": 8919,
      "Ġinfringement": 8920,
      "Ġinspired": 8921,
      "Ġprojecting": 8922,
      "Ġmysteries": 8923,
      "Ġrustle": 8924,
      "Ġexclusion": 8925,
      "Ġprofits": 8926,
      "Ġbloody": 8927,
      "Ġdiscoveries": 8928,
      "cipit": 8929,
      "Ġdistrict": 8930,
      "ĠRedistributing": 8931,
      "ĠRedistribution": 8932,
      "Ġaccordance": 8933,
      "Ġrepresent": 8934,
      "Ġtransitory": 8935,
      "Ġtranscribe": 8936,
      "Ġemployee": 8937,
      "Ġemployees": 8938,
      "VIDED": 8939,
      "generations": 8940,
      "opportunity": 8941,
      "witness": 8942,
      "Ġhilariously": 8943,
      "Ġnonpropriet": 8944,
      "rotted": 8945,
      "Ġsticks": 8946,
      "Ġrenamed": 8947,
      "Ġsuccession": 8948,
      "Ġrapidly": 8949,
      "Ġshelter": 8950,
      "Ġshelves": 8951,
      "Ġvacant": 8952,
      "Ġuncomfortable": 8953,
      "Ġoverwhelmingly": 8954,
      "Ġchoking": 8955,
      "Ġdistinctly": 8956,
      "Ġbrooded": 8957,
      "Ġterrace": 8958,
      "Ġeddies": 8959,
      "Ġripple": 8960,
      "providing": 8961,
      "Ġpossibility": 8962,
      "Ġcalculate": 8963,
      "Ġbitterly": 8964,
      "Ġblossoms": 8965,
      "Ġarrangements": 8966,
      "emporary": 8967,
      "Ġanticipation": 8968,
      "Professor": 8969,
      "United": 8970,
      "damages": 8971,
      "frightened": 8972,
      "Ġtreatment": 8973,
      "Ġhalted": 8974,
      "Ġbirds": 8975,
      "Ġfacet": 8976,
      "Ġfacilities": 8977,
      "Ġfresher": 8978,
      "ĠINCL": 8979,
      "ĠINDIRECT": 8980,
      "ĠINDEMNITY": 8981,
      "Ġinaccessible": 8982,
      "Ġinaccurate": 8983,
      "Ġpetals": 8984,
      "Ġlichen": 8985,
      "Ġlicensed": 8986,
      "Ġnerves": 8987,
      "etrable": 8988,
      "Ġreserve": 8989,
      "Ġreserved": 8990,
      "Ġaspect": 8991,
      "Ġshops": 8992,
      "ĠBEFO": 8993,
      "ĠPGLAF": 8994,
      "ĠPUNIT": 8995,
      "ĠPURPOSE": 8996,
      "ĠEXPRE": 8997,
      "ĠEXCEPT": 8998,
      "earnestness": 8999,
      "Ġfluctuating": 9000,
      "Ġgratefully": 9001,
      "necessary": 9002,
      "necessarily": 9003,
      "Ġapparition": 9004,
      "Ġapparatus": 9005,
      "Ġobserved": 9006,
      "Ġadapted": 9007,
      "Ġ1500": 9008,
      "travelled": 9009,
      "travelling": 9010,
      "Ġredistribute": 9011,
      "Ġredistribution": 9012,
      "Ġdiscussing": 9013,
      "Ġwarning": 9014,
      "Ġ2021": 9015,
      "ATIONS": 9016,
      "Ġdepartment": 9017,
      "LIABILITY": 9018,
      "LIABLE": 9019,
      "ĠOverworlders": 9020,
      "ĠDISTRIBUTE": 9021,
      "ĠDISTRIBUTOR": 9022,
      "Defects": 9023,
      "Ġsympathy": 9024,
      "Everyone": 9025,
      "IMER": 9026,
      "Plenty": 9027,
      "close": 9028,
      "figure": 9029,
      "purp": 9030,
      "posted": 9031,
      "similar": 9032,
      "slowly": 9033,
      "villain": 9034,
      "Ġidols": 9035,
      "Ġtexts": 9036,
      "regard": 9037,
      "Ġmingled": 9038,
      "Ġfemale": 9039,
      "Ġfascination": 9040,
      "Ġfiercely": 9041,
      "Ġcodes": 9042,
      "Ġcautiously": 9043,
      "Ġthreadbare": 9044,
      "charities": 9045,
      "ĠMonday": 9046,
      "Ġroughly": 9047,
      "Ġlearnt": 9048,
      "ĠDarkness": 9049,
      "Ġvanishing": 9050,
      "Ġvirus": 9051,
      "logical": 9052,
      "Ġknocking": 9053,
      "Ġunprotected": 9054,
      "ĠCompliance": 9055,
      "Ġdeclaration": 9056,
      "Ġfeverish": 9057,
      "Ġperiodic": 9058,
      "Ġclambering": 9059,
      "Ġdisturb": 9060,
      "ĠUpperworld": 9061,
      "Ġdesperate": 9062,
      "Ġspeedily": 9063,
      "Ġprincip": 9064,
      "Ġcorporation": 9065,
      "derived": 9066,
      "Ġceremony": 9067,
      "Ġescape": 9068,
      "bewilderment": 9069,
      "destroy": 9070,
      "effort": 9071,
      "melted": 9072,
      "machines": 9073,
      "physical": 9074,
      "written": 9075,
      "reciate": 9076,
      "Ġtolerance": 9077,
      "Ġpatient": 9078,
      "Ġultimate": 9079,
      "Ġweapon": 9080,
      "olitan": 9081,
      "Ġexperiment": 9082,
      "Ġexcessively": 9083,
      "Ġalteration": 9084,
      "Ġconclusion": 9085,
      "Ġunsolicited": 9086,
      "Ġoverflowing": 9087,
      "Ġtraversed": 9088,
      "Ġimpenetrable": 9089,
      "Ġdiscontinue": 9090,
      "Ġamusement": 9091,
      "Ġcompanion": 9092,
      "Ġinterpretation": 9093,
      "scarcely": 9094,
      "Ġ2001": 9095,
      "Ġhypertext": 9096,
      "Ġproportions": 9097,
      "rehensible": 9098,
      "Ġpreoccupation": 9099,
      "1887": 9100,
      "6221541": 9101,
      "Author": 9102,
      "DEMARK": 9103,
      "DENTAL": 9104,
      "DONATIONS": 9105,
      "DAMAGE": 9106,
      "Morlocks": 9107,
      "NESS": 9108,
      "OTHER": 9109,
      "Phil": 9110,
      "PROVIDED": 9111,
      "PLEASE": 9112,
      "Revenue": 9113,
      "Sections": 9114,
      "Title": 9115,
      "TRADEMARK": 9116,
      "cracy": 9117,
      "copies": 9118,
      "facility": 9119,
      "histor": 9120,
      "matches": 9121,
      "material": 9122,
      "warranties": 9123,
[...]
